{
  "version": "1.0",
  "truncation": {
    "direction": "Right",
    "max_length": 64,
    "strategy": "LongestFirst",
    "stride": 0
  },
  "padding": {
    "strategy": "BatchLongest",
    "direction": "Right",
    "pad_to_multiple_of": null,
    "pad_id": 16000,
    "pad_type_id": 0,
    "pad_token": "<|endoftext|>"
  },
  "added_tokens": [
    {
      "id": 16000,
      "content": "<|endoftext|>",
      "single_word": false,
      "lstrip": false,
      "rstrip": false,
      "normalized": false,
      "special": true
    },
    {
      "id": 16001,
      "content": "<pad>",
      "single_word": false,
      "lstrip": false,
      "rstrip": false,
      "normalized": false,
      "special": true
    }
  ],
  "normalizer": {
    "type": "Sequence",
    "normalizers": [
      {
        "type": "NFD"
      },
      {
        "type": "Lowercase"
      },
      {
        "type": "Strip",
        "strip_left": true,
        "strip_right": true
      },
      {
        "type": "StripAccents"
      }
    ]
  },
  "pre_tokenizer": {
    "type": "ByteLevel",
    "add_prefix_space": false,
    "trim_offsets": true,
    "use_regex": true
  },
  "post_processor": {
    "type": "ByteLevel",
    "add_prefix_space": true,
    "trim_offsets": true,
    "use_regex": true
  },
  "decoder": {
    "type": "ByteLevel",
    "add_prefix_space": true,
    "trim_offsets": true,
    "use_regex": true
  },
  "model": {
    "type": "BPE",
    "dropout": null,
    "unk_token": null,
    "continuing_subword_prefix": null,
    "end_of_word_suffix": null,
    "fuse_unk": false,
    "byte_fallback": false,
    "ignore_merges": false,
    "vocab": {
      "$": 0,
      "&": 1,
      "(": 2,
      ")": 3,
      "*": 4,
      ",": 5,
      "-": 6,
      ".": 7,
      "/": 8,
      "0": 9,
      "1": 10,
      "2": 11,
      "3": 12,
      "4": 13,
      "5": 14,
      "6": 15,
      "7": 16,
      "8": 17,
      "9": 18,
      ":": 19,
      ";": 20,
      "[": 21,
      "]": 22,
      "^": 23,
      "_": 24,
      "a": 25,
      "b": 26,
      "c": 27,
      "d": 28,
      "e": 29,
      "f": 30,
      "g": 31,
      "h": 32,
      "i": 33,
      "j": 34,
      "k": 35,
      "l": 36,
      "m": 37,
      "n": 38,
      "o": 39,
      "p": 40,
      "q": 41,
      "r": 42,
      "s": 43,
      "t": 44,
      "u": 45,
      "v": 46,
      "w": 47,
      "x": 48,
      "y": 49,
      "z": 50,
      "{": 51,
      "}": 52,
      "£": 53,
      "¦": 54,
      "·": 55,
      "Â": 56,
      "Ã": 57,
      "Å": 58,
      "â": 59,
      "Ġ": 60,
      "Ģ": 61,
      "Ĭ": 62,
      "ĵ": 63,
      "Ķ": 64,
      "ĺ": 65,
      "Ļ": 66,
      "ľ": 67,
      "Ŀ": 68,
      "Ġt": 69,
      "he": 70,
      "Ġa": 71,
      "in": 72,
      "Ġw": 73,
      "Ġs": 74,
      "Ġthe": 75,
      "re": 76,
      "Ġo": 77,
      "Ġm": 78,
      "nd": 79,
      "Ġi": 80,
      "ha": 81,
      "ou": 82,
      "Ġb": 83,
      "er": 84,
      "ed": 85,
      "âĢ": 86,
      "en": 87,
      "Ġto": 88,
      "Ġf": 89,
      "Ġc": 90,
      "Ġand": 91,
      "on": 92,
      "hi": 93,
      "ing": 94,
      "Ġd": 95,
      "Ġhe": 96,
      "Ġof": 97,
      "or": 98,
      "ll": 99,
      "st": 100,
      "it": 101,
      "Ġl": 102,
      "ar": 103,
      "Ġin": 104,
      "Ġn": 105,
      "an": 106,
      "at": 107,
      "Ġp": 108,
      "as": 109,
      "Ġha": 110,
      "es": 111,
      "om": 112,
      "Ġbe": 113,
      "hat": 114,
      "ĠâĢ": 115,
      "ot": 116,
      "Ġe": 117,
      "Ġg": 118,
      "le": 119,
      "Ġhi": 120,
      "ow": 121,
      "Ġy": 122,
      "ve": 123,
      "se": 124,
      "ĠĠ": 125,
      "ly": 126,
      "ut": 127,
      "Ġwas": 128,
      "ce": 129,
      "ld": 130,
      "Ġthat": 131,
      "gh": 132,
      "Ġit": 133,
      "et": 134,
      "ent": 135,
      "Ġyou": 136,
      "ch": 137,
      "ver": 138,
      "Ġon": 139,
      "Ġwe": 140,
      "Ġre": 141,
      "ion": 142,
      "Ġas": 143,
      "ri": 144,
      "Ġmy": 145,
      "Ġher": 146,
      "ay": 147,
      "ith": 148,
      "id": 149,
      "Ġfor": 150,
      "is": 151,
      "Ġnot": 152,
      "--": 153,
      "Ġu": 154,
      "Ġwith": 155,
      "Ġme": 156,
      "ĠâĢĿ": 157,
      "Ġhis": 158,
      "âĢĻ": 159,
      "ght": 160,
      "al": 161,
      "ur": 162,
      "Ġh": 163,
      "ad": 164,
      "ould": 165,
      "her": 166,
      "Ġth": 167,
      "ct": 168,
      "Ġhad": 169,
      "ir": 170,
      "ro": 171,
      "Ġshe": 172,
      "Ġat": 173,
      "li": 174,
      "Ġan": 175,
      "ĠâĢľ": 176,
      "Ġis": 177,
      "Ġbut": 178,
      "âĢľ": 179,
      "Ġst": 180,
      "Ġse": 181,
      "me": 182,
      "Ġso": 183,
      "oo": 184,
      "ĠĠĠĠ": 185,
      "ke": 186,
      "ain": 187,
      "ess": 188,
      "Ġhim": 189,
      "Ġsu": 190,
      "Ġwhi": 191,
      "Ġsa": 192,
      "ill": 193,
      "ter": 194,
      "Ġhave": 195,
      "red": 196,
      "Ġall": 197,
      "ab": 198,
      "Ġde": 199,
      "ore": 200,
      "and": 201,
      "ome": 202,
      "ck": 203,
      "Ġwhe": 204,
      "the": 205,
      "pe": 206,
      "Ġli": 207,
      "rom": 208,
      "ust": 209,
      "our": 210,
      "his": 211,
      "Ġk": 212,
      "th": 213,
      "ge": 214,
      "qu": 215,
      "ra": 216,
      "Ġdo": 217,
      "all": 218,
      "Ġby": 219,
      "Ġwhich": 220,
      "ation": 221,
      "Ġcon": 222,
      "pp": 223,
      "lf": 224,
      "Ġfe": 225,
      "Ġfrom": 226,
      "ho": 227,
      "Ġj": 228,
      "very": 229,
      "fe": 230,
      "ard": 231,
      "Ġv": 232,
      "Ġne": 233,
      "il": 234,
      "âĢĿ": 235,
      "Ġwhen": 236,
      "Ġwere": 237,
      "res": 238,
      "Ġthis": 239,
      "ind": 240,
      "to": 241,
      "ight": 242,
      "ul": 243,
      "Ġex": 244,
      "Ġthere": 245,
      "han": 246,
      "ic": 247,
      "Ġkn": 248,
      "Ġsee": 249,
      "Ġno": 250,
      "ant": 251,
      "Ġmr": 252,
      "te": 253,
      "Ġthey": 254,
      "mp": 255,
      "Ġsaid": 256,
      "nt": 257,
      "Ġcould": 258,
      "art": 259,
      "ast": 260,
      "us": 261,
      "Ġif": 262,
      "Ġman": 263,
      "ous": 264,
      "self": 265,
      "ough": 266,
      "Ġal": 267,
      "Ġsh": 268,
      "one": 269,
      "Ġwho": 270,
      "ate": 271,
      "ook": 272,
      "we": 273,
      "Ġbeen": 274,
      "de": 275,
      "Ġup": 276,
      "ood": 277,
      ",âĢĿ": 278,
      "Ġor": 279,
      "ong": 280,
      "ist": 281,
      "Ġam": 282,
      "ound": 283,
      "am": 284,
      "Ġare": 285,
      "Ġwill": 286,
      "Ġyour": 287,
      "Ġthem": 288,
      "eth": 289,
      "Ġwhat": 290,
      "Ġwould": 291,
      "ort": 292,
      "ak": 293,
      "ers": 294,
      "Ġone": 295,
      "out": 296,
      "un": 297,
      "Ġaf": 298,
      "Ġca": 299,
      "Ġ_": 300,
      "Ġgo": 301,
      "Ġag": 302,
      "Ġcom": 303,
      "ved": 304,
      "os": 305,
      "Ġknow": 306,
      "ol": 307,
      "ven": 308,
      "ure": 309,
      "Ġr": 310,
      "Ġany": 311,
      "Ġsome": 312,
      "Ġab": 313,
      "Ġcan": 314,
      "able": 315,
      "Ġun": 316,
      "la": 317,
      "Ġle": 318,
      "cy": 319,
      "ment": 320,
      "----": 321,
      "ity": 322,
      "fore": 323,
      "Ġti": 324,
      "Ġthen": 325,
      "Ġsha": 326,
      "reat": 327,
      "itt": 328,
      "ep": 329,
      "ther": 330,
      "ive": 331,
      "Ġwor": 332,
      "Ġmore": 333,
      "Ġout": 334,
      "Ġlo": 335,
      "Ġus": 336,
      "Ġpro": 337,
      "ake": 338,
      "Ġqu": 339,
      "Ġvery": 340,
      "Ġar": 341,
      "if": 342,
      "Ġtheir": 343,
      "hed": 344,
      "ence": 345,
      "med": 346,
      "Ġnow": 347,
      "Ġlook": 348,
      "wn": 349,
      "way": 350,
      "Ġmust": 351,
      "Ġro": 352,
      "liz": 353,
      "own": 354,
      "ance": 355,
      "Ġhow": 356,
      "ag": 357,
      "Ġco": 358,
      "Ġsp": 359,
      "Ġdid": 360,
      "ink": 361,
      "Ġtoo": 362,
      "lo": 363,
      "Ġover": 364,
      "Ġmo": 365,
      "be": 366,
      "ine": 367,
      "Ġte": 368,
      "Ġthan": 369,
      "abeth": 370,
      "lizabeth": 371,
      "Ġfa": 372,
      "Ġtr": 373,
      "ble": 374,
      "urn": 375,
      "ass": 376,
      "uch": 377,
      "cc": 378,
      "el": 379,
      "Ġen": 380,
      "ought": 381,
      "Ġtime": 382,
      "Ġinto": 383,
      "rie": 384,
      "nder": 385,
      "ress": 386,
      "ction": 387,
      "pt": 388,
      "Ġmay": 389,
      "Ġagain": 390,
      "ather": 391,
      "ings": 392,
      "ount": 393,
      "Ġother": 394,
      "Ġbefore": 395,
      "Ġsuch": 396,
      "other": 397,
      "ĠĠĠĠĠĠĠĠ": 398,
      "age": 399,
      "of": 400,
      "Ġhas": 401,
      "ne": 402,
      "for": 403,
      "ness": 404,
      "Ġ*": 405,
      "mb": 406,
      "Ġafter": 407,
      "au": 408,
      "Ġshall": 409,
      "Ġad": 410,
      "Ġonly": 411,
      "Ġmis": 412,
      "Ġour": 413,
      "ward": 414,
      "ally": 415,
      "Ġdis": 416,
      "ig": 417,
      "Ġpo": 418,
      "ked": 419,
      "ite": 420,
      "Ġmad": 421,
      "Ġshould": 422,
      "that": 423,
      "ish": 424,
      "ice": 425,
      "Ġdar": 426,
      "Ġmuch": 427,
      "riend": 428,
      "ry": 429,
      "Ġlike": 430,
      "ful": 431,
      "not": 432,
      "ie": 433,
      "Ġhand": 434,
      "Ġelizabeth": 435,
      "Ġthink": 436,
      "ack": 437,
      "ady": 438,
      "ving": 439,
      "Ġeven": 440,
      "ci": 441,
      "Ġday": 442,
      "Ġevery": 443,
      "Ġlong": 444,
      "ide": 445,
      "âĢĶ": 446,
      "ĠĠĠĠĠĠ": 447,
      "ose": 448,
      "ru": 449,
      "yes": 450,
      "ittle": 451,
      "ert": 452,
      "co": 453,
      "Ġown": 454,
      "ick": 455,
      "led": 456,
      "Ġlet": 457,
      "im": 458,
      "Ġho": 459,
      "Ġcame": 460,
      "ried": 461,
      "Ġfriend": 462,
      "Ġabout": 463,
      "Ġper": 464,
      "are": 465,
      "ies": 466,
      "um": 467,
      "ire": 468,
      "you": 469,
      "Ġsay": 470,
      "ary": 471,
      "Ġdown": 472,
      "Ġhel": 473,
      "per": 474,
      "Ġgood": 475,
      "by": 476,
      "Ġhar": 477,
      "Ġdes": 478,
      "hing": 479,
      "ily": 480,
      "ree": 481,
      "Ġwell": 482,
      "Ġmight": 483,
      "Ġpart": 484,
      ":--": 485,
      "ced": 486,
      "Ġcome": 487,
      "Ġlittle": 488,
      "Ġgreat": 489,
      "est": 490,
      "wo": 491,
      "Ġcha": 492,
      "less": 493,
      "ps": 494,
      "ning": 495,
      "ars": 496,
      "Ġri": 497,
      "irst": 498,
      "Ġwent": 499,
      "Ġbr": 500,
      "ach": 501,
      "ect": 502,
      "Ġsaw": 503,
      "ouse": 504,
      "Ġnever": 505,
      "Ġcomp": 506,
      "Ġthough": 507,
      "Ġob": 508,
      "ated": 509,
      "Ġpre": 510,
      "Ġthought": 511,
      "ves": 512,
      "ened": 513,
      "Ġdear": 514,
      "Ġway": 515,
      "Ġhapp": 516,
      "Ġback": 517,
      "ft": 518,
      "ng": 519,
      "sing": 520,
      "Ġwhere": 521,
      "pect": 522,
      "Ġmrs": 523,
      "--------": 524,
      "Ġhere": 525,
      "Ġben": 526,
      "con": 527,
      "Ġjust": 528,
      "Ġfirst": 529,
      "Ġmade": 530,
      "mo": 531,
      "Ġdarcy": 532,
      "ever": 533,
      "my": 534,
      "ud": 535,
      "lie": 536,
      "Ġeyes": 537,
      "Ġbeg": 538,
      "Ġroom": 539,
      "Ġop": 540,
      "ue": 541,
      "ull": 542,
      "Ġent": 543,
      "Ġoff": 544,
      "Ġthr": 545,
      "Ġimp": 546,
      "Ġgr": 547,
      "Ġnight": 548,
      "Ġbo": 549,
      "Ġfeel": 550,
      "ran": 551,
      "Ġres": 552,
      "Ġaway": 553,
      "Ġsc": 554,
      "Ġits": 555,
      "llow": 556,
      "Ġlu": 557,
      "Ġsom": 558,
      "leas": 559,
      "Ġmin": 560,
      "but": 561,
      "Ġmiss": 562,
      "so": 563,
      "Ġpass": 564,
      "whe": 565,
      "Ġspe": 566,
      "ord": 567,
      "Ġpla": 568,
      "ane": 569,
      "ff": 570,
      "ley": 571,
      "Ġcl": 572,
      "Ġbet": 573,
      "Ġhouse": 574,
      "Ġrep": 575,
      "Ġmost": 576,
      "Ġwh": 577,
      "Ġmar": 578,
      "Ġcount": 579,
      "Ġyet": 580,
      "ared": 581,
      "Ġmake": 582,
      "Ġunder": 583,
      "net": 584,
      "Ġever": 585,
      "lt": 586,
      "thing": 587,
      "Ġbl": 588,
      "Ġpe": 589,
      "si": 590,
      "ave": 591,
      "ious": 592,
      "Ġget": 593,
      "ins": 594,
      "leep": 595,
      "Ġtwo": 596,
      "Ġfo": 597,
      "light": 598,
      "Ġwant": 599,
      "Ġlooked": 600,
      "ions": 601,
      "Ġbec": 602,
      "Ġmyself": 603,
      "Ġseemed": 604,
      "Ġmor": 605,
      "ath": 606,
      "Ġvan": 607,
      "oment": 608,
      "Ġsoon": 609,
      "man": 610,
      "ame": 611,
      "ied": 612,
      "Ġend": 613,
      "ise": 614,
      "Ġturn": 615,
      "int": 616,
      "Ġdoor": 617,
      "Ġbennet": 618,
      "ac": 619,
      "Ġtell": 620,
      "ppe": 621,
      "no": 622,
      "Ġke": 623,
      "Ġcons": 624,
      "Ġthrough": 625,
      "Ġlife": 626,
      "Ġtook": 627,
      "was": 628,
      "Ġbeing": 629,
      "ject": 630,
      "Ġfound": 631,
      "Ġwithout": 632,
      "Ġcont": 633,
      "Ġthese": 634,
      "ats": 635,
      "ner": 636,
      "alk": 637,
      "op": 638,
      "Ġwr": 639,
      "Ġcar": 640,
      "with": 641,
      "Ġold": 642,
      "Ġnothing": 643,
      "Ġlast": 644,
      "ces": 645,
      "mber": 646,
      "she": 647,
      "Ġsist": 648,
      "Ġexp": 649,
      "Ġacc": 650,
      "Ġmoment": 651,
      "ingley": 652,
      "get": 653,
      "ince": 654,
      "su": 655,
      "ertain": 656,
      "iness": 657,
      "ty": 658,
      "Ġsm": 659,
      "Ġsat": 660,
      "Ġbelie": 661,
      "Ġupon": 662,
      "Ġlove": 663,
      "ret": 664,
      "Ġret": 665,
      "ething": 666,
      "Ġrem": 667,
      "Ġgod": 668,
      "ged": 669,
      "Ġpleas": 670,
      "Ġonce": 671,
      "Ġkne": 672,
      "aking": 673,
      "now": 674,
      "Ġhelsing": 675,
      "ten": 676,
      "Ġpres": 677,
      "ex": 678,
      "Ġheart": 679,
      "dy": 680,
      "Ġra": 681,
      "ently": 682,
      "Ġrest": 683,
      "Ġwind": 684,
      "Ġbingley": 685,
      "Ġyoung": 686,
      "Ġface": 687,
      "com": 688,
      "Ġac": 689,
      "Ġear": 690,
      "ign": 691,
      "row": 692,
      "Ġatt": 693,
      "ms": 694,
      "Ġchi": 695,
      "Ġmany": 696,
      "Ġhimself": 697,
      "Ġnew": 698,
      "Ġmen": 699,
      "cl": 700,
      "Ġwo": 701,
      "Ġcall": 702,
      "Ġstill": 703,
      "ined": 704,
      "whi": 705,
      "Ġword": 706,
      "Ġye": 707,
      "Ġim": 708,
      "Ġdre": 709,
      "ĠĠĠĠĠĠĠĠĠĠĠĠĠĠĠĠ": 710,
      "Ġsupp": 711,
      "Ġfelt": 712,
      "Ġinst": 713,
      "ren": 714,
      "Ġpa": 715,
      "Ġhor": 716,
      "Ġfather": 717,
      "ans": 718,
      "wards": 719,
      "cha": 720,
      "Ġpoor": 721,
      "Ġlucy": 722,
      "Ġsleep": 723,
      "Ġsomething": 724,
      "fect": 725,
      "what": 726,
      "ause": 727,
      "Ġheard": 728,
      "Ġlady": 729,
      "ations": 730,
      "Ġwa": 731,
      "Ġjo": 732,
      "Ġjane": 733,
      "atsby": 734,
      "Ġmind": 735,
      "dd": 736,
      "Ġev": 737,
      "ways": 738,
      "Ġplace": 739,
      "fess": 740,
      "Ġtake": 741,
      "Ġappe": 742,
      "urp": 743,
      "Ġkind": 744,
      "Ġknew": 745,
      "ia": 746,
      "ished": 747,
      "ained": 748,
      "Ġda": 749,
      "Ġpl": 750,
      "Ġgot": 751,
      "Ġadd": 752,
      "Ġtold": 753,
      "air": 754,
      "Ġgl": 755,
      "Ġthose": 756,
      "most": 757,
      "Ġwat": 758,
      "Ġfl": 759,
      "Ġdist": 760,
      "Ġans": 761,
      "av": 762,
      "Ġherself": 763,
      "Ġhowever": 764,
      "erv": 765,
      "ered": 766,
      "Ġsame": 767,
      "ited": 768,
      "cept": 769,
      "bo": 770,
      "ention": 771,
      "Ġwom": 772,
      "ang": 773,
      "Ġcoll": 774,
      "tend": 775,
      "Ġpos": 776,
      "Ġletter": 777,
      "Ġsister": 778,
      "ted": 779,
      "Ġapp": 780,
      "ase": 781,
      "Ġwi": 782,
      "Ġwork": 783,
      "Ġhope": 784,
      "Ġreturn": 785,
      "Ġfind": 786,
      "ris": 787,
      "Ġhour": 788,
      "Ġmat": 789,
      "Ġfew": 790,
      "ham": 791,
      "Ġcour": 792,
      "Ġfam": 793,
      "Ġhear": 794,
      "ĠâĢĻ": 795,
      "ting": 796,
      "irl": 797,
      "cei": 798,
      "Ġasked": 799,
      "Ġsun": 800,
      "Ġthings": 801,
      "Ġmorning": 802,
      "Ġlight": 803,
      "Ġhands": 804,
      "rest": 805,
      "ory": 806,
      "Ġbegan": 807,
      "day": 808,
      "right": 809,
      "Ġdone": 810,
      "Ġgatsby": 811,
      "Ġnat": 812,
      "Ġinde": 813,
      "Ġpers": 814,
      "lic": 815,
      "Ġalways": 816,
      "Ġleft": 817,
      "fort": 818,
      "Ġsil": 819,
      "Ġgive": 820,
      "sible": 821,
      "Ġwhile": 822,
      "Ġfear": 823,
      "Ġcannot": 824,
      "ery": 825,
      "night": 826,
      "Ġchan": 827,
      "Ġread": 828,
      "shi": 829,
      "oub": 830,
      "Ġvo": 831,
      "ix": 832,
      "Ġtill": 833,
      "Ġseen": 834,
      "Ġcertain": 835,
      "Ġdi": 836,
      "ched": 837,
      "how": 838,
      "Ġfar": 839,
      "Ġocc": 840,
      "had": 841,
      "Ġhead": 842,
      "Ġpr": 843,
      "Ġgirl": 844,
      "Ġwhom": 845,
      "mon": 846,
      "icul": 847,
      "Ġla": 848,
      "aught": 849,
      "Ġhard": 850,
      "sp": 851,
      "vi": 852,
      "onat": 853,
      "Ġstran": 854,
      "onathan": 855,
      "hes": 856,
      "use": 857,
      "Ġter": 858,
      "oth": 859,
      "bour": 860,
      "ming": 861,
      "Ġswe": 862,
      "ressed": 863,
      "gether": 864,
      "this": 865,
      "Ġmina": 866,
      "Ġset": 867,
      "Ġche": 868,
      "Ġquite": 869,
      "Ġturned": 870,
      "Ġsen": 871,
      "Ġmother": 872,
      "ower": 873,
      "rave": 874,
      "Ġright": 875,
      "Ġdif": 876,
      "Ġput": 877,
      "Ġgre": 878,
      "ute": 879,
      "up": 880,
      "its": 881,
      "ition": 882,
      "Ġsub": 883,
      "there": 884,
      "Ġworld": 885,
      "ickham": 886,
      "----------------": 887,
      "ired": 888,
      "pos": 889,
      "Ġdr": 890,
      "Ġhalf": 891,
      "Ġgu": 892,
      "Ġbelieve": 893,
      "Ġeach": 894,
      "Ġwhole": 895,
      "Ġopen": 896,
      "Ġfollow": 897,
      "aut": 898,
      "do": 899,
      "Ġanother": 900,
      "ract": 901,
      "Ġdoes": 902,
      "Ġmon": 903,
      "Ġgi": 904,
      "ield": 905,
      "ker": 906,
      "ither": 907,
      "Ġly": 908,
      "lied": 909,
      "pter": 910,
      "Ġsure": 911,
      "Ġcollins": 912,
      "ration": 913,
      "isy": 914,
      "ros": 915,
      "Ġprofess": 916,
      "Ġspo": 917,
      "mer": 918,
      "Ġsince": 919,
      "Ġhome": 920,
      "Ġeng": 921,
      "Ġpassed": 922,
      "Ġchild": 923,
      "Ġref": 924,
      "ately": 925,
      "ason": 926,
      "vers": 927,
      "Ġhelp": 928,
      "Ġbetter": 929,
      "Ġwindow": 930,
      "Ġtom": 931,
      "Ġreg": 932,
      "Ġexc": 933,
      "Ġfamily": 934,
      "him": 935,
      "Ġgen": 936,
      "which": 937,
      "ks": 938,
      "Ġnear": 939,
      "ween": 940,
      "when": 941,
      "haps": 942,
      "pped": 943,
      "iet": 944,
      "ling": 945,
      "Ġtowards": 946,
      "itu": 947,
      "Ġnor": 948,
      "Ġgoing": 949,
      "Ġindeed": 950,
      "unt": 951,
      "ster": 952,
      "dden": 953,
      "stand": 954,
      "Ġcare": 955,
      "Ġanything": 956,
      "sh": 957,
      "dia": 958,
      "oh": 959,
      "Ġwish": 960,
      "have": 961,
      "Ġenough": 962,
      "Ġwickham": 963,
      "Ġinte": 964,
      "well": 965,
      "Ġpresent": 966,
      "imp": 967,
      "Ġdeath": 968,
      "Ġ_--": 969,
      "ised": 970,
      "der": 971,
      "Ġvis": 972,
      "aken": 973,
      "come": 974,
      "inu": 975,
      "ceived": 976,
      "xt": 977,
      "Ġcried": 978,
      "alked": 979,
      "Ġint": 980,
      "Ġexpect": 981,
      "Ġalone": 982,
      "Ġalmost": 983,
      "ople": 984,
      "Ġgard": 985,
      "Ġadv": 986,
      "wer": 987,
      "will": 988,
      "oud": 989,
      "ments": 990,
      "ully": 991,
      "Ġbetween": 992,
      "Ġkeep": 993,
      "Ġvoice": 994,
      "Ġboth": 995,
      "owed": 996,
      "entle": 997,
      "Ġthree": 998,
      "Ġsudden": 999,
      "Ġdark": 1000,
      "Ġhappy": 1001,
      "Ġprofessor": 1002,
      ",--": 1003,
      "Ġide": 1004,
      "Ġharker": 1005,
      "part": 1006,
      "Ġstr": 1007,
      "ustration": 1008,
      "Ġarri": 1009,
      "ken": 1010,
      "Ġdon": 1011,
      "Ġgone": 1012,
      "Ġwoman": 1013,
      "elizabeth": 1014,
      "iss": 1015,
      "Ġstre": 1016,
      "illustration": 1017,
      "Ġvi": 1018,
      "Ġcoming": 1019,
      "atherine": 1020,
      "Ġdra": 1021,
      "Ġjonathan": 1022,
      "Ġwhy": 1023,
      "ual": 1024,
      "ured": 1025,
      "Ġside": 1026,
      "Ġoften": 1027,
      "rible": 1028,
      "ils": 1029,
      "Ġspeak": 1030,
      "af": 1031,
      "fa": 1032,
      "your": 1033,
      "Ġch": 1034,
      "Ġgave": 1035,
      "riage": 1036,
      "Ġpoint": 1037,
      "Ġlydia": 1038,
      "Ġill": 1039,
      "Ġdet": 1040,
      "uring": 1041,
      "aint": 1042,
      "Ġwhite": 1043,
      "ably": 1044,
      "du": 1045,
      "min": 1046,
      "Ġless": 1047,
      "Ġinc": 1048,
      "Ġass": 1049,
      "cted": 1050,
      "fection": 1051,
      "iled": 1052,
      "Ġagainst": 1053,
      "Ġdaisy": 1054,
      "ap": 1055,
      "ial": 1056,
      "Ġsou": 1057,
      "Ġbeaut": 1058,
      "sel": 1059,
      "body": 1060,
      "ror": 1061,
      "ught": 1062,
      "arn": 1063,
      "Ġhus": 1064,
      "Ġthing": 1065,
      "room": 1066,
      "Ġothers": 1067,
      "Ġperhaps": 1068,
      "Ġchar": 1069,
      "ready": 1070,
      "vered": 1071,
      "ceed": 1072,
      "Ġpeople": 1073,
      "mr": 1074,
      "Ġdoub": 1075,
      "band": 1076,
      "mes": 1077,
      "any": 1078,
      "Ġbest": 1079,
      "thur": 1080,
      "hy": 1081,
      "jo": 1082,
      "rent": 1083,
      "erable": 1084,
      "Ġask": 1085,
      "Ġquick": 1086,
      "ient": 1087,
      "ility": 1088,
      "where": 1089,
      "Ġbre": 1090,
      "Ġbro": 1091,
      "orrow": 1092,
      "osed": 1093,
      "ross": 1094,
      "land": 1095,
      "Ġsort": 1096,
      "Ġdri": 1097,
      "Ġgentle": 1098,
      "Ġreme": 1099,
      "Ġamong": 1100,
      "Ġbecause": 1101,
      "ures": 1102,
      "Ġtogether": 1103,
      "Ġmean": 1104,
      "Ġmanner": 1105,
      "Ġreplied": 1106,
      "Ġwonder": 1107,
      "Ġspoke": 1108,
      "ile": 1109,
      "Ġsound": 1110,
      "Ġdays": 1111,
      "Ġsurp": 1112,
      "Ġclo": 1113,
      "Ġinter": 1114,
      "Ġrel": 1115,
      "Ġfeelings": 1116,
      "Ġstrange": 1117,
      "les": 1118,
      "Ġ1": 1119,
      "Ġtre": 1120,
      "Ġtalk": 1121,
      "Ġaw": 1122,
      "Ġcatherine": 1123,
      "Ġconf": 1124,
      "Ġspir": 1125,
      "imes": 1126,
      "ark": 1127,
      "Ġjour": 1128,
      "Ġfull": 1129,
      "Ġdaught": 1130,
      "ult": 1131,
      "Ġcomm": 1132,
      "cle": 1133,
      "ses": 1134,
      "sten": 1135,
      "ĠâĢĺ": 1136,
      "Ġnext": 1137,
      "temp": 1138,
      "Ġleave": 1139,
      "Ġyears": 1140,
      "br": 1141,
      "ron": 1142,
      "Ġoh": 1143,
      "Ġprom": 1144,
      "Ġhaving": 1145,
      "Ġunt": 1146,
      "Ġhum": 1147,
      "Ġstart": 1148,
      "Ġneed": 1149,
      "Ġcontinu": 1150,
      "iz": 1151,
      "ating": 1152,
      "Ġseward": 1153,
      "Ġwhose": 1154,
      "Ġanswer": 1155,
      "Ġair": 1156,
      "Ġhur": 1157,
      "used": 1158,
      "Ġaround": 1159,
      "Ġfriends": 1160,
      "Ġsubject": 1161,
      "cer": 1162,
      "fully": 1163,
      "ndon": 1164,
      "Ġste": 1165,
      "Ġperson": 1166,
      "Ġpower": 1167,
      "ford": 1168,
      "cess": 1169,
      "Ġbed": 1170,
      "Ġtown": 1171,
      "Ġlat": 1172,
      "let": 1173,
      "etimes": 1174,
      "Ġalso": 1175,
      "Ġlooking": 1176,
      "peri": 1177,
      "Ġmatter": 1178,
      "from": 1179,
      "Ġpain": 1180,
      "rise": 1181,
      "Ġround": 1182,
      "Ġcalled": 1183,
      "Ġgener": 1184,
      "Ġhusband": 1185,
      "ger": 1186,
      "iv": 1187,
      "ying": 1188,
      "Ġact": 1189,
      "Ġcor": 1190,
      "Ġshort": 1191,
      "Ġadm": 1192,
      "Ġblood": 1193,
      "Ġwords": 1194,
      "look": 1195,
      "Ġreally": 1196,
      "Ġdec": 1197,
      "field": 1198,
      "Ġmur": 1199,
      "Ġinv": 1200,
      "chapter": 1201,
      "Ġidea": 1202,
      "some": 1203,
      "Ġbu": 1204,
      "Ġreason": 1205,
      "Ġalready": 1206,
      "Ġaffection": 1207,
      "Ġrather": 1208,
      "Ġdoubt": 1209,
      "em": 1210,
      "Ġwalk": 1211,
      "iting": 1212,
      "Ġreal": 1213,
      "Ġmeet": 1214,
      "they": 1215,
      "though": 1216,
      "Ġresol": 1217,
      "Ġunderstand": 1218,
      "Ġappear": 1219,
      "Ġinterest": 1220,
      "dis": 1221,
      "Ġsent": 1222,
      "ade": 1223,
      "Ġleast": 1224,
      "ctions": 1225,
      "gra": 1226,
      "zy": 1227,
      "Ġ[": 1228,
      "Ġmet": 1229,
      "Ġcol": 1230,
      "like": 1231,
      "Ġdest": 1232,
      "ledge": 1233,
      "Ġobs": 1234,
      "rence": 1235,
      "Ġlay": 1236,
      "Ġpat": 1237,
      "Ġpri": 1238,
      "Ġarthur": 1239,
      "Ġevening": 1240,
      "Ġopened": 1241,
      "Ġpleasure": 1242,
      "Ġabs": 1243,
      "Ġuntil": 1244,
      "yed": 1245,
      "rew": 1246,
      "Ġcreat": 1247,
      "Ġins": 1248,
      "Ġreco": 1249,
      "wered": 1250,
      "Ġsmall": 1251,
      "Ġcourse": 1252,
      "Ġsweet": 1253,
      "gu": 1254,
      "ond": 1255,
      "Ġshi": 1256,
      "ident": 1257,
      "Ġstay": 1258,
      "Ġdead": 1259,
      "Ġlondon": 1260,
      "lock": 1261,
      "Ġwar": 1262,
      "Ġsir": 1263,
      "ances": 1264,
      "Ġstood": 1265,
      "medi": 1266,
      "selves": 1267,
      "pl": 1268,
      "uri": 1269,
      "Ġhappiness": 1270,
      "Ġsometimes": 1271,
      "Ġsatis": 1272,
      "Ġacqu": 1273,
      "Ġwatch": 1274,
      "cri": 1275,
      "head": 1276,
      "Ġcir": 1277,
      "Ġind": 1278,
      "see": 1279,
      "Ġfort": 1280,
      "Ġran": 1281,
      "Ġgiven": 1282,
      "Ġopp": 1283,
      "Ġhigh": 1284,
      "Ġsec": 1285,
      "Ġlive": 1286,
      "Ġbecame": 1287,
      "Ġsuddenly": 1288,
      "Ġsoul": 1289,
      "Ġcase": 1290,
      "Ġduring": 1291,
      "uth": 1292,
      "ool": 1293,
      "Ġcond": 1294,
      "Ġexpress": 1295,
      "Ġstrong": 1296,
      "go": 1297,
      "lst": 1298,
      "ingly": 1299,
      "Ġinqu": 1300,
      "Ġpur": 1301,
      "Ġel": 1302,
      "Ġquest": 1303,
      "Ġclose": 1304,
      "men": 1305,
      "would": 1306,
      "Ġdire": 1307,
      "ains": 1308,
      "ferent": 1309,
      "Ġnature": 1310,
      "igh": 1311,
      "ually": 1312,
      "Ġmist": 1313,
      "Ġdelight": 1314,
      "were": 1315,
      "Ġinstant": 1316,
      "gg": 1317,
      "pro": 1318,
      "Ġbus": 1319,
      "Ġfin": 1320,
      "ott": 1321,
      "form": 1322,
      "Ġcountry": 1323,
      "app": 1324,
      "val": 1325,
      "ene": 1326,
      "eng": 1327,
      "Ġsuff": 1328,
      "Ġtherefore": 1329,
      "une": 1330,
      "Ġobject": 1331,
      "Ġsuppose": 1332,
      "ye": 1333,
      "Ġthus": 1334,
      "Ġdeep": 1335,
      "Ġconsid": 1336,
      "low": 1337,
      "Ġtaken": 1338,
      "Ġlost": 1339,
      "Ġimag": 1340,
      "Ġanswered": 1341,
      "lu": 1342,
      "utes": 1343,
      "Ġuse": 1344,
      "them": 1345,
      "ical": 1346,
      "Ġable": 1347,
      "Ġcold": 1348,
      "iam": 1349,
      "veral": 1350,
      "Ġstud": 1351,
      "Ġext": 1352,
      "Ġeverything": 1353,
      "cond": 1354,
      "Ġadded": 1355,
      "bed": 1356,
      "ton": 1357,
      "happ": 1358,
      "ering": 1359,
      "Ġinf": 1360,
      "ached": 1361,
      "chan": 1362,
      "sa": 1363,
      "Ġsw": 1364,
      "Ġbla": 1365,
      "Ġfall": 1366,
      "Ġcle": 1367,
      "Ġname": 1368,
      "asion": 1369,
      "Ġeither": 1370,
      "Ġattend": 1371,
      "Ġbrother": 1372,
      "Ġplay": 1373,
      "ace": 1374,
      "iner": 1375,
      "ste": 1376,
      "Ġlau": 1377,
      "Ġwee": 1378,
      "Ġstep": 1379,
      "then": 1380,
      "Ġwrite": 1381,
      "nal": 1382,
      "Ġbes": 1383,
      "ctor": 1384,
      "Ġdesp": 1385,
      "Ġimmedi": 1386,
      "Ġwife": 1387,
      "Ġvisit": 1388,
      "act": 1389,
      "could": 1390,
      "ef": 1391,
      "Ġdin": 1392,
      "Ġwithin": 1393,
      "Ġfellow": 1394,
      "aster": 1395,
      "Ġdisco": 1396,
      "Ġmadam": 1397,
      "ump": 1398,
      "ouble": 1399,
      "Ġemp": 1400,
      "itting": 1401,
      "Ġtrue": 1402,
      "Ġbrought": 1403,
      "Ġhardly": 1404,
      "che": 1405,
      "eav": 1406,
      "ier": 1407,
      "Ġthi": 1408,
      "Ġtri": 1409,
      "oured": 1410,
      "Ġanx": 1411,
      "ference": 1412,
      "tered": 1413,
      "Ġdidn": 1414,
      "ible": 1415,
      "vour": 1416,
      "Ġes": 1417,
      "Ġserv": 1418,
      "Ġbook": 1419,
      "Ġeas": 1420,
      "ety": 1421,
      "Ġwhilst": 1422,
      "cked": 1423,
      "Ġalong": 1424,
      "Ġtimes": 1425,
      "cious": 1426,
      "versation": 1427,
      "itude": 1428,
      "ob": 1429,
      "vo": 1430,
      "Ġtw": 1431,
      "Ġsho": 1432,
      "Ġfour": 1433,
      "Ġsto": 1434,
      "their": 1435,
      "Ġcomfort": 1436,
      "iful": 1437,
      "ney": 1438,
      "Ġattention": 1439,
      "airs": 1440,
      "gr": 1441,
      "hind": 1442,
      "Ġtra": 1443,
      "erved": 1444,
      "Ġlad": 1445,
      "Ġmeans": 1446,
      "aged": 1447,
      "Ġbegin": 1448,
      "Ġbox": 1449,
      "Ġappeared": 1450,
      "Ġchange": 1451,
      "Ġcertainly": 1452,
      "Ġdiary": 1453,
      "cing": 1454,
      "can": 1455,
      "cum": 1456,
      "lot": 1457,
      "Ġx": 1458,
      "Ġtried": 1459,
      "set": 1460,
      "ents": 1461,
      "Ġcontinued": 1462,
      "ped": 1463,
      "ination": 1464,
      "Ġwalked": 1465,
      "Ġstru": 1466,
      "Ġseems": 1467,
      "itted": 1468,
      "Ġglad": 1469,
      "ixed": 1470,
      "Ġgardiner": 1471,
      "_.": 1472,
      "ale": 1473,
      "cour": 1474,
      "good": 1475,
      "just": 1476,
      "know": 1477,
      "oun": 1478,
      "ens": 1479,
      "Ġdro": 1480,
      "Ġsep": 1481,
      "Ġrun": 1482,
      "Ġentered": 1483,
      "Ġdread": 1484,
      "Ġreturned": 1485,
      "Ġsilence": 1486,
      "Ġseveral": 1487,
      "Ġseeing": 1488,
      "Ġknown": 1489,
      "Ġtrust": 1490,
      "iew": 1491,
      "Ġparticul": 1492,
      "Ġaccount": 1493,
      "Ġremember": 1494,
      "Ġdaughter": 1495,
      "bit": 1496,
      "ime": 1497,
      "wor": 1498,
      "Ġaunt": 1499,
      "Ġheld": 1500,
      "Ġlate": 1501,
      "ided": 1502,
      "Ġconcer": 1503,
      "Ġquiet": 1504,
      "Ġbody": 1505,
      "Ġterrible": 1506,
      "racter": 1507,
      "Ġmonth": 1508,
      "long": 1509,
      "sess": 1510,
      "side": 1511,
      "who": 1512,
      "Ġsight": 1513,
      "Ġsea": 1514,
      "Ġyourself": 1515,
      "ively": 1516,
      "Ġperfect": 1517,
      "Ġrespect": 1518,
      "Ġmarried": 1519,
      "Ġpossible": 1520,
      "Ġhours": 1521,
      "cumst": 1522,
      "ev": 1523,
      "fied": 1524,
      "ian": 1525,
      "pre": 1526,
      "sha": 1527,
      "Ġsy": 1528,
      "onour": 1529,
      "Ġlips": 1530,
      "Ġsaying": 1531,
      "Ġfeeling": 1532,
      "Ġearth": 1533,
      "Ġdream": 1534,
      "ners": 1535,
      "Ġbit": 1536,
      "arly": 1537,
      "Ġsum": 1538,
      "Ġfell": 1539,
      "Ġlonger": 1540,
      "Ġdeter": 1541,
      "cas": 1542,
      "Ġsimp": 1543,
      "ities": 1544,
      "raid": 1545,
      "ants": 1546,
      "Ġfavour": 1547,
      "Ġscar": 1548,
      "Ġwild": 1549,
      "Ġhuman": 1550,
      "bly": 1551,
      "clock": 1552,
      "ug": 1553,
      "Ġtable": 1554,
      "Ġmention": 1555,
      "Ġfore": 1556,
      "Ġfive": 1557,
      "ented": 1558,
      "Ġforg": 1559,
      "Ġseem": 1560,
      "ousand": 1561,
      "Ġfact": 1562,
      "Ġground": 1563,
      "anger": 1564,
      "spe": 1565,
      "Ġbreat": 1566,
      "Ġbright": 1567,
      "ank": 1568,
      "alming": 1569,
      "urch": 1570,
      "Ġself": 1571,
      "nest": 1572,
      "Ġprev": 1573,
      "Ġminutes": 1574,
      "Ġendeav": 1575,
      "bourn": 1576,
      "Ġrefle": 1577,
      "after": 1578,
      "az": 1579,
      "more": 1580,
      "pers": 1581,
      "Ġser": 1582,
      "Ġce": 1583,
      "Ġform": 1584,
      "Ġwhether": 1585,
      "ager": 1586,
      "Ġbreak": 1587,
      "lotte": 1588,
      "nded": 1589,
      "Ġcal": 1590,
      "Ġbehind": 1591,
      "Ġready": 1592,
      "Ġreceived": 1593,
      "Ġcause": 1594,
      "Ġroad": 1595,
      "Ġtry": 1596,
      "Ġhold": 1597,
      "Ġdiff": 1598,
      "Ġregard": 1599,
      "cessary": 1600,
      "Ġelse": 1601,
      "Ġladies": 1602,
      "cent": 1603,
      "Ġsk": 1604,
      "Ġmot": 1605,
      "Ġpurp": 1606,
      "Ġred": 1607,
      "ality": 1608,
      "cons": 1609,
      "incey": 1610,
      "Ġgodalming": 1611,
      "Ġearly": 1612,
      "ship": 1613,
      "Ġdifferent": 1614,
      "Ġexpected": 1615,
      "zzy": 1616,
      "Ġtou": 1617,
      "Ġsur": 1618,
      "Ġfire": 1619,
      "ors": 1620,
      "itation": 1621,
      "Ġlord": 1622,
      "ask": 1623,
      "ceive": 1624,
      "Ġstand": 1625,
      "Ġconversation": 1626,
      "ushed": 1627,
      "Ġhorror": 1628,
      "Ġappro": 1629,
      "ding": 1630,
      "Ġut": 1631,
      "Ġought": 1632,
      "Ġfur": 1633,
      "ston": 1634,
      "Ġnone": 1635,
      "Ġpar": 1636,
      "ote": 1637,
      "Ġequ": 1638,
      "Ġgrave": 1639,
      "Ġexcept": 1640,
      "rupt": 1641,
      "Ġevid": 1642,
      "shire": 1643,
      "Ġsense": 1644,
      "tempt": 1645,
      "ph": 1646,
      "pleas": 1647,
      "Ġve": 1648,
      "Ġfree": 1649,
      "Ġcous": 1650,
      "lled": 1651,
      "aring": 1652,
      "att": 1653,
      "usion": 1654,
      "oney": 1655,
      "Ġaff": 1656,
      "Ġlearn": 1657,
      "Ġmoved": 1658,
      "before": 1659,
      "Ġcomple": 1660,
      "Ġwanted": 1661,
      "Ġexpl": 1662,
      "Ġdrew": 1663,
      "Ġwater": 1664,
      "ighbour": 1665,
      "des": 1666,
      "po": 1667,
      "yond": 1668,
      "Ġsign": 1669,
      "Ġmount": 1670,
      "Ġdut": 1671,
      "Ġland": 1672,
      "ows": 1673,
      "ution": 1674,
      "Ġrequ": 1675,
      "ural": 1676,
      "Ġdog": 1677,
      "Ġobli": 1678,
      "Ġpret": 1679,
      "ĠĠĠĠĠĠĠĠĠĠĠĠĠĠĠĠĠĠĠĠĠĠĠĠĠĠĠĠĠĠĠĠ": 1680,
      "Ġwait": 1681,
      "Ġwomen": 1682,
      "Ġoccasion": 1683,
      "chi": 1684,
      "may": 1685,
      "read": 1686,
      "eness": 1687,
      "Ġele": 1688,
      "Ġstate": 1689,
      "ung": 1690,
      "Ġknowledge": 1691,
      "Ġused": 1692,
      "Ġrose": 1693,
      "Ġparty": 1694,
      "Ġopin": 1695,
      "Ġfollowed": 1696,
      "ront": 1697,
      "Ġimmediately": 1698,
      "did": 1699,
      "pes": 1700,
      "ub": 1701,
      "und": 1702,
      "Ġheav": 1703,
      "Ġge": 1704,
      "Ġafraid": 1705,
      "Ġago": 1706,
      "Ġcharacter": 1707,
      "Ġkept": 1708,
      "Ġjoy": 1709,
      "ffe": 1710,
      "friend": 1711,
      "over": 1712,
      "under": 1713,
      "itz": 1714,
      "Ġeager": 1715,
      "Ġfeet": 1716,
      "Ġuncle": 1717,
      "Ġmoon": 1718,
      "Ġmove": 1719,
      "Ġlucas": 1720,
      "rised": 1721,
      "Ġspirits": 1722,
      "every": 1723,
      "hood": 1724,
      "vin": 1725,
      "Ġed": 1726,
      "alth": 1727,
      "illed": 1728,
      "gest": 1729,
      "Ġabo": 1730,
      "itten": 1731,
      "Ġloved": 1732,
      "Ġquincey": 1733,
      "ages": 1734,
      "loom": 1735,
      "Ġlongbourn": 1736,
      "Ġcompan": 1737,
      "Ġthoughts": 1738,
      "Ġsisters": 1739,
      "ilson": 1740,
      "Ġbusiness": 1741,
      "appe": 1742,
      "fast": 1743,
      "ffect": 1744,
      "pla": 1745,
      "owing": 1746,
      "Ġforward": 1747,
      "Ġlizzy": 1748,
      "feel": 1749,
      "Ġprob": 1750,
      "new": 1751,
      "rying": 1752,
      "Ġprep": 1753,
      "Ġscene": 1754,
      "Ġmorris": 1755,
      "Ġsmile": 1756,
      "Ġremained": 1757,
      "Ġsilent": 1758,
      "Ġcircumst": 1759,
      "hn": 1760,
      "mined": 1761,
      "rely": 1762,
      "Ġcho": 1763,
      "Ġeff": 1764,
      "Ġassu": 1765,
      "Ġsole": 1766,
      "Ġdoing": 1767,
      "ously": 1768,
      "onel": 1769,
      "Ġtemp": 1770,
      "cont": 1771,
      "Ġmarriage": 1772,
      "--------------------------------": 1773,
      "Ġlater": 1774,
      "Ġgeneral": 1775,
      "Ġdestro": 1776,
      "_,": 1777,
      "ail": 1778,
      "hor": 1779,
      "ned": 1780,
      "ring": 1781,
      "Ġdanger": 1782,
      "Ġeffect": 1783,
      "Ġformer": 1784,
      "Ġmem": 1785,
      "Ġlea": 1786,
      "itty": 1787,
      "cip": 1788,
      "retched": 1789,
      "Ġjohn": 1790,
      "Ġcheer": 1791,
      "Ġarrived": 1792,
      "Ġquickly": 1793,
      "gn": 1794,
      "pri": 1795,
      "Ġ(": 1796,
      "inter": 1797,
      "Ġsing": 1798,
      "Ġsad": 1799,
      "Ġfre": 1800,
      "Ġfixed": 1801,
      "Ġbeyond": 1802,
      "owers": 1803,
      "Ġhonour": 1804,
      "herfield": 1805,
      "Ġdev": 1806,
      "Ġview": 1807,
      "Ġtrouble": 1808,
      "Ġenjo": 1809,
      "ordan": 1810,
      "noon": 1811,
      "Ġremain": 1812,
      "Ġsett": 1813,
      "should": 1814,
      "Ġbeautiful": 1815,
      "cul": 1816,
      "mn": 1817,
      "miss": 1818,
      "Ġwood": 1819,
      "Ġwished": 1820,
      "Ġsnow": 1821,
      "reme": 1822,
      "enance": 1823,
      "Ġcast": 1824,
      "Ġdie": 1825,
      "lling": 1826,
      "Ġsecond": 1827,
      "iced": 1828,
      "Ġbeauty": 1829,
      "ength": 1830,
      "Ġconsider": 1831,
      "Ġpurpose": 1832,
      "Ġpretty": 1833,
      "rt": 1834,
      "Ġmoney": 1835,
      "Ġcre": 1836,
      "Ġnet": 1837,
      "anced": 1838,
      "ased": 1839,
      "sequ": 1840,
      "resh": 1841,
      "Ġagree": 1842,
      "ccess": 1843,
      "Ġbring": 1844,
      "Ġacross": 1845,
      "Ġpossess": 1846,
      "Ġjourney": 1847,
      "Ġpromise": 1848,
      "Ġcousin": 1849,
      "Ġopinion": 1850,
      "Ġgeor": 1851,
      "ca": 1852,
      "ict": 1853,
      "Ġmine": 1854,
      "lly": 1855,
      "Ġeye": 1856,
      "Ġgrie": 1857,
      "Ġthousand": 1858,
      "Ġdeal": 1859,
      "Ġusual": 1860,
      "ific": 1861,
      "Ġtrans": 1862,
      "Ġpeace": 1863,
      "iety": 1864,
      "Ġdraw": 1865,
      "Ġblack": 1866,
      "certain": 1867,
      "ili": 1868,
      "Ġten": 1869,
      "Ġtaking": 1870,
      "here": 1871,
      "Ġaston": 1872,
      "Ġsitting": 1873,
      "Ġmaking": 1874,
      "outh": 1875,
      "Ġcott": 1876,
      "ons": 1877,
      "Ġlow": 1878,
      "Ġpast": 1879,
      "cely": 1880,
      "Ġconne": 1881,
      "Ġvar": 1882,
      "akes": 1883,
      "ossible": 1884,
      "been": 1885,
      "Ġmisery": 1886,
      "Ġhappened": 1887,
      "duced": 1888,
      "Ġjournal": 1889,
      "king": 1890,
      "nat": 1891,
      "Ġwis": 1892,
      "Ġwilson": 1893,
      "hand": 1894,
      "Ġfine": 1895,
      "Ġciv": 1896,
      "Ġlar": 1897,
      "Ġrec": 1898,
      "Ġmeant": 1899,
      "iles": 1900,
      "Ġexperi": 1901,
      "tember": 1902,
      "Ġthemselves": 1903,
      "ortun": 1904,
      "Ġmiserable": 1905,
      "âĢĶâĢĿ": 1906,
      "ngth": 1907,
      "Ġminute": 1908,
      "comp": 1909,
      "angu": 1910,
      "Ġletters": 1911,
      "Ġship": 1912,
      "Ġdifficul": 1913,
      "dr": 1914,
      "gy": 1915,
      "must": 1916,
      "Ġcuri": 1917,
      "Ġdare": 1918,
      "orm": 1919,
      "Ġphi": 1920,
      "ides": 1921,
      "Ġthrew": 1922,
      "Ġneighbour": 1923,
      "Ġproceed": 1924,
      "Ġart": 1925,
      "ishment": 1926,
      "Ġgirls": 1927,
      "Ġdinner": 1928,
      "Ġseptember": 1929,
      "Ġmonths": 1930,
      "aven": 1931,
      "ection": 1932,
      "fo": 1933,
      "ging": 1934,
      "than": 1935,
      "rehe": 1936,
      "erve": 1937,
      "Ġcri": 1938,
      "Ġcur": 1939,
      "rid": 1940,
      "Ġfair": 1941,
      "Ġenter": 1942,
      "Ġcloud": 1943,
      "Ġbecome": 1944,
      "Ġpersu": 1945,
      "aintance": 1946,
      "Ġsurprise": 1947,
      "Ġsurprised": 1948,
      "Ġeffort": 1949,
      "ild": 1950,
      "such": 1951,
      "why": 1952,
      "Ġdress": 1953,
      "Ġincl": 1954,
      "Ġbeha": 1955,
      "Ġrepe": 1956,
      "Ġsend": 1957,
      "ainted": 1958,
      "Ġlist": 1959,
      "Ġkitty": 1960,
      "antly": 1961,
      "Ġmanners": 1962,
      "olute": 1963,
      "never": 1964,
      "Ġhorses": 1965,
      "tended": 1966,
      "Ġweek": 1967,
      "Ġdespair": 1968,
      "iable": 1969,
      "time": 1970,
      "uct": 1971,
      "Ġtalked": 1972,
      "Ġma": 1973,
      "âĢĺ": 1974,
      "Ġweak": 1975,
      "Ġdeg": 1976,
      "pend": 1977,
      "arent": 1978,
      "Ġaccept": 1979,
      "Ġyear": 1980,
      "Ġstreet": 1981,
      "Ġchurch": 1982,
      "Ġcharlotte": 1983,
      "Ġsatisfied": 1984,
      "Ġquestion": 1985,
      "Ġsteps": 1986,
      "Ġsymp": 1987,
      "amp": 1988,
      "even": 1989,
      "Ġbless": 1990,
      "Ġsoft": 1991,
      "Ġjordan": 1992,
      "Ġneither": 1993,
      "Ġexact": 1994,
      "dered": 1995,
      "Ġwilliam": 1996,
      "ified": 1997,
      "Ġplaced": 1998,
      "Ġnews": 1999,
      "Ġgrew": 2000,
      "Ġviol": 2001,
      "Ġgentleman": 2002,
      "Ġtalking": 2003,
      "Ġwarm": 2004,
      "Ġlaugh": 2005,
      "shall": 2006,
      "Ġnetherfield": 2007,
      "acc": 2008,
      "fer": 2009,
      "som": 2010,
      "wr": 2011,
      "Ġsitu": 2012,
      "har": 2013,
      "Ġbad": 2014,
      "Ġbig": 2015,
      "Ġfront": 2016,
      "Ġlength": 2017,
      "arch": 2018,
      "Ġitself": 2019,
      "idence": 2020,
      "Ġconce": 2021,
      "Ġcomes": 2022,
      "again": 2023,
      "Ġthank": 2024,
      "iece": 2025,
      "Ġsays": 2026,
      "Ġdesire": 2027,
      "Ġchapter": 2028,
      "Ġentire": 2029,
      "Ġoffic": 2030,
      "iously": 2031,
      "Ġcreature": 2032,
      "Ġstudy": 2033,
      "Ġperfectly": 2034,
      "Ġdetermined": 2035,
      "Ġduty": 2036,
      "count": 2037,
      "ler": 2038,
      "morrow": 2039,
      "Ġslight": 2040,
      "Ġfan": 2041,
      "Ġwest": 2042,
      "Ġforget": 2043,
      "about": 2044,
      "Ġalthough": 2045,
      "Ġtruth": 2046,
      "Ġdispos": 2047,
      "arest": 2048,
      "Ġspeaking": 2049,
      "Ġkey": 2050,
      "Ġpale": 2051,
      "Ġoccur": 2052,
      "Ġappearance": 2053,
      "Ġcolonel": 2054,
      "Ġpride": 2055,
      "Ġsecret": 2056,
      "Ġscarcely": 2057,
      "came": 2058,
      "od": 2059,
      "ray": 2060,
      "Ġfright": 2061,
      "only": 2062,
      "stood": 2063,
      "Ġph": 2064,
      "Ġhall": 2065,
      "cell": 2066,
      "Ġhot": 2067,
      "Ġjud": 2068,
      "Ġnecessary": 2069,
      "Ġwhatever": 2070,
      "Ġru": 2071,
      "Ġdescri": 2072,
      "Ġgrat": 2073,
      "Ġclosed": 2074,
      "Ġcarriage": 2075,
      "Ġengaged": 2076,
      "Ġchildren": 2077,
      "Ġbitter": 2078,
      "Ġcalm": 2079,
      "Ġevidently": 2080,
      "Ġheavy": 2081,
      "oint": 2082,
      "Ġfig": 2083,
      "Ġinform": 2084,
      "enty": 2085,
      "Ġrelie": 2086,
      "Ġshut": 2087,
      "ames": 2088,
      "Ġtears": 2089,
      "Ġafternoon": 2090,
      "Ġimpossible": 2091,
      "Ġgetting": 2092,
      "Ġearnest": 2093,
      "Ġkindness": 2094,
      "erval": 2095,
      "Ġchance": 2096,
      "viour": 2097,
      "Ġsens": 2098,
      "Ġspirit": 2099,
      "happy": 2100,
      "Ġbeside": 2101,
      "vinced": 2102,
      "ortunity": 2103,
      "cu": 2104,
      "ife": 2105,
      "lay": 2106,
      "mand": 2107,
      "spect": 2108,
      "inct": 2109,
      "Ġwall": 2110,
      "ative": 2111,
      "als": 2112,
      "aded": 2113,
      "pping": 2114,
      "together": 2115,
      "cience": 2116,
      "Ġevil": 2117,
      "Ġstrength": 2118,
      "Ġincre": 2119,
      "Ġresolved": 2120,
      "Ġrecoll": 2121,
      "Ġstopped": 2122,
      "Ġbreakfast": 2123,
      "Ġsolemn": 2124,
      "might": 2125,
      "Ġ2": 2126,
      "rep": 2127,
      "Ġmaster": 2128,
      "lls": 2129,
      "Ġdepart": 2130,
      "thought": 2131,
      "ards": 2132,
      "Ġexist": 2133,
      "Ġros": 2134,
      "Ġgreater": 2135,
      "Ġimpro": 2136,
      "Ġblind": 2137,
      "char": 2138,
      "Ġnatural": 2139,
      "eryton": 2140,
      "Ġoccup": 2141,
      "Ġstarted": 2142,
      "Ġpatient": 2143,
      "Ġpursu": 2144,
      "Ġcomplete": 2145,
      "Ġgeorge": 2146,
      "ining": 2147,
      "Ġson": 2148,
      "orry": 2149,
      "Ġlun": 2150,
      "ries": 2151,
      "Ġshook": 2152,
      "ounds": 2153,
      "aker": 2154,
      "Ġshar": 2155,
      "Ġsport": 2156,
      "Ġlatter": 2157,
      "Ġwishes": 2158,
      "ience": 2159,
      "ls": 2160,
      "mar": 2161,
      "rance": 2162,
      "wise": 2163,
      "inary": 2164,
      "Ġsle": 2165,
      "Ġmer": 2166,
      "ndered": 2167,
      "Ġbur": 2168,
      "Ġheaven": 2169,
      "ates": 2170,
      "Ġgra": 2171,
      "Ġasleep": 2172,
      "lips": 2173,
      "Ġsake": 2174,
      "ours": 2175,
      "Ġexam": 2176,
      "ush": 2177,
      "Ġcap": 2178,
      "Ġprop": 2179,
      "Ġarm": 2180,
      "Ġarran": 2181,
      "nothing": 2182,
      "Ġimport": 2183,
      "mberley": 2184,
      "Ġwaited": 2185,
      "fortun": 2186,
      "Ġnearly": 2187,
      "Ġbroken": 2188,
      "ized": 2189,
      "appoint": 2190,
      "Ġassured": 2191,
      "Ġentirely": 2192,
      "house": 2193,
      "ii": 2194,
      "ns": 2195,
      "tr": 2196,
      "Ġtrave": 2197,
      "Ġsick": 2198,
      "Ġmouth": 2199,
      "ater": 2200,
      "Ġpause": 2201,
      "Ġbear": 2202,
      "Ġeast": 2203,
      "Ġyes": 2204,
      "Ġnotice": 2205,
      "lix": 2206,
      "Ġstra": 2207,
      "Ġliving": 2208,
      "Ġlisten": 2209,
      "thr": 2210,
      "icient": 2211,
      "antage": 2212,
      "formed": 2213,
      "Ġraised": 2214,
      "Ġwolf": 2215,
      "Ġtrees": 2216,
      "letter": 2217,
      "Ġthir": 2218,
      "Ġbeginning": 2219,
      "Ġabove": 2220,
      "Ġlarge": 2221,
      "cause": 2222,
      "kind": 2223,
      "uly": 2224,
      "rem": 2225,
      "Ġpol": 2226,
      "Ġhair": 2227,
      "Ġremo": 2228,
      "irm": 2229,
      "iration": 2230,
      "Ġsusp": 2231,
      "ices": 2232,
      "atest": 2233,
      "Ġorder": 2234,
      "isted": 2235,
      "Ġtrain": 2236,
      "off": 2237,
      "Ġafterwards": 2238,
      "ciety": 2239,
      "Ġcountenance": 2240,
      "Ġpray": 2241,
      "Ġgarden": 2242,
      "mrs": 2243,
      "Ġfurther": 2244,
      "undred": 2245,
      "Ġsettled": 2246,
      "little": 2247,
      "py": 2248,
      "sed": 2249,
      "wa": 2250,
      "ines": 2251,
      "Ġsix": 2252,
      "Ġsorrow": 2253,
      "Ġmid": 2254,
      "Ġice": 2255,
      "Ġflo": 2256,
      "Ġcr": 2257,
      "Ġcat": 2258,
      "Ġcut": 2259,
      "Ġden": 2260,
      "Ġeat": 2261,
      "cho": 2262,
      "Ġsuccess": 2263,
      "Ġlived": 2264,
      "Ġkiss": 2265,
      "Ġconvinced": 2266,
      "Ġcommon": 2267,
      "Ġshad": 2268,
      "Ġarms": 2269,
      "Ġspent": 2270,
      "mbled": 2271,
      "Ġinstru": 2272,
      "Ġexpression": 2273,
      "Ġemplo": 2274,
      "Ġanxious": 2275,
      "iment": 2276,
      "Ġball": 2277,
      "Ġcli": 2278,
      "str": 2279,
      "stly": 2280,
      "ĠâĢ¦": 2281,
      "Ġest": 2282,
      "eter": 2283,
      "Ġreached": 2284,
      "Ġthin": 2285,
      "Ġthro": 2286,
      "Ġsaf": 2287,
      "cket": 2288,
      "think": 2289,
      "Ġconcl": 2290,
      "sib": 2291,
      "Ġwritten": 2292,
      "Ġbelieved": 2293,
      "Ġ18": 2294,
      "said": 2295,
      "Ġshock": 2296,
      "Ġstruck": 2297,
      "Ġcompanion": 2298,
      "Ġmemory": 2299,
      "Ġleaving": 2300,
      "Ġbehaviour": 2301,
      "Ġdegree": 2302,
      "round": 2303,
      "ze": 2304,
      "Ġtask": 2305,
      "hel": 2306,
      "heart": 2307,
      "Ġsorry": 2308,
      "rer": 2309,
      "Ġoct": 2310,
      "Ġfast": 2311,
      "Ġfresh": 2312,
      "Ġhealth": 2313,
      "stru": 2314,
      "Ġled": 2315,
      "Ġlab": 2316,
      "Ġlangu": 2317,
      "Ġhy": 2318,
      "irt": 2319,
      "Ġstri": 2320,
      "osity": 2321,
      "Ġknows": 2322,
      "Ġune": 2323,
      "Ġlead": 2324,
      "Ġworth": 2325,
      "Ġlikely": 2326,
      "Ġriver": 2327,
      "Ġmarry": 2328,
      "Ġwrong": 2329,
      "Ġsmiled": 2330,
      "Ġpapers": 2331,
      "Ġdistance": 2332,
      "Ġprot": 2333,
      "Ġarrival": 2334,
      "Ġbroke": 2335,
      "Ġeasily": 2336,
      "Ġconceal": 2337,
      "cellent": 2338,
      "acy": 2339,
      "found": 2340,
      "hum": 2341,
      "kn": 2342,
      "Ġfun": 2343,
      "Ġcra": 2344,
      "Ġcross": 2345,
      "Ġdust": 2346,
      "orn": 2347,
      "ancing": 2348,
      "Ġemb": 2349,
      "Ġhol": 2350,
      "Ġattempt": 2351,
      "Ġstory": 2352,
      "Ġallow": 2353,
      "these": 2354,
      "Ġlest": 2355,
      "Ġdisc": 2356,
      "uded": 2357,
      "while": 2358,
      "Ġaddress": 2359,
      "Ġlaid": 2360,
      "Ġinterrupt": 2361,
      "Ġacquaintance": 2362,
      "Ġfortune": 2363,
      "Ġopportunity": 2364,
      "Ġsuffer": 2365,
      "Ġdrove": 2366,
      "Ġcheerful": 2367,
      "Ġcastle": 2368,
      "Ġsharp": 2369,
      "ges": 2370,
      "ggest": 2371,
      "sc": 2372,
      "ues": 2373,
      "Ġsit": 2374,
      "Ġslow": 2375,
      "reg": 2376,
      "Ġmus": 2377,
      "Ġmary": 2378,
      "Ġmeryton": 2379,
      "Ġir": 2380,
      "Ġtoward": 2381,
      "Ġfing": 2382,
      "Ġcent": 2383,
      "Ġcrow": 2384,
      "Ġdied": 2385,
      "stairs": 2386,
      "atic": 2387,
      "Ġem": 2388,
      "Ġgar": 2389,
      "ching": 2390,
      "Ġsave": 2391,
      "Ġconsequ": 2392,
      "Ġagon": 2393,
      "osing": 2394,
      "olves": 2395,
      "Ġoutside": 2396,
      "Ġtele": 2397,
      "Ġhopes": 2398,
      "ester": 2399,
      "Ġblue": 2400,
      "Ġaccom": 2401,
      "Ġlovely": 2402,
      "expect": 2403,
      "Ġmonster": 2404,
      "Ġabsolute": 2405,
      "Ġrepeated": 2406,
      "Ġexactly": 2407,
      "Ġsituation": 2408,
      "ches": 2409,
      "ded": 2410,
      "den": 2411,
      "ead": 2412,
      "much": 2413,
      "made": 2414,
      "sen": 2415,
      "Ġwon": 2416,
      "Ġwide": 2417,
      "Ġwretched": 2418,
      "reed": 2419,
      "Ġmag": 2420,
      "Ġbar": 2421,
      "Ġpull": 2422,
      "otion": 2423,
      "ising": 2424,
      "Ġmerely": 2425,
      "redit": 2426,
      "Ġallowed": 2427,
      "Ġneck": 2428,
      "dead": 2429,
      "bered": 2430,
      "Ġdisappoint": 2431,
      "Ġboy": 2432,
      "Ġclerval": 2433,
      "Ġexpressed": 2434,
      "Ġpleasant": 2435,
      "exp": 2436,
      "Ġplan": 2437,
      "Ġglass": 2438,
      "Ġcourage": 2439,
      "Ġfollowing": 2440,
      "Ġwindows": 2441,
      "Ġintro": 2442,
      "Ġamongst": 2443,
      "Ġdaughters": 2444,
      "Ġboxes": 2445,
      "Ġxx": 2446,
      "Ġforgot": 2447,
      "Ġbreath": 2448,
      "Ġcircumstances": 2449,
      "gl": 2450,
      "imed": 2451,
      "jonathan": 2452,
      "mit": 2453,
      "mis": 2454,
      "ny": 2455,
      "Ġ--": 2456,
      "Ġaug": 2457,
      "has": 2458,
      "Ġtomb": 2459,
      "Ġcru": 2460,
      "arm": 2461,
      "Ġport": 2462,
      "Ġpict": 2463,
      "uture": 2464,
      "entions": 2465,
      "Ġund": 2466,
      "Ġsearch": 2467,
      "mend": 2468,
      "oose": 2469,
      "illy": 2470,
      "Ġdemand": 2471,
      "ilt": 2472,
      "Ġamiable": 2473,
      "loved": 2474,
      "being": 2475,
      "Ġthinking": 2476,
      "Ġbrain": 2477,
      "Ġreport": 2478,
      "Ġhandsome": 2479,
      "Ġgreen": 2480,
      "Ġgreatest": 2481,
      "Ġwonderful": 2482,
      "stenra": 2483,
      "ober": 2484,
      "Ġsimply": 2485,
      "place": 2486,
      "Ġagreeable": 2487,
      "cape": 2488,
      "through": 2489,
      "esterday": 2490,
      "jud": 2491,
      "mbered": 2492,
      "ogra": 2493,
      "pres": 2494,
      "vis": 2495,
      "Ġavo": 2496,
      "Ġcou": 2497,
      "iter": 2498,
      "arr": 2499,
      "Ġhat": 2500,
      "Ġwestenra": 2501,
      "Ġren": 2502,
      "Ġhundred": 2503,
      "live": 2504,
      "Ġang": 2505,
      "Ġanim": 2506,
      "Ġsociety": 2507,
      "Ġdearest": 2508,
      "Ġfeared": 2509,
      "hold": 2510,
      "Ġseek": 2511,
      "wel": 2512,
      "unic": 2513,
      "olo": 2514,
      "Ġfail": 2515,
      "Ġchair": 2516,
      "fted": 2517,
      "Ġreply": 2518,
      "Ġpemberley": 2519,
      "Ġturning": 2520,
      "Ġpleased": 2521,
      "Ġsunset": 2522,
      "Ġstranger": 2523,
      "william": 2524,
      "looking": 2525,
      "Ġobserved": 2526,
      "Ġbooks": 2527,
      "Ġinformation": 2528,
      "Ġrosings": 2529,
      "Ġthroat": 2530,
      "Ġoctober": 2531,
      "mor": 2532,
      "sat": 2533,
      "tom": 2534,
      "wind": 2535,
      "Ġage": 2536,
      "inte": 2537,
      "Ġign": 2538,
      "Ġhen": 2539,
      "ork": 2540,
      "Ġpity": 2541,
      "ash": 2542,
      "Ġgloom": 2543,
      "Ġhun": 2544,
      "Ġsol": 2545,
      "Ġsuffe": 2546,
      "Ġwhit": 2547,
      "Ġsafe": 2548,
      "Ġdelay": 2549,
      "ustom": 2550,
      "Ġdoctor": 2551,
      "Ġnoble": 2552,
      "Ġshow": 2553,
      "amed": 2554,
      "olation": 2555,
      "laimed": 2556,
      "Ġtea": 2557,
      "iend": 2558,
      "Ġeverybody": 2559,
      "Ġdesign": 2560,
      "Ġinstead": 2561,
      "Ġchee": 2562,
      "Ġadvantage": 2563,
      "mina": 2564,
      "Ġhurried": 2565,
      "Ġquestions": 2566,
      "Ġdirect": 2567,
      "Ġsummer": 2568,
      "Ġmountains": 2569,
      "Ġfrequ": 2570,
      "Ġvarious": 2571,
      "fin": 2572,
      "pid": 2573,
      "held": 2574,
      "incip": 2575,
      "Ġmort": 2576,
      "ening": 2577,
      "ense": 2578,
      "ency": 2579,
      "story": 2580,
      "itated": 2581,
      "othes": 2582,
      "Ġyesterday": 2583,
      "ardon": 2584,
      "aste": 2585,
      "ister": 2586,
      "Ġaffect": 2587,
      "Ġlose": 2588,
      "Ġspot": 2589,
      "Ġtrying": 2590,
      "ression": 2591,
      "Ġentreat": 2592,
      "Ġcarried": 2593,
      "without": 2594,
      "Ġaccord": 2595,
      "Ġremark": 2596,
      "Ġdistur": 2597,
      "Ġguard": 2598,
      "brary": 2599,
      "Ġinstantly": 2600,
      "Ġdiscovered": 2601,
      "Ġenjoy": 2602,
      "Ġcivility": 2603,
      "Ġfigure": 2604,
      "culi": 2605,
      "known": 2606,
      "Ġrenfield": 2607,
      ",âĢĻ": 2608,
      "first": 2609,
      "ping": 2610,
      "say": 2611,
      "Ġmed": 2612,
      "Ġbound": 2613,
      "Ġfuture": 2614,
      "atter": 2615,
      "Ġwasn": 2616,
      "Ġrejo": 2617,
      "Ġnote": 2618,
      "lice": 2619,
      "Ġsuggest": 2620,
      "peci": 2621,
      "Ġlie": 2622,
      "Ġvain": 2623,
      "Ġknowing": 2624,
      "Ġteeth": 2625,
      "Ġpost": 2626,
      "ffin": 2627,
      "Ġunderstood": 2628,
      "Ġpresence": 2629,
      "Ġintell": 2630,
      "duce": 2631,
      "perior": 2632,
      "Ġmentioned": 2633,
      "Ġequal": 2634,
      "Ġobliged": 2635,
      "Ġfancy": 2636,
      "sibility": 2637,
      "bb": 2638,
      "hus": 2639,
      "pass": 2640,
      "tford": 2641,
      "van": 2642,
      "into": 2643,
      "Ġwit": 2644,
      "Ġbir": 2645,
      "Ġfat": 2646,
      "Ġfla": 2647,
      "Ġfif": 2648,
      "Ġfaint": 2649,
      "oned": 2650,
      "Ġhell": 2651,
      "Ġinno": 2652,
      "aned": 2653,
      "Ġpath": 2654,
      "ashi": 2655,
      "Ġyouth": 2656,
      "âĢľ_": 2657,
      "Ġseat": 2658,
      "Ġfelix": 2659,
      "Ġval": 2660,
      "Ġvol": 2661,
      "ular": 2662,
      "Ġcouldn": 2663,
      "Ġrain": 2664,
      "Ġsomewhat": 2665,
      "Ġlooks": 2666,
      "Ġrock": 2667,
      "Ġjustine": 2668,
      "Ġwrote": 2669,
      "Ġwaiting": 2670,
      "Ġjoined": 2671,
      "Ġcourt": 2672,
      "upon": 2673,
      "Ġguess": 2674,
      "Ġexcited": 2675,
      "himself": 2676,
      "Ġassure": 2677,
      "Ġwalking": 2678,
      "Ġmeeting": 2679,
      "Ġclear": 2680,
      "Ġanxiety": 2681,
      "Ġstrugg": 2682,
      "Ġparticular": 2683,
      "Ġendeavour": 2684,
      "Ġsky": 2685,
      "appeared": 2686,
      "Ġprobably": 2687,
      "Ġdestroy": 2688,
      "Ġgrief": 2689,
      "Ġsuffered": 2690,
      "tfordshire": 2691,
      "bl": 2692,
      "bet": 2693,
      "great": 2694,
      "sm": 2695,
      "yl": 2696,
      "Ġer": 2697,
      "Ġap": 2698,
      "Ġauth": 2699,
      "iny": 2700,
      "Ġwand": 2701,
      "Ġbent": 2702,
      "Ġbrave": 2703,
      "Ġbaker": 2704,
      "Ġfood": 2705,
      "ribut": 2706,
      "Ġformed": 2707,
      "Ġconfess": 2708,
      "Ġexcellent": 2709,
      "antic": 2710,
      "Ġsomewhere": 2711,
      "Ġunhappy": 2712,
      "Ġquar": 2713,
      "beg": 2714,
      "urned": 2715,
      "ishing": 2716,
      "Ġgrow": 2717,
      "Ġdawn": 2718,
      "Ġnorth": 2719,
      "Ġimagine": 2720,
      "Ġescape": 2721,
      "Ġeasy": 2722,
      "Ġutter": 2723,
      "Ġdrawing": 2724,
      "Ġcottage": 2725,
      "Ġignor": 2726,
      "94": 2727,
      "cceed": 2728,
      "dle": 2729,
      "end": 2730,
      "iod": 2731,
      "jane": 2732,
      "ky": 2733,
      "los": 2734,
      "lish": 2735,
      "occ": 2736,
      "vol": 2737,
      "Ġsl": 2738,
      "Ġbour": 2739,
      "ences": 2740,
      "Ġtor": 2741,
      "Ġfilled": 2742,
      "Ġhes": 2743,
      "Ġnu": 2744,
      "another": 2745,
      "Ġhabit": 2746,
      "Ġgro": 2747,
      "vel": 2748,
      "Ġstation": 2749,
      "Ġvill": 2750,
      "Ġcapt": 2751,
      "Ġunless": 2752,
      "Ġworse": 2753,
      "belie": 2754,
      "Ġene": 2755,
      "Ġrooms": 2756,
      "Ġfoot": 2757,
      "Ġwants": 2758,
      "Ġmoments": 2759,
      "Ġsupposed": 2760,
      "Ġlawn": 2761,
      "Ġengage": 2762,
      "Ġintim": 2763,
      "Ġremembered": 2764,
      "Ġcommunic": 2765,
      "ize": 2766,
      "Ġfinally": 2767,
      "Ġextra": 2768,
      "Ġextreme": 2769,
      "Ġastonishment": 2770,
      "Ġlistened": 2771,
      "Ġslept": 2772,
      "Ġaugust": 2773,
      "pecially": 2774,
      "ber": 2775,
      "father": 2776,
      "gar": 2777,
      "ghed": 2778,
      "gatsby": 2779,
      "ma": 2780,
      "two": 2781,
      "Ġwolves": 2782,
      "Ġsank": 2783,
      "enced": 2784,
      "Ġfiend": 2785,
      "Ġcla": 2786,
      "Ġdared": 2787,
      "Ġlot": 2788,
      "Ġline": 2789,
      "arily": 2790,
      "Ġpra": 2791,
      "Ġpark": 2792,
      "asy": 2793,
      "Ġyork": 2794,
      "Ġwel": 2795,
      "Ġreach": 2796,
      "Ġstop": 2797,
      "keep": 2798,
      "alled": 2799,
      "Ġneg": 2800,
      "Ġshowed": 2801,
      "Ġunable": 2802,
      "Ġproper": 2803,
      "Ġcovered": 2804,
      "Ġcoffin": 2805,
      "urning": 2806,
      "Ġperiod": 2807,
      "Ġcompli": 2808,
      "Ġhappen": 2809,
      "Ġspeci": 2810,
      "acqu": 2811,
      "Ġbelief": 2812,
      "Ġpaper": 2813,
      "Ġfamili": 2814,
      "ceiving": 2815,
      "aughter": 2816,
      "Ġdarkness": 2817,
      "Ġdrive": 2818,
      "Ġgentlemen": 2819,
      "Ġinquired": 2820,
      "Ġweeks": 2821,
      "Ġbesides": 2822,
      "Ġserious": 2823,
      "Ġtouched": 2824,
      "Ġstanding": 2825,
      "Ġsingle": 2826,
      "Ġdifficulty": 2827,
      "Ġcuriosity": 2828,
      "Ġexistence": 2829,
      "Ġsuspic": 2830,
      "Ġfloor": 2831,
      "losop": 2832,
      "Ġbourgh": 2833,
      "away": 2834,
      "dent": 2835,
      "ey": 2836,
      "kes": 2837,
      "sper": 2838,
      "took": 2839,
      "Ġty": 2840,
      "Ġscience": 2841,
      "ream": 2842,
      "Ġfal": 2843,
      "Ġfli": 2844,
      "Ġfran": 2845,
      "Ġcity": 2846,
      "Ġdance": 2847,
      "Ġpay": 2848,
      "Ġears": 2849,
      "ric": 2850,
      "Ġforth": 2851,
      "Ġforced": 2852,
      "Ġforster": 2853,
      "ury": 2854,
      "herself": 2855,
      "Ġdelic": 2856,
      "Ġking": 2857,
      "inde": 2858,
      "ici": 2859,
      "Ġpolice": 2860,
      "copy": 2861,
      "Ġhoped": 2862,
      "Ġaccident": 2863,
      "Ġplease": 2864,
      "Ġyounger": 2865,
      "Ġhorrible": 2866,
      "Ġprincip": 2867,
      "Ġterror": 2868,
      "Ġengland": 2869,
      "Ġrelations": 2870,
      "Ġcolour": 2871,
      "Ġconduct": 2872,
      "Ġlaughed": 2873,
      "Ġtwenty": 2874,
      "itzwilliam": 2875,
      "Ġprepared": 2876,
      "something": 2877,
      "Ġshadow": 2878,
      "Ġavoid": 2879,
      "Ġwhitby": 2880,
      "Ġenemy": 2881,
      "ah": 2882,
      "car": 2883,
      "ec": 2884,
      "jection": 2885,
      "kins": 2886,
      "last": 2887,
      "rate": 2888,
      "uous": 2889,
      "want": 2890,
      "walk": 2891,
      "yard": 2892,
      "zz": 2893,
      "hered": 2894,
      "Ġsmo": 2895,
      "Ġbag": 2896,
      "Ġcredit": 2897,
      "Ġder": 2898,
      "Ġdim": 2899,
      "sty": 2900,
      "Ġbeat": 2901,
      "Ġeld": 2902,
      "velo": 2903,
      "vering": 2904,
      "rim": 2905,
      "âĢľâĢĺ": 2906,
      "Ġsail": 2907,
      "Ġallen": 2908,
      "que": 2909,
      "Ġexceed": 2910,
      "ically": 2911,
      "Ġnodd": 2912,
      "dear": 2913,
      "Ġamaz": 2914,
      "Ġafford": 2915,
      "Ġcaught": 2916,
      "Ġrushed": 2917,
      "mbling": 2918,
      "myself": 2919,
      "Ġimpat": 2920,
      "athy": 2921,
      "Ġwriting": 2922,
      "retch": 2923,
      "Ġchief": 2924,
      "Ġladyship": 2925,
      "Ġjoin": 2926,
      "Ġflowers": 2927,
      "Ġmater": 2928,
      "Ġmatch": 2929,
      "Ġchanged": 2930,
      "Ġgiving": 2931,
      "Ġspoken": 2932,
      "Ġdriver": 2933,
      "Ġinvitation": 2934,
      "Ġresolution": 2935,
      "Ġabsence": 2936,
      "Ġsatisfa": 2937,
      "Ġfinished": 2938,
      "Ġsufficient": 2939,
      "Ġthick": 2940,
      "Ġdreadful": 2941,
      "work": 2942,
      "Ġfavourite": 2943,
      "Ġholding": 2944,
      "cula": 2945,
      "Ġphilips": 2946,
      "Ġproceeded": 2947,
      "Ġofficers": 2948,
      "Ġ1894": 2949,
      "copyright": 2950,
      "]]": 2951,
      "aw": 2952,
      "book": 2953,
      "don": 2954,
      "dist": 2955,
      "ech": 2956,
      "lady": 2957,
      "old": 2958,
      "pnot": 2959,
      "uc": 2960,
      "uff": 2961,
      "Ġwound": 2962,
      "Ġwake": 2963,
      "Ġslo": 2964,
      "reason": 2965,
      "Ġcas": 2966,
      "Ġnice": 2967,
      "cend": 2968,
      "ism": 2969,
      "Ġster": 2970,
      "Ġsuperior": 2971,
      "Ġdepend": 2972,
      "Ġliked": 2973,
      "Ġlibrary": 2974,
      "Ġfears": 2975,
      "Ġexert": 2976,
      "Ġnove": 2977,
      "Ġalas": 2978,
      "Ġyours": 2979,
      "Ġgold": 2980,
      "Ġagreed": 2981,
      "oss": 2982,
      "Ġanyone": 2983,
      "because": 2984,
      "erty": 2985,
      "Ġdesert": 2986,
      "soon": 2987,
      "sibly": 2988,
      "many": 2989,
      "Ġpresently": 2990,
      "coming": 2991,
      "Ġplain": 2992,
      "Ġdrink": 2993,
      "Ġdrawn": 2994,
      "face": 2995,
      "Ġpointed": 2996,
      "Ġcommand": 2997,
      "Ġpromised": 2998,
      "Ġadmiration": 2999,
      "Ġacquainted": 3000,
      "Ġindif": 3001,
      "Ġfortun": 3002,
      "course": 3003,
      "Ġforehead": 3004,
      "Ġrequest": 3005,
      "Ġmoonlight": 3006,
      "Ġtemper": 3007,
      "Ġneighbourhood": 3008,
      "Ġclouds": 3009,
      "Ġpicture": 3010,
      "interest": 3011,
      "gment": 3012,
      "gress": 3013,
      "iries": 3014,
      "leness": 3015,
      "nes": 3016,
      "pr": 3017,
      "phe": 3018,
      "sue": 3019,
      "Ġtur": 3020,
      "Ġbri": 3021,
      "Ġinj": 3022,
      "Ġpowers": 3023,
      "Ġhate": 3024,
      "Ġhistory": 3025,
      "cended": 3026,
      "Ġreceive": 3027,
      "Ġnoticed": 3028,
      "Ġur": 3029,
      "aining": 3030,
      "ability": 3031,
      "Ġdeli": 3032,
      "Ġlives": 3033,
      "Ġvirt": 3034,
      "ouses": 3035,
      "Ġshore": 3036,
      "Ġ_]]": 3037,
      "Ġprospect": 3038,
      "itely": 3039,
      "idered": 3040,
      "bye": 3041,
      "ected": 3042,
      "Ġcompany": 3043,
      "Ġpassion": 3044,
      "Ġspeed": 3045,
      "ordinary": 3046,
      "Ġplaces": 3047,
      "supp": 3048,
      "Ġremar": 3049,
      "Ġrage": 3050,
      "Ġrapid": 3051,
      "Ġattach": 3052,
      "Ġinstinct": 3053,
      "Ġpaused": 3054,
      "Ġevent": 3055,
      "Ġevident": 3056,
      "Ġaddressed": 3057,
      "Ġlaw": 3058,
      "Ġexclaimed": 3059,
      "Ġideas": 3060,
      "Ġassist": 3061,
      "Ġawful": 3062,
      "Ġhurst": 3063,
      "Ġinteresting": 3064,
      "Ġwatching": 3065,
      "Ġempty": 3066,
      "grat": 3067,
      "Ġparticularly": 3068,
      "Ġdreams": 3069,
      "Ġtouch": 3070,
      "Ġexplained": 3071,
      "Ġeagerly": 3072,
      "Ġexperience": 3073,
      "Ġoccurred": 3074,
      "expected": 3075,
      "Ġauthor": 3076,
      "[_": 3077,
      "ailed": 3078,
      "back": 3079,
      "cap": 3080,
      "da": 3081,
      "ires": 3082,
      "ives": 3083,
      "later": 3084,
      "moment": 3085,
      "take": 3086,
      "went": 3087,
      "zen": 3088,
      "Ġmass": 3089,
      "habit": 3090,
      "Ġble": 3091,
      "Ġtop": 3092,
      "ingu": 3093,
      "Ġoffe": 3094,
      "stant": 3095,
      "Ġloud": 3096,
      "Ġnames": 3097,
      "Ġpract": 3098,
      "Ġbelong": 3099,
      "Ġeight": 3100,
      "Ġgat": 3101,
      "lect": 3102,
      "Ġhide": 3103,
      "Ġhertfordshire": 3104,
      "Ġsucceed": 3105,
      "Ġwhispe": 3106,
      "Ġdef": 3107,
      "usted": 3108,
      "Ġjump": 3109,
      "Ġpropos": 3110,
      "Ġtender": 3111,
      "assion": 3112,
      "Ġboat": 3113,
      "Ġclothes": 3114,
      "Ġpeculi": 3115,
      "Ġconsidered": 3116,
      "Ġattack": 3117,
      "Ġgrey": 3118,
      "Ġopening": 3119,
      "looked": 3120,
      "seemed": 3121,
      "Ġconcerning": 3122,
      "Ġquietly": 3123,
      "Ġforgive": 3124,
      "Ġendeavoured": 3125,
      "Ġsurround": 3126,
      "Ġapproach": 3127,
      "ublic": 3128,
      "Ġedge": 3129,
      "Ġmusic": 3130,
      "Ġabsolutely": 3131,
      "Ġangry": 3132,
      "indeed": 3133,
      "Ġwhispered": 3134,
      "col": 3135,
      "down": 3136,
      "ear": 3137,
      "ts": 3138,
      "Ġ3": 3139,
      "Ġtreat": 3140,
      "heard": 3141,
      "Ġaust": 3142,
      "Ġwed": 3143,
      "Ġwinter": 3144,
      "Ġmal": 3145,
      "oul": 3146,
      "Ġban": 3147,
      "ergy": 3148,
      "Ġtone": 3149,
      "Ġfly": 3150,
      "Ġfool": 3151,
      "Ġfirm": 3152,
      "Ġintended": 3153,
      "Ġpen": 3154,
      "Ġpal": 3155,
      "Ġpardon": 3156,
      "asing": 3157,
      "Ġbeloved": 3158,
      "oted": 3159,
      "Ġease": 3160,
      "Ġegg": 3161,
      "Ġhig": 3162,
      "Ġrecom": 3163,
      "ison": 3164,
      "iling": 3165,
      "âĢĿ--": 3166,
      "ateful": 3167,
      "Ġanybody": 3168,
      "Ġproduced": 3169,
      "Ġencour": 3170,
      "arer": 3171,
      "Ġgreatly": 3172,
      "lessly": 3173,
      "Ġcomprehe": 3174,
      "Ġoffer": 3175,
      "Ġtelling": 3176,
      "Ġsupper": 3177,
      "Ġevents": 3178,
      "Ġhearing": 3179,
      "Ġreading": 3180,
      "shiem": 3181,
      "Ġproud": 3182,
      "viction": 3183,
      "Ġenglish": 3184,
      "Ġregret": 3185,
      "Ġgenev": 3186,
      "hys": 3187,
      "Ġmurm": 3188,
      "Ġoppos": 3189,
      "Ġhighly": 3190,
      "Ġattended": 3191,
      "Ġtriump": 3192,
      "Ġespecially": 3193,
      "Ġservants": 3194,
      "Ġmotion": 3195,
      "continu": 3196,
      "Ġpossessed": 3197,
      "Ġrecord": 3198,
      "Ġsympathy": 3199,
      "Ġgratitude": 3200,
      "Ġsensations": 3201,
      "Ġcapable": 3202,
      "Ġremoved": 3203,
      "Ġintellig": 3204,
      "Ġnodded": 3205,
      "bur": 3206,
      "cor": 3207,
      "eyes": 3208,
      "mist": 3209,
      "pet": 3210,
      "too": 3211,
      "Ġtall": 3212,
      "Ġtale": 3213,
      "Ġapart": 3214,
      "Ġoper": 3215,
      "Ġfashi": 3216,
      "aning": 3217,
      "asure": 3218,
      "Ġhill": 3219,
      "road": 3220,
      "Ġsuper": 3221,
      "Ġwhenever": 3222,
      "Ġseeming": 3223,
      "Ġshud": 3224,
      "Ġabhor": 3225,
      "Ġlock": 3226,
      "Ġproc": 3227,
      "Ġproved": 3228,
      "iff": 3229,
      "Ġspite": 3230,
      "Ġspring": 3231,
      "Ġmoving": 3232,
      "ressing": 3233,
      "Ġpocket": 3234,
      "icked": 3235,
      "Ġperceived": 3236,
      "Ġharm": 3237,
      "Ġoffice": 3238,
      "Ġpassing": 3239,
      "Ġfond": 3240,
      "Ġapparent": 3241,
      "however": 3242,
      "Ġterms": 3243,
      "Ġlying": 3244,
      "Ġarrive": 3245,
      "anything": 3246,
      "Ġdecided": 3247,
      "Ġmurder": 3248,
      "play": 3249,
      "Ġimagination": 3250,
      "lucy": 3251,
      "Ġinflu": 3252,
      "Ġtwice": 3253,
      "Ġrunning": 3254,
      "Ġsimple": 3255,
      "Ġfacts": 3256,
      "conscious": 3257,
      "Ġlearned": 3258,
      "understand": 3259,
      "feelings": 3260,
      "Ġdisposition": 3261,
      "Ġoccupied": 3262,
      "Ġarrange": 3263,
      "Ġkissed": 3264,
      "Ġagony": 3265,
      "ograph": 3266,
      "arrass": 3267,
      "Ġcheeks": 3268,
      "Ġfalse": 3269,
      "Ġgeneva": 3270,
      "cence": 3271,
      "gen": 3272,
      "give": 3273,
      "mind": 3274,
      "mine": 3275,
      "mother": 3276,
      "sleep": 3277,
      "sford": 3278,
      "tow": 3279,
      "Ã¦": 3280,
      "Ġver": 3281,
      "Ġaid": 3282,
      "Ġack": 3283,
      "itions": 3284,
      "Ġlower": 3285,
      "Ġnar": 3286,
      "Ġnerv": 3287,
      "anqu": 3288,
      "Ġgaz": 3289,
      "Ġyield": 3290,
      "Ġrendered": 3291,
      "rist": 3292,
      "--âĢľ": 3293,
      "Ġseized": 3294,
      "Ġsuit": 3295,
      "quite": 3296,
      "using": 3297,
      "delight": 3298,
      "Ġord": 3299,
      "olent": 3300,
      "venge": 3301,
      "Ġargu": 3302,
      "agree": 3303,
      "Ġshoulder": 3304,
      "Ġdesired": 3305,
      "Ġrid": 3306,
      "Ġthrown": 3307,
      "Ġspeech": 3308,
      "Ġendured": 3309,
      "sub": 3310,
      "nowled": 3311,
      "Ġyellow": 3312,
      "Ġsupport": 3313,
      "fortune": 3314,
      "Ġdiv": 3315,
      "spir": 3316,
      "Ġterri": 3317,
      "Ġputting": 3318,
      "Ġsurely": 3319,
      "Ġexcess": 3320,
      "Ġvictor": 3321,
      "Ġsouth": 3322,
      "Ġactually": 3323,
      "Ġdecla": 3324,
      "Ġdirected": 3325,
      "Ġmistaken": 3326,
      "saw": 3327,
      "Ġfallen": 3328,
      "stein": 3329,
      "Ġdiscover": 3330,
      "Ġaffair": 3331,
      "child": 3332,
      "Ġdifficult": 3333,
      "Ġphilosop": 3334,
      "Ġimportance": 3335,
      "Ġlanguage": 3336,
      "Ġhypnot": 3337,
      "Ġprotect": 3338,
      "Ġslowly": 3339,
      "Ġforgotten": 3340,
      "Ġcaptain": 3341,
      "dra": 3342,
      "gre": 3343,
      "got": 3344,
      "ored": 3345,
      "pat": 3346,
      "sister": 3347,
      "yet": 3348,
      "Ġalive": 3349,
      "Ġsought": 3350,
      "Ġodd": 3351,
      "Ġmakes": 3352,
      "nday": 3353,
      "Ġtort": 3354,
      "Ġfight": 3355,
      "Ġfield": 3356,
      "Ġfitzwilliam": 3357,
      "ories": 3358,
      "Ġloss": 3359,
      "ature": 3360,
      "Ġpun": 3361,
      "Ġpressed": 3362,
      "Ġpublic": 3363,
      "Ġbelow": 3364,
      "Ġbeheld": 3365,
      "semb": 3366,
      "Ġhint": 3367,
      "Ġstorm": 3368,
      "alley": 3369,
      "Ġven": 3370,
      "Ġwholly": 3371,
      "Ġtired": 3372,
      "Ġquitted": 3373,
      "ague": 3374,
      "Ġfaith": 3375,
      "Ġtranqu": 3376,
      "cise": 3377,
      "cient": 3378,
      "perhaps": 3379,
      "woke": 3380,
      "Ġsche": 3381,
      "Ġmarked": 3382,
      "Ġconsent": 3383,
      "common": 3384,
      "Ġpaid": 3385,
      "Ġhorse": 3386,
      "Ġsleeping": 3387,
      "ception": 3388,
      "Ġsensible": 3389,
      "Ġdracula": 3390,
      "Ġasking": 3391,
      "Ġrelated": 3392,
      "Ġaware": 3393,
      "Ġgenerally": 3394,
      "Ġcorner": 3395,
      "heading": 3396,
      "Ġdelighted": 3397,
      "appro": 3398,
      "Ġservice": 3399,
      "ounced": 3400,
      "Ġselfish": 3401,
      "pleasure": 3402,
      "ampire": 3403,
      "Ġrelief": 3404,
      "Ġincreased": 3405,
      "Ġwolfshiem": 3406,
      "Ġfingers": 3407,
      "Ġconsequence": 3408,
      "Ġtelegra": 3409,
      "Ġpulled": 3410,
      "daisy": 3411,
      "Ġopposite": 3412,
      "ails": 3413,
      "bre": 3414,
      "cal": 3415,
      "fam": 3416,
      "lan": 3417,
      "make": 3418,
      "mount": 3419,
      "sion": 3420,
      "sure": 3421,
      "wom": 3422,
      "Ġrom": 3423,
      "Ġaut": 3424,
      "Ġwise": 3425,
      "half": 3426,
      "Ġbow": 3427,
      "erving": 3428,
      "erves": 3429,
      "Ġfra": 3430,
      "Ġinten": 3431,
      "Ġpit": 3432,
      "Ġgas": 3433,
      "ets": 3434,
      "Ġweather": 3435,
      "rig": 3436,
      "always": 3437,
      "urally": 3438,
      "ctim": 3439,
      "lig": 3440,
      "life": 3441,
      "Ġangu": 3442,
      "Ġstone": 3443,
      "Ġsolic": 3444,
      "Ġwhisper": 3445,
      "Ġdep": 3446,
      "Ġwheel": 3447,
      "Ġconviction": 3448,
      "felt": 3449,
      "Ġvent": 3450,
      "Ġnoon": 3451,
      "tell": 3452,
      "Ġwouldn": 3453,
      "Ġprov": 3454,
      "Ġquit": 3455,
      "ift": 3456,
      "Ġcoat": 3457,
      "Ġovercome": 3458,
      "fulness": 3459,
      "rug": 3460,
      "Ġrise": 3461,
      "conf": 3462,
      "Ġjustice": 3463,
      "Ġresult": 3464,
      "Ġpassage": 3465,
      "Ġspend": 3466,
      "box": 3467,
      "Ġlamp": 3468,
      "door": 3469,
      "Ġassur": 3470,
      "Ġawake": 3471,
      "Ġstepped": 3472,
      "Ġmatters": 3473,
      "Ġinterested": 3474,
      "Ġconsiderable": 3475,
      "Ġdining": 3476,
      "Ġservant": 3477,
      "Ġsepar": 3478,
      "Ġconcerned": 3479,
      "Ġmountain": 3480,
      "Ġdogs": 3481,
      "Ġdestroyed": 3482,
      "Ġconnection": 3483,
      "follow": 3484,
      "Ġpersuaded": 3485,
      "Ġemploy": 3486,
      "Ġsafety": 3487,
      "Ġcrowd": 3488,
      "satis": 3489,
      "Ġnumber": 3490,
      "Ġmaterial": 3491,
      "Ġausten": 3492,
      "Ġnervous": 3493,
      "Ġanguish": 3494,
      "aff": 3495,
      "dri": 3496,
      "lerable": 3497,
      "ple": 3498,
      "pse": 3499,
      "since": 3500,
      "ued": 3501,
      "ume": 3502,
      "wood": 3503,
      "word": 3504,
      "Ġsn": 3505,
      "Ġsal": 3506,
      "Ġsla": 3507,
      "ref": 3508,
      "Ġow": 3509,
      "Ġmiles": 3510,
      "Ġbor": 3511,
      "Ġbore": 3512,
      "Ġcry": 3513,
      "Ġdue": 3514,
      "Ġheat": 3515,
      "ital": 3516,
      "Ġlit": 3517,
      "Ġlake": 3518,
      "Ġinn": 3519,
      "Ġnay": 3520,
      "atha": 3521,
      "Ġpounds": 3522,
      "ashed": 3523,
      "Ġet": 3524,
      "Ġforce": 3525,
      "alities": 3526,
      "adv": 3527,
      "Ġhadn": 3528,
      "Ġisland": 3529,
      "Ġstro": 3530,
      "Ġvalley": 3531,
      "Ġalar": 3532,
      "Ġalter": 3533,
      "derer": 3534,
      "Ġupstairs": 3535,
      "Ġrate": 3536,
      "Ġanyhow": 3537,
      "Ġsomehow": 3538,
      "Ġlocked": 3539,
      "Ġproof": 3540,
      "agers": 3541,
      "Ġmode": 3542,
      "Ġotherwise": 3543,
      "ieces": 3544,
      "Ġobt": 3545,
      "Ġbene": 3546,
      "Ġconsolation": 3547,
      "Ġattentions": 3548,
      "Ġwoke": 3549,
      "Ġcalling": 3550,
      "Ġwatched": 3551,
      "Ġapprehe": 3552,
      "Ġfinding": 3553,
      "Ġnative": 3554,
      "licity": 3555,
      "Ġswept": 3556,
      "Ġadvent": 3557,
      "kenstein": 3558,
      "Ġchoose": 3559,
      "Ġsounds": 3560,
      "Ġpriv": 3561,
      "Ġsecure": 3562,
      "Ġpurcha": 3563,
      "Ġdirection": 3564,
      "Ġfalling": 3565,
      "cannot": 3566,
      "ounter": 3567,
      "Ġbreathing": 3568,
      "Ġceased": 3569,
      "certainly": 3570,
      "Ġfrightened": 3571,
      "Ġdescribe": 3572,
      "Ġstraight": 3573,
      "choly": 3574,
      "Ġhenry": 3575,
      "Ġaffected": 3576,
      "Ġapolo": 3577,
      "Ġwelcome": 3578,
      "towards": 3579,
      "lancholy": 3580,
      "dark": 3581,
      "fy": 3582,
      "fall": 3583,
      "par": 3584,
      "pond": 3585,
      "zed": 3586,
      "Ġ4": 3587,
      "Ġta": 3588,
      "Ġawoke": 3589,
      "Ġsme": 3590,
      "Ġsim": 3591,
      "rel": 3592,
      "Ġmut": 3593,
      "Ġmil": 3594,
      "Ġfurn": 3595,
      "ones": 3596,
      "stery": 3597,
      "itate": 3598,
      "Ġlam": 3599,
      "Ġlately": 3600,
      "Ġnur": 3601,
      "Ġpier": 3602,
      "Ġhast": 3603,
      "omin": 3604,
      "Ġgained": 3605,
      "verse": 3606,
      "Ġrenew": 3607,
      "almost": 3608,
      "abs": 3609,
      "Ġlies": 3610,
      "Ġlifted": 3611,
      "quest": 3612,
      "Ġjuly": 3613,
      "ics": 3614,
      "Ġnose": 3615,
      "uses": 3616,
      "Ġamuse": 3617,
      "aming": 3618,
      "Ġard": 3619,
      "Ġcoach": 3620,
      "Ġthanks": 3621,
      "necessary": 3622,
      "Ġourselves": 3623,
      "Ġhanded": 3624,
      "Ġparted": 3625,
      "lessness": 3626,
      "Ġrich": 3627,
      "Ġthrow": 3628,
      "Ġgrateful": 3629,
      "Ġboard": 3630,
      "Ġfog": 3631,
      "Ġremind": 3632,
      "Ġknees": 3633,
      "ignity": 3634,
      "ervation": 3635,
      "Ġsunrise": 3636,
      "Ġdifference": 3637,
      "shine": 3638,
      "Ġintention": 3639,
      "Ġadvanced": 3640,
      "Ġcharge": 3641,
      "Ġbroad": 3642,
      "Ġmeaning": 3643,
      "Ġshortly": 3644,
      "Ġadmire": 3645,
      "Ġmurderer": 3646,
      "Ġaffectionate": 3647,
      "Ġunderstanding": 3648,
      "Ġinquiries": 3649,
      "Ġdeeply": 3650,
      "Ġattendant": 3651,
      "Ġdiscovery": 3652,
      "Ġtrace": 3653,
      "Ġequally": 3654,
      "Ġcompanions": 3655,
      "Ġcircumstance": 3656,
      "Ġdevil": 3657,
      "Ġviolent": 3658,
      "Ġburst": 3659,
      "fortunate": 3660,
      "Ġinterrupted": 3661,
      "Ġaccomp": 3662,
      "Ġdemanded": 3663,
      "morning": 3664,
      "Ġwitness": 3665,
      "Ġquarter": 3666,
      "Ġignorant": 3667,
      "Ġcompliment": 3668,
      "Ġfamiliar": 3669,
      "Ġurged": 3670,
      "Ġattachment": 3671,
      "Ġfashion": 3672,
      "Ġinfluence": 3673,
      "bingley": 3674,
      "pa": 3675,
      "sil": 3676,
      "till": 3677,
      "ulf": 3678,
      "wkins": 3679,
      "Ġing": 3680,
      "ina": 3681,
      "Ġmir": 3682,
      "Ġmess": 3683,
      "Ġbought": 3684,
      "Ġbloom": 3685,
      "eral": 3686,
      "Ġfit": 3687,
      "Ġcool": 3688,
      "Ġdwell": 3689,
      "arthur": 3690,
      "Ġparent": 3691,
      "Ġga": 3692,
      "Ġgrim": 3693,
      "entment": 3694,
      "Ġweight": 3695,
      "ids": 3696,
      "Ġanger": 3697,
      "Ġseated": 3698,
      "Ġdeck": 3699,
      "pel": 3700,
      "ource": 3701,
      "Ġdozen": 3702,
      "Ġfever": 3703,
      "hope": 3704,
      "Ġje": 3705,
      "ilities": 3706,
      "ulse": 3707,
      "Ġnobody": 3708,
      "asted": 3709,
      "ushing": 3710,
      "Ġagatha": 3711,
      "Ġring": 3712,
      "Ġunknown": 3713,
      "Ġleg": 3714,
      "Ġprove": 3715,
      "Ġmoder": 3716,
      "Ġdisappeared": 3717,
      "byshire": 3718,
      "Ġdesir": 3719,
      "Ġrising": 3720,
      "Ġbenef": 3721,
      "Ġentertain": 3722,
      "Ġentering": 3723,
      "Ġgras": 3724,
      "sole": 3725,
      "Ġmark": 3726,
      "Ġmarrying": 3727,
      "Ġconscious": 3728,
      "Ġcarry": 3729,
      "Ġpleasing": 3730,
      "exc": 3731,
      "rison": 3732,
      "lication": 3733,
      "Ġsilver": 3734,
      "Ġfearful": 3735,
      "Ġguest": 3736,
      "racted": 3737,
      "Ġrefuse": 3738,
      "Ġexcite": 3739,
      "Ġvictim": 3740,
      "fax": 3741,
      "Ġcharming": 3742,
      "Ġbreast": 3743,
      "Ġhurry": 3744,
      "Ġdoubtless": 3745,
      "god": 3746,
      "Ġimmediate": 3747,
      "Ġconcern": 3748,
      "Ġprevent": 3749,
      "Ġapproached": 3750,
      "Ġutmost": 3751,
      "chief": 3752,
      "----------------------------------------": 3753,
      "------------------------------------------------------------------------": 3754,
      "Ġlunch": 3755,
      "Ġholmes": 3756,
      "Ġfrequently": 3757,
      "Ġdisturb": 3758,
      "Ġpraise": 3759,
      "Ġtype": 3760,
      "Ġexceedingly": 3761,
      "Ġsatisfaction": 3762,
      "gratul": 3763,
      "Ġjumped": 3764,
      "agreeable": 3765,
      "bar": 3766,
      "cast": 3767,
      "ds": 3768,
      "doub": 3769,
      "iven": 3770,
      "lord": 3771,
      "vill": 3772,
      "xi": 3773,
      "Ġ,": 3774,
      "Ġaction": 3775,
      "Ġwretch": 3776,
      "Ġsch": 3777,
      "Ġmate": 3778,
      "hael": 3779,
      "Ġtong": 3780,
      "Ġfro": 3781,
      "Ġcab": 3782,
      "hip": 3783,
      "Ġdancing": 3784,
      "stre": 3785,
      "itor": 3786,
      "Ġnick": 3787,
      "anim": 3788,
      "atory": 3789,
      "Ġphys": 3790,
      "Ġelo": 3791,
      "Ġgate": 3792,
      "vere": 3793,
      "sec": 3794,
      "Ġrevenge": 3795,
      "Ġforms": 3796,
      "terrible": 3797,
      "things": 3798,
      "Ġconve": 3799,
      "Ġcontempt": 3800,
      "Ġnephe": 3801,
      "ichael": 3802,
      "aked": 3803,
      "Ġrang": 3804,
      "Ġworked": 3805,
      "Ġprogress": 3806,
      "Ġhowling": 3807,
      "Ġfaces": 3808,
      "Ġharbour": 3809,
      "Ġparties": 3810,
      "Ġbran": 3811,
      "Ġcompar": 3812,
      "Ġways": 3813,
      "Ġgrass": 3814,
      "Ġscen": 3815,
      "comfort": 3816,
      "Ġglance": 3817,
      "tending": 3818,
      "Ġworking": 3819,
      "mony": 3820,
      "spo": 3821,
      "Ġdoesn": 3822,
      "Ġgives": 3823,
      "arna": 3824,
      "Ġcontinually": 3825,
      "Ġinsisted": 3826,
      "uries": 3827,
      "Ġcircle": 3828,
      "Ġfortnight": 3829,
      "Ġrank": 3830,
      "Ġdelightful": 3831,
      "Ġinfin": 3832,
      "Ġclever": 3833,
      "Ġrequired": 3834,
      "Ġcurious": 3835,
      "Ġgrace": 3836,
      "Ġcliff": 3837,
      "Ġemotion": 3838,
      "Ġgarage": 3839,
      "welve": 3840,
      "Ġsuggested": 3841,
      "husi": 3842,
      "Ġextraordinary": 3843,
      "Ġclaim": 3844,
      "Ġflies": 3845,
      "Ġstern": 3846,
      "Ġremarked": 3847,
      "Ġnephew": 3848,
      "30": 3849,
      "cad": 3850,
      "fl": 3851,
      "ivers": 3852,
      "tra": 3853,
      "taking": 3854,
      "Ġ&": 3855,
      "Ġwet": 3856,
      "rees": 3857,
      "Ġorig": 3858,
      "hamed": 3859,
      "having": 3860,
      "Ġbat": 3861,
      "Ġbare": 3862,
      "Ġbott": 3863,
      "Ġfate": 3864,
      "Ġfier": 3865,
      "still": 3866,
      "itable": 3867,
      "Ġinhabit": 3868,
      "Ġniece": 3869,
      "attered": 3870,
      "Ġpor": 3871,
      "Ġhawkins": 3872,
      "ots": 3873,
      "Ġhither": 3874,
      "utter": 3875,
      "church": 3876,
      "Ġreceiving": 3877,
      "isure": 3878,
      "Ġmelancholy": 3879,
      "urday": 3880,
      "Ġhung": 3881,
      "Ġange": 3882,
      "Ġsoot": 3883,
      "abo": 3884,
      "Ġdecl": 3885,
      "Ġvampire": 3886,
      "Ġnecess": 3887,
      "Ġexec": 3888,
      "iccad": 3889,
      "Ġkno": 3890,
      "teen": 3891,
      "Ġaloud": 3892,
      "aks": 3893,
      "unk": 3894,
      "oline": 3895,
      "Ġshare": 3896,
      "eps": 3897,
      "Ġusually": 3898,
      "ify": 3899,
      "liza": 3900,
      "love": 3901,
      "Ġmisfortune": 3902,
      "Ġdislike": 3903,
      "iest": 3904,
      "covered": 3905,
      "aret": 3906,
      "Ġbegun": 3907,
      "Ġgrowing": 3908,
      "Ġendure": 3909,
      "Ġcontr": 3910,
      "Ġcarfax": 3911,
      "Ġwaves": 3912,
      "Ġkindly": 3913,
      "Ġdistress": 3914,
      "Ġpossibly": 3915,
      "Ġregiment": 3916,
      "Ġvisited": 3917,
      "Ġexpectation": 3918,
      "Ġstream": 3919,
      "iality": 3920,
      "Ġdriving": 3921,
      "Ġconfidence": 3922,
      "Ġpainful": 3923,
      "Ġdestru": 3924,
      "Ġlively": 3925,
      "Ġinquir": 3926,
      "Ġmistake": 3927,
      "happiness": 3928,
      "Ġbrighton": 3929,
      "Ġprevented": 3930,
      "Ġreflect": 3931,
      "Ġreflections": 3932,
      "Ġmotive": 3933,
      "Ġgravely": 3934,
      "Ġvex": 3935,
      "ĠĠĠĠĠĠĠĠĠĠĠĠĠĠĠĠĠĠĠĠĠĠĠĠĠĠĠĠĠĠĠĠĠĠĠĠĠĠĠĠ": 3936,
      "Ġeleg": 3937,
      "Ġmovement": 3938,
      "everything": 3939,
      "appear": 3940,
      "rtle": 3941,
      "Ġconnected": 3942,
      "fold": 3943,
      "Ġpersuade": 3944,
      "Ġchurchyard": 3945,
      "Ġblessed": 3946,
      "Ġhotel": 3947,
      "Ġjudge": 3948,
      "Ġjudgment": 3949,
      "charlotte": 3950,
      "Ġestate": 3951,
      "Ġsafie": 3952,
      "Ġconclusion": 3953,
      "Ġuneasy": 3954,
      "Ġembarrass": 3955,
      "Ġdiscus": 3956,
      "Ġdisappointment": 3957,
      "Ġhunsford": 3958,
      "Ġdirectly": 3959,
      "Ġfifty": 3960,
      "began": 3961,
      "Ġvillage": 3962,
      "Ġgathered": 3963,
      "Ġsurrounded": 3964,
      "Ġwedding": 3965,
      "Ġcomprehend": 3966,
      "continued": 3967,
      "Ġacknowled": 3968,
      "Ġbeneath": 3969,
      "Ġorigin": 3970,
      "iccadilly": 3971,
      "bu": 3972,
      "cre": 3973,
      "cir": 3974,
      "cke": 3975,
      "cred": 3976,
      "cif": 3977,
      "ections": 3978,
      "fav": 3979,
      "prom": 3980,
      "power": 3981,
      "sus": 3982,
      "swe": 3983,
      "umb": 3984,
      "view": 3985,
      "wickham": 3986,
      "Ġ------------------------------------------------------------------------": 3987,
      "Ġtight": 3988,
      "Ġsink": 3989,
      "Ġbos": 3990,
      "eric": 3991,
      "enough": 3992,
      "Ġheight": 3993,
      "stud": 3994,
      "itive": 3995,
      "Ġlaughter": 3996,
      "atures": 3997,
      "Ġpet": 3998,
      "Ġpack": 3999,
      "esh": 4000,
      "essel": 4001,
      "Ġeste": 4002,
      "Ġeliza": 4003,
      "Ġgli": 4004,
      "left": 4005,
      "lected": 4006,
      "uted": 4007,
      "Ġhers": 4008,
      "Ġhouses": 4009,
      "adually": 4010,
      "Ġstir": 4011,
      "Ġstared": 4012,
      "Ġsuspect": 4013,
      "Ġdeb": 4014,
      "Ġdeceived": 4015,
      "pest": 4016,
      "Ġcongratul": 4017,
      "Ġvarna": 4018,
      "Ġvessel": 4019,
      "ulous": 4020,
      "Ġexer": 4021,
      "Ġaltogether": 4022,
      "death": 4023,
      "osp": 4024,
      "osure": 4025,
      "Ġleaned": 4026,
      "Ġleisure": 4027,
      "Ġshape": 4028,
      "Ġlod": 4029,
      "ago": 4030,
      "Ġspran": 4031,
      "young": 4032,
      "Ġmighty": 4033,
      "Ġcompassion": 4034,
      "Ġgrand": 4035,
      "whel": 4036,
      "Ġdoors": 4037,
      "acity": 4038,
      "suff": 4039,
      "Ġrestored": 4040,
      "Ġhorrid": 4041,
      "Ġdistingu": 4042,
      "Ġlights": 4043,
      "possess": 4044,
      "Ġexcuse": 4045,
      "Ġcarefully": 4046,
      "Ġkeeping": 4047,
      "Ġincred": 4048,
      "Ġbuchan": 4049,
      "grace": 4050,
      "Ġcreatures": 4051,
      "Ġinside": 4052,
      "Ġrecovered": 4053,
      "Ġstayed": 4054,
      "Ġindul": 4055,
      "Ġpursue": 4056,
      "profess": 4057,
      "Ġcomfortable": 4058,
      "Ġreflection": 4059,
      "Ġaffairs": 4060,
      "Ġexplan": 4061,
      "Ġeduc": 4062,
      "feeling": 4063,
      "Ġchoice": 4064,
      "Ġleaves": 4065,
      "Ġfreed": 4066,
      "mission": 4067,
      "Ġwoods": 4068,
      "Ġcrime": 4069,
      "Ġinclination": 4070,
      "Ġwarmth": 4071,
      "hard": 4072,
      "Ġrecollection": 4073,
      "Ġlunatic": 4074,
      "Ġimportant": 4075,
      "fortunes": 4076,
      "Ġemployed": 4077,
      "helsing": 4078,
      "Ġaccompl": 4079,
      "window": 4080,
      "ustomed": 4081,
      "Ġrejoiced": 4082,
      "Ġderbyshire": 4083,
      "Ġeldest": 4084,
      "Ġintelligence": 4085,
      "Ġetc": 4086,
      "Ġprivate": 4087,
      "ichaelis": 4088,
      "favour": 4089,
      "Ġsprang": 4090,
      "gue": 4091,
      "gave": 4092,
      "ior": 4093,
      "iently": 4094,
      "mad": 4095,
      "master": 4096,
      "mitted": 4097,
      "uge": 4098,
      "Ġtide": 4099,
      "Ġtaste": 4100,
      "hest": 4101,
      "hear": 4102,
      "Ġav": 4103,
      "inue": 4104,
      "Ġsqu": 4105,
      "hastly": 4106,
      "Ġbal": 4107,
      "Ġfr": 4108,
      "Ġcig": 4109,
      "Ġdying": 4110,
      "orse": 4111,
      "Ġinformed": 4112,
      "Ġpu": 4113,
      "Ġpress": 4114,
      "Ġpool": 4115,
      "Ġpiece": 4116,
      "Ġprison": 4117,
      "Ġgay": 4118,
      "Ġgal": 4119,
      "Ġgho": 4120,
      "ldom": 4121,
      "Ġones": 4122,
      "Ġashamed": 4123,
      "Ġmyrtle": 4124,
      "aled": 4125,
      "rose": 4126,
      "cky": 4127,
      "Ġkill": 4128,
      "geance": 4129,
      "Ġjune": 4130,
      "Ġshown": 4131,
      "Ġameric": 4132,
      "unch": 4133,
      "Ġsomebody": 4134,
      "Ġlear": 4135,
      "----âĢĿ": 4136,
      "Ġshame": 4137,
      "Ġworn": 4138,
      "lizzy": 4139,
      "Ġspid": 4140,
      "bey": 4141,
      "Ġtruly": 4142,
      "Ġenvelo": 4143,
      "next": 4144,
      "Ġdisplay": 4145,
      "rue": 4146,
      "coll": 4147,
      "cold": 4148,
      "ested": 4149,
      "wonder": 4150,
      "fting": 4151,
      "Ġbenev": 4152,
      "Ġnights": 4153,
      "Ġrepro": 4154,
      "Ġbecom": 4155,
      "Ġsmiles": 4156,
      "Ġretired": 4157,
      "ignation": 4158,
      "Ġnaturally": 4159,
      "does": 4160,
      "willing": 4161,
      "duction": 4162,
      "templ": 4163,
      "Ġpersonal": 4164,
      "Ġmurdered": 4165,
      "Ġobsc": 4166,
      "guard": 4167,
      "cript": 4168,
      "Ġcondition": 4169,
      "going": 4170,
      "Ġobjects": 4171,
      "Ġblame": 4172,
      "worth": 4173,
      "poor": 4174,
      "Ġelev": 4175,
      "Ġcottagers": 4176,
      "natural": 4177,
      "Ġaccepted": 4178,
      "Ġsympat": 4179,
      "Ġdeparture": 4180,
      "Ġpursued": 4181,
      "Ġpolit": 4182,
      "Ġcrossed": 4183,
      "Ġfatig": 4184,
      "Ġinnocent": 4185,
      "Ġfrankenstein": 4186,
      "Ġnovember": 4187,
      "Ġvirtue": 4188,
      "Ġpeculiar": 4189,
      "Ġvengeance": 4190,
      "Ġapprehens": 4191,
      "Ġparents": 4192,
      "Ġdestruction": 4193,
      "action": 4194,
      "bited": 4195,
      "creat": 4196,
      "care": 4197,
      "cago": 4198,
      "gs": 4199,
      "gentle": 4200,
      "ially": 4201,
      "mble": 4202,
      "rous": 4203,
      "sun": 4204,
      "sud": 4205,
      "table": 4206,
      "ugh": 4207,
      "wat": 4208,
      "wild": 4209,
      "xford": 4210,
      "Ġ)": 4211,
      "Ġwin": 4212,
      "Ġsides": 4213,
      "nding": 4214,
      "Ġburning": 4215,
      "Ġcand": 4216,
      "Ġcustom": 4217,
      "once": 4218,
      "Ġdan": 4219,
      "Ġdry": 4220,
      "orous": 4221,
      "stra": 4222,
      "stantly": 4223,
      "itche": 4224,
      "Ġlou": 4225,
      "Ġincon": 4226,
      "anter": 4227,
      "anied": 4228,
      "Ġpall": 4229,
      "asions": 4230,
      "Ġbeings": 4231,
      "Ġeter": 4232,
      "Ġgame": 4233,
      "Ġhills": 4234,
      "lds": 4235,
      "Ġwept": 4236,
      "Ġreve": 4237,
      "ision": 4238,
      "Ġthreat": 4239,
      "Ġshel": 4240,
      "Ġant": 4241,
      "Ġisn": 4242,
      "Ġstars": 4243,
      "Ġseason": 4244,
      "cks": 4245,
      "Ġconject": 4246,
      "Ġconstant": 4247,
      "pper": 4248,
      "fear": 4249,
      "Ġvague": 4250,
      "told": 4251,
      "Ġexha": 4252,
      "Ġexhi": 4253,
      "arther": 4254,
      "Ġshot": 4255,
      "Ġshout": 4256,
      "Ġupset": 4257,
      "Ġamid": 4258,
      "Ġgoes": 4259,
      "olate": 4260,
      "Ġunconscious": 4261,
      "law": 4262,
      "Ġprof": 4263,
      "Ġspread": 4264,
      "lose": 4265,
      "Ġfailed": 4266,
      "Ġfault": 4267,
      "others": 4268,
      "rud": 4269,
      "perate": 4270,
      "Ġgoodness": 4271,
      "Ġharsh": 4272,
      "Ġpreced": 4273,
      "Ġprecip": 4274,
      "Ġprejud": 4275,
      "Ġenthusi": 4276,
      "Ġimpression": 4277,
      "Ġrepres": 4278,
      "manner": 4279,
      "accept": 4280,
      "Ġkeen": 4281,
      "Ġsaturday": 4282,
      "Ġearli": 4283,
      "igned": 4284,
      "rench": 4285,
      "Ġdistant": 4286,
      "Ġreturning": 4287,
      "Ġreadily": 4288,
      "Ġvoices": 4289,
      "Ġguilt": 4290,
      "Ġcareful": 4291,
      "Ġadvice": 4292,
      "Ġillness": 4293,
      "mination": 4294,
      "Ġincident": 4295,
      "Ġassert": 4296,
      "brought": 4297,
      "Ġsentence": 4298,
      "Ġsatisfy": 4299,
      "Ġsouls": 4300,
      "Ġcondem": 4301,
      "change": 4302,
      "Ġswift": 4303,
      "voice": 4304,
      "knowledge": 4305,
      "Ġparticulars": 4306,
      "prev": 4307,
      "Ġevidence": 4308,
      "phone": 4309,
      "Ġveins": 4310,
      "point": 4311,
      "friends": 4312,
      "Ġchosen": 4313,
      "Ġpossession": 4314,
      "Ġastonished": 4315,
      "Ġmaj": 4316,
      "Ġpursuit": 4317,
      "regard": 4318,
      "Ġintimate": 4319,
      "Ġindifferent": 4320,
      "caped": 4321,
      "Ġseemingly": 4322,
      "Ġshudder": 4323,
      "Ã¦mon": 4324,
      "Ġnarrow": 4325,
      "Ġscheme": 4326,
      "Ġnurse": 4327,
      "Ġscenes": 4328,
      "cifix": 4329,
      "Ġbuchanan": 4330,
      "sudden": 4331,
      "bation": 4332,
      "catherine": 4333,
      "di": 4334,
      "far": 4335,
      "gged": 4336,
      "home": 4337,
      "knew": 4338,
      "nay": 4339,
      "phi": 4340,
      "put": 4341,
      "pur": 4342,
      "sk": 4343,
      "ser": 4344,
      "surp": 4345,
      "tw": 4346,
      "ude": 4347,
      "win": 4348,
      "yage": 4349,
      "Ġ----": 4350,
      "Ġtwelve": 4351,
      "Ġwre": 4352,
      "requ": 4353,
      "Ġmour": 4354,
      "Ġmile": 4355,
      "Ġiron": 4356,
      "Ġbra": 4357,
      "Ġfled": 4358,
      "Ġfully": 4359,
      "Ġfulf": 4360,
      "Ġfarther": 4361,
      "orough": 4362,
      "Ġlines": 4363,
      "Ġnine": 4364,
      "ancy": 4365,
      "atz": 4366,
      "Ġpars": 4367,
      "Ġpiccadilly": 4368,
      "Ġemer": 4369,
      "Ġgently": 4370,
      "Ġrevol": 4371,
      "rill": 4372,
      "Ġmyster": 4373,
      "Ġhero": 4374,
      "ises": 4375,
      "Ġmere": 4376,
      "adi": 4377,
      "hers": 4378,
      "Ġthy": 4379,
      "Ġattemp": 4380,
      "Ġstairs": 4381,
      "Ġseldom": 4382,
      "Ġsold": 4383,
      "ĠĠĠĠĠ": 4384,
      "illity": 4385,
      "abl": 4386,
      "cking": 4387,
      "thousand": 4388,
      "quick": 4389,
      "ational": 4390,
      "Ġvast": 4391,
      "Ġnearer": 4392,
      "ilar": 4393,
      "respond": 4394,
      "Ġexcl": 4395,
      "antry": 4396,
      "Ġmanife": 4397,
      "Ġalarm": 4398,
      "Ġshr": 4399,
      "dest": 4400,
      "istr": 4401,
      "Ġwilling": 4402,
      "orted": 4403,
      "Ġgover": 4404,
      "oser": 4405,
      "olence": 4406,
      "Ġrough": 4407,
      "Ġsomeone": 4408,
      "Ġunion": 4409,
      "Ġunfortunate": 4410,
      "reath": 4411,
      "Ġlover": 4412,
      "Ġquality": 4413,
      "agon": 4414,
      "Ġcoast": 4415,
      "Ġoverwhel": 4416,
      "Ġtest": 4417,
      "Ġthanked": 4418,
      "Ġfare": 4419,
      "Ġenergy": 4420,
      "agement": 4421,
      "often": 4422,
      "aunt": 4423,
      "Ġdisg": 4424,
      "Ġlonged": 4425,
      "Ġhost": 4426,
      "Ġfriendship": 4427,
      "Ġperform": 4428,
      "Ġobjection": 4429,
      "Ġclue": 4430,
      "Ġbetray": 4431,
      "Ġmaria": 4432,
      "Ġpeas": 4433,
      "Ġvanity": 4434,
      "Ġaccustomed": 4435,
      "Ġremains": 4436,
      "Ġrested": 4437,
      "Ġdaily": 4438,
      "Ġflesh": 4439,
      "Ġapplied": 4440,
      "tingu": 4441,
      "Ġswear": 4442,
      "posed": 4443,
      "affection": 4444,
      "minal": 4445,
      "Ġdriven": 4446,
      "Ġ17": 4447,
      "Ġtrembling": 4448,
      "Ġsteep": 4449,
      "Ġpersons": 4450,
      "Ġgenerous": 4451,
      "Ġstrongly": 4452,
      "Ġbusy": 4453,
      "Ġsummon": 4454,
      "Ġreflected": 4455,
      "ffee": 4456,
      "Ġeagerness": 4457,
      "Ġenjoyed": 4458,
      "Ġcreation": 4459,
      "ridge": 4460,
      "Ġsoftly": 4461,
      "Ġdeparted": 4462,
      "Ġimprove": 4463,
      "Ġproport": 4464,
      "Ġlistening": 4465,
      "Ġthirst": 4466,
      "Ġcruel": 4467,
      "Ġfrequent": 4468,
      "Ġaccordingly": 4469,
      "Ġenjoyment": 4470,
      "Ġflame": 4471,
      "better": 4472,
      "Ġwandered": 4473,
      "Ġengagement": 4474,
      "keeper": 4475,
      "Ġfortunate": 4476,
      "Ġtriumph": 4477,
      "Ġapparently": 4478,
      "subject": 4479,
      "Ġphilosophy": 4480,
      "Ġalarmed": 4481,
      "Ġadventure": 4482,
      "doubt": 4483,
      "Ġhitherto": 4484,
      "professor": 4485,
      "Ġpuzz": 4486,
      "aly": 4487,
      "bid": 4488,
      "bro": 4489,
      "case": 4490,
      "five": 4491,
      "hom": 4492,
      "kward": 4493,
      "lar": 4494,
      "mwood": 4495,
      "opp": 4496,
      "sho": 4497,
      "talk": 4498,
      "taken": 4499,
      "inqu": 4500,
      "Ġwra": 4501,
      "Ġwicked": 4502,
      "Ġsong": 4503,
      "Ġod": 4504,
      "Ġmix": 4505,
      "Ġmcke": 4506,
      "Ġbree": 4507,
      "Ġtoler": 4508,
      "Ġfill": 4509,
      "Ġcart": 4510,
      "Ġcrying": 4511,
      "onage": 4512,
      "Ġdine": 4513,
      "Ġdressed": 4514,
      "sto": 4515,
      "stic": 4516,
      "stran": 4517,
      "iture": 4518,
      "itary": 4519,
      "arse": 4520,
      "Ġinsp": 4521,
      "asm": 4522,
      "asked": 4523,
      "Ġgle": 4524,
      "Ġgest": 4525,
      "seen": 4526,
      "ete": 4527,
      "ette": 4528,
      "Ġyoun": 4529,
      "Ġweep": 4530,
      "Ġwealth": 4531,
      "Ġmystery": 4532,
      "iding": 4533,
      "Ġnotes": 4534,
      "Ġhon": 4535,
      "hern": 4536,
      "Ġthunder": 4537,
      "Ġbutler": 4538,
      "Ġstake": 4539,
      "Ġstretched": 4540,
      "meet": 4541,
      "Ġsofa": 4542,
      "Ġsand": 4543,
      "Ġsaved": 4544,
      "Ġsacred": 4545,
      "ables": 4546,
      "Ġlib": 4547,
      "Ġkilled": 4548,
      "Ġordered": 4549,
      "akened": 4550,
      "Ġagitation": 4551,
      "Ġrub": 4552,
      "Ġunexpected": 4553,
      "Ġworst": 4554,
      "Ġcoffee": 4555,
      "Ġspared": 4556,
      "beaut": 4557,
      "Ġmiser": 4558,
      "Ġmisfortunes": 4559,
      "Ġmadman": 4560,
      "Ġeveryone": 4561,
      "umn": 4562,
      "Ġcompl": 4563,
      "Ġcomposure": 4564,
      "conne": 4565,
      "Ġgradually": 4566,
      "Ġresp": 4567,
      "Ġcontinue": 4568,
      "open": 4569,
      "Ġcaroline": 4570,
      "Ġaccur": 4571,
      "except": 4572,
      "Ġhearts": 4573,
      "Ġrace": 4574,
      "Ġimmen": 4575,
      "board": 4576,
      "Ġposition": 4577,
      "Ġstrang": 4578,
      "therefore": 4579,
      "until": 4580,
      "yours": 4581,
      "Ġbestow": 4582,
      "Ġclock": 4583,
      "Ġrelate": 4584,
      "Ġtrembled": 4585,
      "Ġawkward": 4586,
      "Ġconfusion": 4587,
      "Ġcommence": 4588,
      "Ġhumour": 4589,
      "Ġstartled": 4590,
      "Ġsubjects": 4591,
      "Ġcorre": 4592,
      "Ġmurray": 4593,
      "Ġinvol": 4594,
      "Ġinvited": 4595,
      "Ġreality": 4596,
      "Ġobserve": 4597,
      "Ġobservation": 4598,
      "Ġcreator": 4599,
      "Ġwarning": 4600,
      "obs": 4601,
      "Ġdreaded": 4602,
      "Ġcere": 4603,
      "desp": 4604,
      "Ġsigns": 4605,
      "ĠĠĠĠĠĠĠĠĠĠĠĠĠĠĠĠĠĠĠĠĠĠĠĠĠĠĠĠĠĠĠĠĠĠĠĠĠĠĠĠĠĠĠĠĠĠĠĠ": 4606,
      "Ġprobable": 4607,
      "Ġweakness": 4608,
      "country": 4609,
      "countenance": 4610,
      "Ġdescribed": 4611,
      "Ġearnestly": 4612,
      "Ġheavens": 4613,
      "Ġmiddle": 4614,
      "strong": 4615,
      "humour": 4616,
      "Ġfinger": 4617,
      "Ġdisappointed": 4618,
      "Ġdisturbed": 4619,
      "ylvan": 4620,
      "believe": 4621,
      "Ġextremely": 4622,
      "Ġspecial": 4623,
      "Ġsuspicion": 4624,
      "prot": 4625,
      "Ġturk": 4626,
      "Ġinstinctively": 4627,
      "Ġrecommend": 4628,
      "Ġdeclared": 4629,
      "Ġtelegram": 4630,
      "woman": 4631,
      "Ġromantic": 4632,
      "Ġassurance": 4633,
      "words": 4634,
      "Ġpurchase": 4635,
      "Ġacknowledged": 4636,
      "Ġbosom": 4637,
      "Ġfreedom": 4638,
      "Ġparsonage": 4639,
      "istritz": 4640,
      "cz": 4641,
      "dar": 4642,
      "done": 4643,
      "dam": 4644,
      "drew": 4645,
      "deter": 4646,
      "ement": 4647,
      "fle": 4648,
      "girl": 4649,
      "hour": 4650,
      "iments": 4651,
      "nor": 4652,
      "tri": 4653,
      "uable": 4654,
      "vil": 4655,
      "Ġtal": 4656,
      "inction": 4657,
      "Ġsane": 4658,
      "really": 4659,
      "Ġoxford": 4660,
      "Ġmichaelis": 4661,
      "Ġbill": 4662,
      "Ġband": 4663,
      "Ġbol": 4664,
      "Ġfoul": 4665,
      "Ġcow": 4666,
      "Ġcord": 4667,
      "onograph": 4668,
      "Ġdanced": 4669,
      "stri": 4670,
      "stad": 4671,
      "itality": 4672,
      "Ġlane": 4673,
      "arina": 4674,
      "Ġnerves": 4675,
      "Ġhaven": 4676,
      "Ġbell": 4677,
      "Ġger": 4678,
      "Ġghastly": 4679,
      "lead": 4680,
      "vest": 4681,
      "Ġaside": 4682,
      "Ġmeasure": 4683,
      "alous": 4684,
      "alone": 4685,
      "urred": 4686,
      "Ġhunt": 4687,
      "Ġthorough": 4688,
      "rol": 4689,
      "lict": 4690,
      "listen": 4691,
      "Ġann": 4692,
      "Ġsob": 4693,
      "key": 4694,
      "hant": 4695,
      "unning": 4696,
      "Ġuncommon": 4697,
      "Ġunivers": 4698,
      "Ġloving": 4699,
      "Ġqualities": 4700,
      "Ġtear": 4701,
      "Ġtrance": 4702,
      "Ġtroub": 4703,
      "Ġenc": 4704,
      "mbs": 4705,
      "mbrance": 4706,
      "Ġthinks": 4707,
      "cies": 4708,
      "rudent": 4709,
      "imag": 4710,
      "Ġpartner": 4711,
      "aching": 4712,
      "Ġobst": 4713,
      "conversation": 4714,
      "Ġentrance": 4715,
      "Ġgrou": 4716,
      "Ġscream": 4717,
      "Ġcloser": 4718,
      "Ġcontent": 4719,
      "Ġcontained": 4720,
      "experi": 4721,
      "Ġattent": 4722,
      "Ġaddition": 4723,
      "Ġglanced": 4724,
      "Ġwaters": 4725,
      "Ġdistressed": 4726,
      "Ġcolle": 4727,
      "Ġpossibility": 4728,
      "Ġsunk": 4729,
      "Ġsunshine": 4730,
      "Ġpron": 4731,
      "vile": 4732,
      "upid": 4733,
      "Ġmont": 4734,
      "rossing": 4735,
      "untarily": 4736,
      "import": 4737,
      "Ġvisible": 4738,
      "particul": 4739,
      "Ġpointing": 4740,
      "minutes": 4741,
      "Ġconfused": 4742,
      "Ġstarting": 4743,
      "Ġhurt": 4744,
      "Ġsteady": 4745,
      "Ġadmit": 4746,
      "Ġadmired": 4747,
      "Ġbuy": 4748,
      "Ġbuild": 4749,
      "Ġobserving": 4750,
      "Ġpatience": 4751,
      "Ġrecogn": 4752,
      "Ġuseful": 4753,
      "Ġuseless": 4754,
      "stead": 4755,
      "world": 4756,
      "Ġfury": 4757,
      "pleasant": 4758,
      "attle": 4759,
      "attention": 4760,
      "Ġexplain": 4761,
      "Ġchose": 4762,
      "Ġtempt": 4763,
      "Ġdevoted": 4764,
      "Ġviews": 4765,
      "Ġremaining": 4766,
      "Ġcivil": 4767,
      "Ġcriminal": 4768,
      "Ġinclined": 4769,
      "against": 4770,
      "Ġsensation": 4771,
      "marriage": 4772,
      "Ġexamined": 4773,
      "Ġproperty": 4774,
      "Ġthird": 4775,
      "Ġmidnight": 4776,
      "Ġcatch": 4777,
      "Ġlabour": 4778,
      "Ġlabours": 4779,
      "Ġconcealed": 4780,
      "Ġfunny": 4781,
      "Ġfuneral": 4782,
      "Ġcenturies": 4783,
      "Ġgarlic": 4784,
      "Ġcrucifix": 4785,
      "present": 4786,
      "husband": 4787,
      "Ġbirth": 4788,
      "Ġvalue": 4789,
      "Ġstruggle": 4790,
      "between": 4791,
      "ylum": 4792,
      "ributed": 4793,
      "Ġhesitated": 4794,
      "Ġneglect": 4795,
      "acquaintance": 4796,
      "Ġdelicate": 4797,
      "icip": 4798,
      "Ġpoliceman": 4799,
      "Ġprincipal": 4800,
      "walking": 4801,
      "Ġslov": 4802,
      "Ġoffered": 4803,
      "Ġsucceeded": 4804,
      "Ġmurmur": 4805,
      "Ġapartment": 4806,
      "gener": 4807,
      "Ġphysical": 4808,
      "Ġfierce": 4809,
      "Ġinquiry": 4810,
      "circumst": 4811,
      "Ġexplanation": 4812,
      "Ġgalatz": 4813,
      "Ġimmense": 4814,
      "ylvania": 4815,
      "czarina": 4816,
      "stadt": 4817,
      "bus": 4818,
      "both": 4819,
      "daughter": 4820,
      "emed": 4821,
      "each": 4822,
      "gian": 4823,
      "honour": 4824,
      "met": 4825,
      "ope": 4826,
      "rain": 4827,
      "rained": 4828,
      "same": 4829,
      "true": 4830,
      "uck": 4831,
      "umed": 4832,
      "umbled": 4833,
      "Ġtour": 4834,
      "Ġah": 4835,
      "Ġarose": 4836,
      "Ġwarn": 4837,
      "Ġsan": 4838,
      "Ġsilly": 4839,
      "Ġmain": 4840,
      "Ġmild": 4841,
      "Ġbowed": 4842,
      "Ġfret": 4843,
      "Ġchat": 4844,
      "Ġcrossing": 4845,
      "ĠdÃ¦mon": 4846,
      "steps": 4847,
      "Ġham": 4848,
      "Ġhang": 4849,
      "Ġhasten": 4850,
      "Ġgent": 4851,
      "Ġgall": 4852,
      "Ġgla": 4853,
      "Ġhid": 4854,
      "lydia": 4855,
      "rising": 4856,
      "along": 4857,
      "urope": 4858,
      "Ġhosp": 4859,
      "ĠâĢľ_": 4860,
      "Ġwhir": 4861,
      "Ġcontempl": 4862,
      "Ġfelicity": 4863,
      "Ġfeatures": 4864,
      "ilty": 4865,
      "resol": 4866,
      "Ġknife": 4867,
      "astic": 4868,
      "usual": 4869,
      "oused": 4870,
      "olstadt": 4871,
      "Ġray": 4872,
      "Ġrush": 4873,
      "Ġunlike": 4874,
      "laugh": 4875,
      "ifying": 4876,
      "rief": 4877,
      "forward": 4878,
      "forget": 4879,
      "Ġshoulders": 4880,
      "ertin": 4881,
      "Ġdescended": 4882,
      "Ġchapel": 4883,
      "moved": 4884,
      "Ġimpulse": 4885,
      "Ġgrown": 4886,
      "Ġresentment": 4887,
      "Ġhousekeeper": 4888,
      "Ġblow": 4889,
      "Ġvanished": 4890,
      "Ġconsul": 4891,
      "Ġsmiling": 4892,
      "Ġrapt": 4893,
      "Ġrestore": 4894,
      "Ġchicago": 4895,
      "Ġwond": 4896,
      "white": 4897,
      "Ġsupposing": 4898,
      "Ġpair": 4899,
      "Ġplans": 4900,
      "Ġdistinct": 4901,
      "oubted": 4902,
      "position": 4903,
      "Ġsincerely": 4904,
      "Ġwishing": 4905,
      "party": 4906,
      "Ġinterference": 4907,
      "Ġrelation": 4908,
      "Ġconfined": 4909,
      "brain": 4910,
      "Ġneeded": 4911,
      "izon": 4912,
      "Ġresolute": 4913,
      "Ġsentiments": 4914,
      "Ġpatron": 4915,
      "Ġcondes": 4916,
      "Ġstronger": 4917,
      "Ġinquire": 4918,
      "engaged": 4919,
      "Ġdeeper": 4920,
      "Ġimagined": 4921,
      "Ġstudies": 4922,
      "ounce": 4923,
      "Ġdropped": 4924,
      "Ġrespectable": 4925,
      "speak": 4926,
      "consid": 4927,
      "Ġeffects": 4928,
      "Ġbringing": 4929,
      "ification": 4930,
      "Ġexperienced": 4931,
      "thank": 4932,
      "Ġslightly": 4933,
      "Ġdisposed": 4934,
      "Ġphonograph": 4935,
      "Ġruin": 4936,
      "Ġrude": 4937,
      "Ġgratified": 4938,
      "Ġrelieved": 4939,
      "Ġsolemnly": 4940,
      "Ġimproved": 4941,
      "Ġarranged": 4942,
      "Ġinstrument": 4943,
      "help": 4944,
      "Ġholmwood": 4945,
      "Ġsufferings": 4946,
      "Ġtelephone": 4947,
      "Ġcouple": 4948,
      "Ġsolitude": 4949,
      "Ġutterly": 4950,
      "Ġdelicacy": 4951,
      "Ġexertion": 4952,
      "Ġblew": 4953,
      "Ġhigher": 4954,
      "Ġhighest": 4955,
      "Ġmotioned": 4956,
      "Ġtranquillity": 4957,
      "family": 4958,
      "Ġframe": 4959,
      "Ġintense": 4960,
      "Ġhastily": 4961,
      "Ġdwelling": 4962,
      "Ġgrasp": 4963,
      "Ġtypewr": 4964,
      "Ġporch": 4965,
      "Ġangel": 4966,
      "Ġnecessity": 4967,
      "Ġexercise": 4968,
      "Ġeducation": 4969,
      "Ġapprehension": 4970,
      "Ġeternal": 4971,
      "rudence": 4972,
      "Ġmajest": 4973,
      "suddenly": 4974,
      "Ġmckee": 4975,
      "Ġbreeze": 4976,
      "bound": 4977,
      "call": 4978,
      "cott": 4979,
      "dream": 4980,
      "either": 4981,
      "gic": 4982,
      "ip": 4983,
      "iance": 4984,
      "lance": 4985,
      "mal": 4986,
      "male": 4987,
      "matter": 4988,
      "pain": 4989,
      "sy": 4990,
      "son": 4991,
      "sent": 4992,
      "thi": 4993,
      "tion": 4994,
      "tic": 4995,
      "wed": 4996,
      "wis": 4997,
      "wife": 4998,
      "whom": 4999,
      "Ġ6": 5000,
      "Ġtum": 5001,
      "Ġtakes": 5002,
      "Ġwal": 5003,
      "Ġwaking": 5004,
      "Ġsource": 5005,
      "Ġoce": 5006,
      "Ġber": 5007,
      "Ġbay": 5008,
      "Ġbath": 5009,
      "Ġtot": 5010,
      "Ġtolerable": 5011,
      "Ġfix": 5012,
      "Ġfishing": 5013,
      "high": 5014,
      "Ġdouble": 5015,
      "orious": 5016,
      "sts": 5017,
      "sted": 5018,
      "arri": 5019,
      "Ġnort": 5020,
      "ator": 5021,
      "Ġpill": 5022,
      "Ġhated": 5023,
      "Ġhaunt": 5024,
      "otland": 5025,
      "Ġec": 5026,
      "Ġgain": 5027,
      "Ġgather": 5028,
      "lend": 5029,
      "enth": 5030,
      "Ġasylum": 5031,
      "ctory": 5032,
      "Ġsunday": 5033,
      "Ġwhither": 5034,
      "Ġsacri": 5035,
      "abian": 5036,
      "Ġdepri": 5037,
      "people": 5038,
      "Ġdoom": 5039,
      "Ġconv": 5040,
      "hod": 5041,
      "Ġvig": 5042,
      "uls": 5043,
      "Ġexeter": 5044,
      "tele": 5045,
      "Ġshone": 5046,
      "Ġamount": 5047,
      "Ġagent": 5048,
      "Ġloves": 5049,
      "Ġprovo": 5050,
      "owned": 5051,
      "Ġcopy": 5052,
      "Ġoverhead": 5053,
      "Ġenv": 5054,
      "Ġenorm": 5055,
      "neighbour": 5056,
      "Ġdisd": 5057,
      "ighed": 5058,
      "Ġmadness": 5059,
      "Ġlikewise": 5060,
      "Ġperpet": 5061,
      "umer": 5062,
      "Ġdownstairs": 5063,
      "Ġdesolate": 5064,
      "psed": 5065,
      "Ġprefer": 5066,
      "concer": 5067,
      "Ġimper": 5068,
      "Ġboast": 5069,
      "soci": 5070,
      "Ġblank": 5071,
      "Ġfolly": 5072,
      "Ġtells": 5073,
      "Ġcontra": 5074,
      "Ġremorse": 5075,
      "Ġrav": 5076,
      "Ġrestless": 5077,
      "ignant": 5078,
      "rows": 5079,
      "rowing": 5080,
      "Ġhorizon": 5081,
      "character": 5082,
      "Ġdamp": 5083,
      "Ġflatter": 5084,
      "Ġapplication": 5085,
      "Ġvoyage": 5086,
      "month": 5087,
      "Ġguide": 5088,
      "Ġhelpless": 5089,
      "Ġtomorrow": 5090,
      "Ġregular": 5091,
      "Ġstrain": 5092,
      "Ġviv": 5093,
      "yourself": 5094,
      "rooms": 5095,
      "Ġbestowed": 5096,
      "joy": 5097,
      "Ġbreaking": 5098,
      "izing": 5099,
      "Ġcorrespond": 5100,
      "Ġdecide": 5101,
      "Ġsentiment": 5102,
      "Ġcreated": 5103,
      "Ġshirt": 5104,
      "locked": 5105,
      "years": 5106,
      "Ġplayed": 5107,
      "Ġplaying": 5108,
      "Ġtrack": 5109,
      "Ġseries": 5110,
      "Ġfreely": 5111,
      "Ġheavily": 5112,
      "Ġprepare": 5113,
      "Ġdangerous": 5114,
      "priety": 5115,
      "Ġconsideration": 5116,
      "Ġmeantime": 5117,
      "Ġdressing": 5118,
      "Ġmaid": 5119,
      "Ġviolence": 5120,
      "Ġviolently": 5121,
      "accom": 5122,
      "Ġphot": 5123,
      "Ġfigures": 5124,
      "Ġincreasing": 5125,
      "Ġexamining": 5126,
      "Ġtravelled": 5127,
      "Ġsuspense": 5128,
      "Ġestabl": 5129,
      "Ġuneas": 5130,
      "human": 5131,
      "Ġcrowded": 5132,
      "Ġmagn": 5133,
      "Ġhunger": 5134,
      "Ġdelayed": 5135,
      "Ġguarded": 5136,
      "Ġbirds": 5137,
      "occasion": 5138,
      "acquainted": 5139,
      "Ġamazement": 5140,
      "Ġchiefly": 5141,
      "Ġcases": 5142,
      "Ġindifference": 5143,
      "Ġrapidly": 5144,
      "Ġdivine": 5145,
      "Ġtorture": 5146,
      "Ġprovided": 5147,
      "Ġfurniture": 5148,
      "Ġmodern": 5149,
      "Ġexcitement": 5150,
      "Ġschool": 5151,
      "Ġtongue": 5152,
      "Ġelegant": 5153,
      "sweet": 5154,
      "Ġesteem": 5155,
      "Ġspiders": 5156,
      "itchen": 5157,
      "Ġexhausted": 5158,
      "Ġenthusiasm": 5159,
      "Ġliberty": 5160,
      "giana": 5161,
      ";--": 5162,
      "bing": 5163,
      "bla": 5164,
      "bition": 5165,
      "bene": 5166,
      "cr": 5167,
      "dro": 5168,
      "dif": 5169,
      "dress": 5170,
      "dies": 5171,
      "danger": 5172,
      "dread": 5173,
      "fur": 5174,
      "find": 5175,
      "fic": 5176,
      "fice": 5177,
      "gone": 5178,
      "ius": 5179,
      "jour": 5180,
      "mas": 5181,
      "mate": 5182,
      "making": 5183,
      "piece": 5184,
      "rat": 5185,
      "rust": 5186,
      "rated": 5187,
      "sol": 5188,
      "tried": 5189,
      "ule": 5190,
      "uously": 5191,
      "var": 5192,
      "vive": 5193,
      "vage": 5194,
      "Ġ7": 5195,
      "Ġtree": 5196,
      "Ġtaught": 5197,
      "hen": 5198,
      "Ġwings": 5199,
      "Ġwire": 5200,
      "Ġsli": 5201,
      "Ġsne": 5202,
      "recy": 5203,
      "rene": 5204,
      "Ġmill": 5205,
      "Ġidle": 5206,
      "Ġbid": 5207,
      "Ġbistritz": 5208,
      "Ġcard": 5209,
      "Ġcars": 5210,
      "hie": 5211,
      "Ġdined": 5212,
      "Ġdrug": 5213,
      "itively": 5214,
      "Ġloose": 5215,
      "around": 5216,
      "Ġnamed": 5217,
      "ange": 5218,
      "atively": 5219,
      "ashing": 5220,
      "Ġbeach": 5221,
      "Ġbehold": 5222,
      "otions": 5223,
      "lete": 5224,
      "learn": 5225,
      "several": 5226,
      "lying": 5227,
      "utation": 5228,
      "vert": 5229,
      "Ġwear": 5230,
      "Ġrender": 5231,
      "Ġaspect": 5232,
      "also": 5233,
      "Ġhone": 5234,
      "adm": 5235,
      "Ġthou": 5236,
      "iring": 5237,
      "irmed": 5238,
      "mean": 5239,
      "ters": 5240,
      "pered": 5241,
      "Ġkent": 5242,
      "Ġkir": 5243,
      "Ġkitchen": 5244,
      "three": 5245,
      "Ġconsole": 5246,
      "Ġjack": 5247,
      "Ġvice": 5248,
      "Ġwhence": 5249,
      "antages": 5250,
      "mpse": 5251,
      "arted": 5252,
      "usal": 5253,
      "usions": 5254,
      "ists": 5255,
      "istrate": 5256,
      "ament": 5257,
      "Ġcaused": 5258,
      "Ġrust": 5259,
      "Ġrushing": 5260,
      "Ġradi": 5261,
      "Ġanywhere": 5262,
      "Ġunf": 5263,
      "Ġunlu": 5264,
      "laim": 5265,
      "Ġque": 5266,
      "Ġrob": 5267,
      "aging": 5268,
      "Ġspace": 5269,
      "lored": 5270,
      "london": 5271,
      "best": 5272,
      "Ġdisgrace": 5273,
      "Ġpop": 5274,
      "Ġdarling": 5275,
      "immedi": 5276,
      "Ġhovel": 5277,
      "irect": 5278,
      "Ġdeserve": 5279,
      "Ġparts": 5280,
      "Ġchamber": 5281,
      "Ġbrown": 5282,
      "Ġpretend": 5283,
      "Ġimpertin": 5284,
      "Ġresist": 5285,
      "Ġpassions": 5286,
      "Ġclass": 5287,
      "Ġclosing": 5288,
      "Ġwanting": 5289,
      "Ġsooner": 5290,
      "Ġendless": 5291,
      "Ġconscience": 5292,
      "opened": 5293,
      "Ġcarri": 5294,
      "success": 5295,
      "return": 5296,
      "Ġretreat": 5297,
      "Ġraise": 5298,
      "Ġattached": 5299,
      "Ġwoe": 5300,
      "Ġinstance": 5301,
      "Ġsleepy": 5302,
      "Ġappears": 5303,
      "Ġguilty": 5304,
      "Ġrefused": 5305,
      "Ġhelped": 5306,
      "short": 5307,
      "Ġintently": 5308,
      "ission": 5309,
      "Ġchrist": 5310,
      "Ġdetail": 5311,
      "Ġincess": 5312,
      "ials": 5313,
      "Ġinterval": 5314,
      "Ġstead": 5315,
      "Ġactive": 5316,
      "Ġactual": 5317,
      "Ġbuilt": 5318,
      "disco": 5319,
      "Ġdestiny": 5320,
      "Ġprivile": 5321,
      "Ġsweetness": 5322,
      "Ġsecrecy": 5323,
      "Ġexpressions": 5324,
      "Ġmistress": 5325,
      "chance": 5326,
      "Ġvisitor": 5327,
      "Ġshocked": 5328,
      "justine": 5329,
      "Ġdrop": 5330,
      "Ġfavourable": 5331,
      "Ġprevailed": 5332,
      "Ġseriously": 5333,
      "Ġcele": 5334,
      "Ġuttered": 5335,
      "Ġcomplex": 5336,
      "Ġoccasionally": 5337,
      "Ġformerly": 5338,
      "Ġmemories": 5339,
      "remember": 5340,
      "Ġgrieved": 5341,
      "Ġtransylvania": 5342,
      "onsense": 5343,
      "Ġconnections": 5344,
      "Ġlaughing": 5345,
      "sometimes": 5346,
      "Ġfrightful": 5347,
      "Ġphr": 5348,
      "Ġbitterness": 5349,
      "Ġrelieve": 5350,
      "Ġrecollected": 5351,
      "Ġcompletely": 5352,
      "Ġtravel": 5353,
      "Ġstraw": 5354,
      "Ġmidst": 5355,
      "struction": 5356,
      "Ġintroduced": 5357,
      "Ġintroduction": 5358,
      "Ġsolitary": 5359,
      "Ġmortal": 5360,
      "Ġaccording": 5361,
      "Ġfatal": 5362,
      "Ġinnocence": 5363,
      "Ġernest": 5364,
      "Ġignorance": 5365,
      "endeav": 5366,
      "Ġtorn": 5367,
      "Ġfrank": 5368,
      "Ġelder": 5369,
      "Ġfortunately": 5370,
      "Ġassistance": 5371,
      "Ġhideous": 5372,
      "coloured": 5373,
      "Ġtreated": 5374,
      "Ġterribly": 5375,
      "children": 5376,
      "semblance": 5377,
      "Ġemployment": 5378,
      "satisfied": 5379,
      "Ġborne": 5380,
      "absolute": 5381,
      "Ġamusement": 5382,
      "Ġardour": 5383,
      "Ġreminded": 5384,
      "Ġaccompanied": 5385,
      "Ġingolstadt": 5386,
      "Ġmessage": 5387,
      "ville": 5388,
      "Ġinhabitants": 5389,
      "Ġcontrary": 5390,
      "Ġlearnt": 5391,
      "Ġbecoming": 5392,
      "Ġpoliteness": 5393,
      "Ġshelter": 5394,
      "Ġmysterious": 5395,
      "Ġfarewell": 5396,
      "Ġimprovement": 5397,
      "Ġproportion": 5398,
      "Ġtolerably": 5399,
      "stopped": 5400,
      "strange": 5401,
      "Ġyoungest": 5402,
      "darcy": 5403,
      "business": 5404,
      "oubtedly": 5405,
      "Ġtumult": 5406,
      "Ġocean": 5407,
      "ball": 5408,
      "called": 5409,
      "dom": 5410,
      "diff": 5411,
      "ere": 5412,
      "gro": 5413,
      "grave": 5414,
      "gany": 5415,
      "ibly": 5416,
      "lin": 5417,
      "nel": 5418,
      "pic": 5419,
      "past": 5420,
      "pict": 5421,
      "sur": 5422,
      "sir": 5423,
      "sof": 5424,
      "tou": 5425,
      "turned": 5426,
      "wing": 5427,
      "whis": 5428,
      "wall": 5429,
      "yle": 5430,
      "zgany": 5431,
      "hem": 5432,
      "Ġain": 5433,
      "Ġarise": 5434,
      "Ġactions": 5435,
      "Ġahead": 5436,
      "inc": 5437,
      "inations": 5438,
      "Ġwid": 5439,
      "Ġwaste": 5440,
      "Ġsledge": 5441,
      "Ġsigh": 5442,
      "rec": 5443,
      "Ġmood": 5444,
      "Ġmult": 5445,
      "nds": 5446,
      "ouris": 5447,
      "eding": 5448,
      "Ġtones": 5449,
      "Ġfle": 5450,
      "Ġfrench": 5451,
      "inging": 5452,
      "Ġdull": 5453,
      "orge": 5454,
      "stened": 5455,
      "stem": 5456,
      "ites": 5457,
      "Ġinduce": 5458,
      "attend": 5459,
      "Ġpieces": 5460,
      "ashes": 5461,
      "Ġhaste": 5462,
      "Ġbeating": 5463,
      "Ġbearing": 5464,
      "leave": 5465,
      "Ġyard": 5466,
      "sey": 5467,
      "entered": 5468,
      "Ġrent": 5469,
      "Ġreject": 5470,
      "Ġrecent": 5471,
      "added": 5472,
      "Ġancient": 5473,
      "Ġstar": 5474,
      "Ġstupid": 5475,
      "Ġsavage": 5476,
      "omestic": 5477,
      "cken": 5478,
      "pelled": 5479,
      "Ġlimbs": 5480,
      "those": 5481,
      "quis": 5482,
      "quiet": 5483,
      "Ġvac": 5484,
      "Ġextingu": 5485,
      "Ġaltered": 5486,
      "Ġshowing": 5487,
      "onely": 5488,
      "deli": 5489,
      "Ġcared": 5490,
      "Ġcauses": 5491,
      "oses": 5492,
      "ols": 5493,
      "Ġrational": 5494,
      "Ġabrupt": 5495,
      "Ġabroad": 5496,
      "Ġunited": 5497,
      "Ġunjust": 5498,
      "Ġunwilling": 5499,
      "Ġleaning": 5500,
      "Ġcody": 5501,
      "Ġspark": 5502,
      "bear": 5503,
      "assed": 5504,
      "assure": 5505,
      "mbers": 5506,
      "Ġholy": 5507,
      "Ġperceive": 5508,
      "Ġperformed": 5509,
      "Ġdescend": 5510,
      "Ġdesperate": 5511,
      "Ġride": 5512,
      "ecting": 5513,
      "Ġcomposed": 5514,
      "Ġprecious": 5515,
      "conc": 5516,
      "consequ": 5517,
      "Ġbegins": 5518,
      "Ġentry": 5519,
      "Ġresidence": 5520,
      "whether": 5521,
      "Ġclas": 5522,
      "Ġrepose": 5523,
      "sip": 5524,
      "Ġgets": 5525,
      "Ġmoral": 5526,
      "aces": 5527,
      "Ġconsult": 5528,
      "Ġbelieving": 5529,
      "expl": 5530,
      "comed": 5531,
      "Ġachie": 5532,
      "Ġattract": 5533,
      "Ġnewsp": 5534,
      "cles": 5535,
      "Ġwondered": 5536,
      "whilst": 5537,
      "Ġsupply": 5538,
      "rences": 5539,
      "Ġsleeps": 5540,
      "fected": 5541,
      "Ġevils": 5542,
      "Ġflow": 5543,
      "Ġsunlight": 5544,
      "Ġcertainty": 5545,
      "Ġoccasions": 5546,
      "Ġsenses": 5547,
      "Ġdrunk": 5548,
      "stern": 5549,
      "sterdam": 5550,
      "standing": 5551,
      "Ġpresented": 5552,
      "Ġadvance": 5553,
      "Ġdetails": 5554,
      "Ġincap": 5555,
      "Ġremembrance": 5556,
      "Ġreluct": 5557,
      "Ġstrangely": 5558,
      "brother": 5559,
      "Ġhumble": 5560,
      "Ġadmitted": 5561,
      "Ġburied": 5562,
      "Ġreasons": 5563,
      "Ġreasonable": 5564,
      "Ġwalks": 5565,
      "Ġmethod": 5566,
      "Ġabsor": 5567,
      "Ġsweetly": 5568,
      "Ġstaying": 5569,
      "Ġindignation": 5570,
      "Ġclean": 5571,
      "Ġtrial": 5572,
      "Ġescaped": 5573,
      "Ġstole": 5574,
      "ension": 5575,
      "Ġprevious": 5576,
      "Ġendeavours": 5577,
      "persu": 5578,
      "person": 5579,
      "Ġformal": 5580,
      "Ġregarding": 5581,
      "Ġskins": 5582,
      "pleased": 5583,
      "Ġduties": 5584,
      "Ġoblig": 5585,
      "everybody": 5586,
      "Ġprobability": 5587,
      "Ġcheerfully": 5588,
      "Ġsinging": 5589,
      "Ġsettle": 5590,
      "Ġgeorgiana": 5591,
      "Ġtransp": 5592,
      "Ġkeys": 5593,
      "trouble": 5594,
      "Ġthirty": 5595,
      "Ġconcluded": 5596,
      "Ġstrike": 5597,
      "Ġcheerfulness": 5598,
      "Ġemotions": 5599,
      "Ġbarbar": 5600,
      "Ġintroduce": 5601,
      "Ġxxx": 5602,
      "glad": 5603,
      "miserable": 5604,
      "Ġportion": 5605,
      "visit": 5606,
      "Ġhatred": 5607,
      "Ġanimal": 5608,
      "Ġgloomy": 5609,
      "Ġcheek": 5610,
      "Ġremarkable": 5611,
      "Ġremarkably": 5612,
      "Ġtorment": 5613,
      "Ġcommunication": 5614,
      "Ġspecies": 5615,
      "wanted": 5616,
      "Ġsmoke": 5617,
      "Ġimpatiently": 5618,
      "Ġdelivered": 5619,
      "Ġspeedily": 5620,
      "Ġapproaching": 5621,
      "earth": 5622,
      "Ġoperation": 5623,
      "Ġprocured": 5624,
      "Ġgazed": 5625,
      "Ġarguments": 5626,
      "Ġhypnotic": 5627,
      "break": 5628,
      "Ġautumn": 5629,
      "Ġventured": 5630,
      "followed": 5631,
      "Ġsmell": 5632,
      "Ġsimilar": 5633,
      "iveness": 5634,
      "Ġcomparison": 5635,
      "spoke": 5636,
      "Ġbottle": 5637,
      "appearance": 5638,
      "Ġlodge": 5639,
      "Ġcigaret": 5640,
      "Ġfatigue": 5641,
      "Ġlouis": 5642,
      "Ġamidst": 5643,
      "Ġprejudice": 5644,
      "Ġearlier": 5645,
      "Ġattempted": 5646,
      "Ġexclam": 5647,
      "Ġhonoured": 5648,
      "Ġrespon": 5649,
      "Ġstrangers": 5650,
      "despair": 5651,
      "Ġgerman": 5652,
      "Ġcollege": 5653,
      "Ġgentleness": 5654,
      "Ġecst": 5655,
      "Ġkirwin": 5656,
      "Ġincapable": 5657,
      "),": 5658,
      "00": 5659,
      "25": 5660,
      "bable": 5661,
      "cous": 5662,
      "curi": 5663,
      "din": 5664,
      "fran": 5665,
      "front": 5666,
      "gall": 5667,
      "gence": 5668,
      "hur": 5669,
      "iers": 5670,
      "ium": 5671,
      "ilight": 5672,
      "lour": 5673,
      "late": 5674,
      "liness": 5675,
      "mise": 5676,
      "purp": 5677,
      "prise": 5678,
      "rather": 5679,
      "sight": 5680,
      "sist": 5681,
      "sound": 5682,
      "sum": 5683,
      "soul": 5684,
      "tle": 5685,
      "ture": 5686,
      "town": 5687,
      "tran": 5688,
      "upt": 5689,
      "vag": 5690,
      "yer": 5691,
      "zing": 5692,
      "Ġ5": 5693,
      "Ġting": 5694,
      "Ġaud": 5695,
      "inate": 5696,
      "instantly": 5697,
      "Ġwore": 5698,
      "Ġwounds": 5699,
      "Ġwreath": 5700,
      "Ġsin": 5701,
      "real": 5702,
      "Ġid": 5703,
      "Ġbridge": 5704,
      "erland": 5705,
      "Ġfrance": 5706,
      "Ġcrew": 5707,
      "Ġcounter": 5708,
      "Ġdam": 5709,
      "Ġdun": 5710,
      "Ġdise": 5711,
      "Ġdignity": 5712,
      "llen": 5713,
      "llable": 5714,
      "Ġlonely": 5715,
      "Ġnieces": 5716,
      "Ġpure": 5717,
      "esy": 5718,
      "ĠâĢĶ": 5719,
      "Ġere": 5720,
      "Ġeaster": 5721,
      "Ġeurope": 5722,
      "Ġgown": 5723,
      "second": 5724,
      "search": 5725,
      "ental": 5726,
      "verty": 5727,
      "Ġweap": 5728,
      "Ġrecei": 5729,
      "Ġassemb": 5730,
      "Ġassoci": 5731,
      "idently": 5732,
      "Ġmelt": 5733,
      "âĢĻ.": 5734,
      "aling": 5735,
      "already": 5736,
      "although": 5737,
      "urd": 5738,
      "ads": 5739,
      "ading": 5740,
      "Ġthom": 5741,
      "Ġate": 5742,
      "Ġstiff": 5743,
      "Ġstyle": 5744,
      "Ġsees": 5745,
      "Ġsevere": 5746,
      "mended": 5747,
      "kept": 5748,
      "Ġsust": 5749,
      "Ġdefe": 5750,
      "Ġdefect": 5751,
      "andy": 5752,
      "ckle": 5753,
      "Ġlift": 5754,
      "Ġliber": 5755,
      "qual": 5756,
      "Ġconceive": 5757,
      "Ġfemale": 5758,
      "ulation": 5759,
      "ulated": 5760,
      "ulgar": 5761,
      "Ġexamp": 5762,
      "icing": 5763,
      "Ġseeking": 5764,
      "Ġmankind": 5765,
      "Ġshows": 5766,
      "Ġshining": 5767,
      "deep": 5768,
      "istent": 5769,
      "Ġamsterdam": 5770,
      "among": 5771,
      "amma": 5772,
      "Ġagitated": 5773,
      "Ġcomb": 5774,
      "osition": 5775,
      "venience": 5776,
      "Ġrow": 5777,
      "Ġunfold": 5778,
      "Ġunpleasant": 5779,
      "lapsed": 5780,
      "Ġleap": 5781,
      "Ġshaking": 5782,
      "Ġusing": 5783,
      "Ġprolong": 5784,
      "Ġarmed": 5785,
      "iform": 5786,
      "Ġspare": 5787,
      "Ġsplend": 5788,
      "Ġmonday": 5789,
      "beha": 5790,
      "behind": 5791,
      "Ġfac": 5792,
      "Ġenem": 5793,
      "ressive": 5794,
      "ption": 5795,
      "Ġours": 5796,
      "coat": 5797,
      "icker": 5798,
      "Ġhollow": 5799,
      "Ġpermission": 5800,
      "Ġparting": 5801,
      "Ġpartly": 5802,
      "Ġpartial": 5803,
      "Ġchamp": 5804,
      "Ġchaise": 5805,
      "psies": 5806,
      "Ġobv": 5807,
      "Ġobed": 5808,
      "Ġbold": 5809,
      "Ġreserved": 5810,
      "Ġluck": 5811,
      "Ġspell": 5812,
      "Ġmarg": 5813,
      "Ġundertaking": 5814,
      "Ġended": 5815,
      "Ġcontented": 5816,
      "Ġcarrying": 5817,
      "Ġaccused": 5818,
      "ext": 5819,
      "Ġheartily": 5820,
      "Ġrail": 5821,
      "Ġraising": 5822,
      "Ġchill": 5823,
      "clerval": 5824,
      "Ġimm": 5825,
      "Ġhorri": 5826,
      "Ġglory": 5827,
      "Ġflat": 5828,
      "boat": 5829,
      "Ġworks": 5830,
      "Ġlighted": 5831,
      "possible": 5832,
      "Ġprofession": 5833,
      "Ġvisits": 5834,
      "Ġadvise": 5835,
      "Ġkeeps": 5836,
      "affected": 5837,
      "Ġlesson": 5838,
      "Ġdoubted": 5839,
      "Ġbroo": 5840,
      "Ġ19": 5841,
      "Ġtremble": 5842,
      "Ġcommitted": 5843,
      "Ġpowerful": 5844,
      "ivid": 5845,
      "Ġcorpse": 5846,
      "Ġshorthand": 5847,
      "Ġadmir": 5848,
      "Ġabsent": 5849,
      "Ġinsen": 5850,
      "Ġsmallest": 5851,
      "Ġdeadly": 5852,
      "seeing": 5853,
      "Ġconsidering": 5854,
      "themselves": 5855,
      "happened": 5856,
      "chant": 5857,
      "Ġattending": 5858,
      "Ġvisitors": 5859,
      "effect": 5860,
      "cheer": 5861,
      "Ġtwilight": 5862,
      "Ġruns": 5863,
      "Ġtrusted": 5864,
      "prep": 5865,
      "Ġdetermine": 5866,
      "Ġdetermination": 5867,
      "afterwards": 5868,
      "Ġmotor": 5869,
      "Ġmotives": 5870,
      "asket": 5871,
      "Ġhorrors": 5872,
      "Ġparis": 5873,
      "itzerland": 5874,
      "Ġlucases": 5875,
      "Ġabode": 5876,
      "Ġprepar": 5877,
      "Ġtempted": 5878,
      "ailing": 5879,
      "Ġcrept": 5880,
      "natured": 5881,
      "hands": 5882,
      "Ġneighbours": 5883,
      "Ġcurse": 5884,
      "Ġcursed": 5885,
      "Ġefforts": 5886,
      "Ġdegrees": 5887,
      "Ġstreets": 5888,
      "evening": 5889,
      "account": 5890,
      "Ġbitterly": 5891,
      "Ġcalmly": 5892,
      "Ġincrease": 5893,
      "Ġmercy": 5894,
      "Ġexamination": 5895,
      "Ġpolitely": 5896,
      "wait": 5897,
      "Ġdeny": 5898,
      "Ġdenny": 5899,
      "Ġshadows": 5900,
      "Ġinstruments": 5901,
      "Ġinstructions": 5902,
      "thinking": 5903,
      "Ġfastened": 5904,
      "Ġcrazy": 5905,
      "uesday": 5906,
      "Ġcentury": 5907,
      "Ġconsequently": 5908,
      "Ġwretchedness": 5909,
      "Ġmagistrate": 5910,
      "expression": 5911,
      "Ġreported": 5912,
      "Ġcoupe": 5913,
      "welcome": 5914,
      "Ġhence": 5915,
      "Ġrejoice": 5916,
      "passed": 5917,
      "Ġfaintly": 5918,
      "Ġvolupt": 5919,
      "Ġstruggled": 5920,
      "Ġendeavouring": 5921,
      "blood": 5922,
      "Ġconfessed": 5923,
      "Ġintimacy": 5924,
      "Ġproperly": 5925,
      "Ġsailors": 5926,
      "Ġamazed": 5927,
      "Ġimpatience": 5928,
      "reasonable": 5929,
      "Ġgolden": 5930,
      "Ġplainly": 5931,
      "Ġinjured": 5932,
      "suppose": 5933,
      "Ġauthority": 5934,
      "Ġpractice": 5935,
      "Ġproposals": 5936,
      "Ġtenderly": 5937,
      "Ġpeculiarly": 5938,
      "Ġbanks": 5939,
      "ergyman": 5940,
      "Ġpenet": 5941,
      "Ġencouraged": 5942,
      "Ġmurmured": 5943,
      "burgh": 5944,
      "Ġabhorrence": 5945,
      "Ġorders": 5946,
      "spirits": 5947,
      "Ġprotectors": 5948,
      "Ġfields": 5949,
      "Ġfaithful": 5950,
      "Ġintens": 5951,
      "Ġsolicitor": 5952,
      "Ġobtained": 5953,
      "Ġapolog": 5954,
      "Ġapology": 5955,
      "darkness": 5956,
      "Ġmilk": 5957,
      "Ġlamb": 5958,
      "Ġrenewed": 5959,
      "question": 5960,
      "silence": 5961,
      "Ġgaiety": 5962,
      "Ġbenefit": 5963,
      "Ġcabin": 5964,
      "Ġconvey": 5965,
      "Ġbranch": 5966,
      "Ġbranches": 5967,
      "Ġinfinite": 5968,
      "Ġembarrassment": 5969,
      "Ġoriginal": 5970,
      "study": 5971,
      "Ġglimpse": 5972,
      "hardly": 5973,
      "Ġaccomplished": 5974,
      "Ġamerican": 5975,
      "Ġenvelope": 5976,
      "Ġreproach": 5977,
      "Ġobscure": 5978,
      "Ġsympathi": 5979,
      "gentleman": 5980,
      "wildered": 5981,
      "Ġanticip": 5982,
      "Ġshouted": 5983,
      "Ġcondemned": 5984,
      "diary": 5985,
      "twenty": 5986,
      "Ġdisgust": 5987,
      "Ġpuzzled": 5988,
      "broken": 5989,
      "Ġmixture": 5990,
      "Ġgesture": 5991,
      "determined": 5992,
      "Ġencounter": 5993,
      "Ġgroup": 5994,
      "circumstances": 5995,
      "Ġdeprived": 5996,
      "Ġdisdain": 5997,
      "Ġuneasiness": 5998,
      "further": 5999,
      "Ġphrase": 6000,
      "Ġflew": 6001,
      "Ġskinsky": 6002,
      "Ġexample": 6003,
      "Ġenemies": 6004,
      "Ġvoluptuous": 6005,
      "15": 6006,
      "_;": 6007,
      "aired": 6008,
      "ben": 6009,
      "bow": 6010,
      "bits": 6011,
      "brows": 6012,
      "cher": 6013,
      "emp": 6014,
      "fling": 6015,
      "flow": 6016,
      "gent": 6017,
      "gical": 6018,
      "houses": 6019,
      "jections": 6020,
      "lad": 6021,
      "pen": 6022,
      "pray": 6023,
      "pardon": 6024,
      "rs": 6025,
      "ral": 6026,
      "sac": 6027,
      "sign": 6028,
      "serv": 6029,
      "sorrow": 6030,
      "vent": 6031,
      "vable": 6032,
      "wish": 6033,
      "warm": 6034,
      "Ġtit": 6035,
      "Ġtiny": 6036,
      "hell": 6037,
      "Ġaven": 6038,
      "inf": 6039,
      "Ġwine": 6040,
      "Ġwave": 6041,
      "Ġwaked": 6042,
      "Ġspect": 6043,
      "Ġsize": 6044,
      "Ġszgany": 6045,
      "received": 6046,
      "repro": 6047,
      "Ġowe": 6048,
      "Ġming": 6049,
      "Ġmamma": 6050,
      "Ġblo": 6051,
      "Ġbase": 6052,
      "Ġbank": 6053,
      "Ġborn": 6054,
      "erk": 6055,
      "âĢĬ": 6056,
      "Ġferv": 6057,
      "Ġfaded": 6058,
      "Ġcup": 6059,
      "ony": 6060,
      "Ġdate": 6061,
      "Ġdances": 6062,
      "oration": 6063,
      "stay": 6064,
      "store": 6065,
      "state": 6066,
      "itself": 6067,
      "Ġlid": 6068,
      "Ġlakes": 6069,
      "aries": 6070,
      "arran": 6071,
      "Ġinvest": 6072,
      "Ġnarr": 6073,
      "attended": 6074,
      "Ġpha": 6075,
      "Ġpan": 6076,
      "asc": 6077,
      "asures": 6078,
      "omy": 6079,
      "Ġgy": 6080,
      "Ġgru": 6081,
      "least": 6082,
      "sembled": 6083,
      "etite": 6084,
      "Ġreward": 6085,
      "Ġresemblance": 6086,
      "Ġascertain": 6087,
      "ripp": 6088,
      "Ġforces": 6089,
      "Ġwithdrew": 6090,
      "âĢĻ,": 6091,
      "ades": 6092,
      "ird": 6093,
      "rob": 6094,
      "Ġshed": 6095,
      "Ġsheet": 6096,
      "lies": 6097,
      "liest": 6098,
      "Ġstore": 6099,
      "Ġstuff": 6100,
      "Ġsex": 6101,
      "Ġwhist": 6102,
      "Ġsails": 6103,
      "Ġdemon": 6104,
      "Ġdeceive": 6105,
      "pement": 6106,
      "pended": 6107,
      "Ġlim": 6108,
      "Ġlimit": 6109,
      "ourselves": 6110,
      "allow": 6111,
      "Ġconver": 6112,
      "Ġconceived": 6113,
      "Ġjay": 6114,
      "Ġjames": 6115,
      "few": 6116,
      "fell": 6117,
      "âĢĿâĢĶ": 6118,
      "respect": 6119,
      "antity": 6120,
      "selfish": 6121,
      "dec": 6122,
      "orts": 6123,
      "uncle": 6124,
      "Ġcaution": 6125,
      "Ġrou": 6126,
      "Ġroused": 6127,
      "Ġaband": 6128,
      "Ġuncertain": 6129,
      "Ġlect": 6130,
      "Ġtip": 6131,
      "Ġtied": 6132,
      "Ġshade": 6133,
      "Ġmoreover": 6134,
      "Ġlocal": 6135,
      "Ġprocess": 6136,
      "Ġprofound": 6137,
      "Ġquitting": 6138,
      "Ġardent": 6139,
      "Ġarabian": 6140,
      "Ġcock": 6141,
      "Ġovercame": 6142,
      "Ġmock": 6143,
      "pted": 6144,
      "Ġpoverty": 6145,
      "cili": 6146,
      "rubb": 6147,
      "erted": 6148,
      "cope": 6149,
      "perceived": 6150,
      "Ġchains": 6151,
      "Ġrisk": 6152,
      "Ġprey": 6153,
      "Ġpreference": 6154,
      "Ġhappier": 6155,
      "Ġwherever": 6156,
      "Ġhereafter": 6157,
      "uding": 6158,
      "Ġscra": 6159,
      "Ġscattered": 6160,
      "Ġscotland": 6161,
      "Ġclung": 6162,
      "Ġrepla": 6163,
      "Ġmorrow": 6164,
      "intro": 6165,
      "acle": 6166,
      "Ġcontri": 6167,
      "Ġcontain": 6168,
      "within": 6169,
      "Ġexped": 6170,
      "suit": 6171,
      "tyard": 6172,
      "returned": 6173,
      "extra": 6174,
      "Ġrare": 6175,
      "answered": 6176,
      "Ġwaved": 6177,
      "Ġminds": 6178,
      "Ġplun": 6179,
      "boy": 6180,
      "Ġpositively": 6181,
      "Ġapply": 6182,
      "Ġsilently": 6183,
      "spread": 6184,
      "vii": 6185,
      "vived": 6186,
      "Ġsweep": 6187,
      "versed": 6188,
      "Ġgenius": 6189,
      "itual": 6190,
      "Ġcareless": 6191,
      "Ġchin": 6192,
      "apers": 6193,
      "Ġcharm": 6194,
      "rossed": 6195,
      "Ġsorts": 6196,
      "Ġdrifted": 6197,
      "Ġsoundly": 6198,
      "Ġawakened": 6199,
      "Ġconfident": 6200,
      "Ġconfirm": 6201,
      "Ġneedless": 6202,
      "Ġbedroom": 6203,
      "Ġpains": 6204,
      "Ġresolving": 6205,
      "Ġabsurd": 6206,
      "Ġacquies": 6207,
      "Ġindic": 6208,
      "Ġindivid": 6209,
      "Ġsecured": 6210,
      "Ġcondu": 6211,
      "Ġfinish": 6212,
      "Ġstudied": 6213,
      "Ġextent": 6214,
      "Ġswitzerland": 6215,
      "Ġcleared": 6216,
      "Ġthither": 6217,
      "ground": 6218,
      "knowing": 6219,
      "Ġdrops": 6220,
      "longbourn": 6221,
      "whose": 6222,
      "Ġdreaming": 6223,
      "Ġforever": 6224,
      "Ġforeign": 6225,
      "Ġgrounds": 6226,
      "speaking": 6227,
      "Ġcease": 6228,
      "Ġsurmise": 6229,
      "Ġparish": 6230,
      "please": 6231,
      "Ġcousins": 6232,
      "Ġelement": 6233,
      "placed": 6234,
      "Ġ(_": 6235,
      "interrupt": 6236,
      "Ġseconds": 6237,
      "Ġtransf": 6238,
      "Ġincluded": 6239,
      "pendence": 6240,
      "Ġsymptom": 6241,
      "Ġwarmly": 6242,
      "written": 6243,
      "Ġsituated": 6244,
      "Ġofficer": 6245,
      "Ġsecrets": 6246,
      "Ġphone": 6247,
      "Ġdescription": 6248,
      "marked": 6249,
      "Ġtravell": 6250,
      "kindness": 6251,
      "Ġdenied": 6252,
      "struck": 6253,
      "Ġworthy": 6254,
      "Ġembra": 6255,
      "express": 6256,
      "Ġcouch": 6257,
      "Ġflapping": 6258,
      "Ġhellish": 6259,
      "Ġcourtesy": 6260,
      "greater": 6261,
      "Ġerror": 6262,
      "ribute": 6263,
      "Ġextravag": 6264,
      "Ġimpatient": 6265,
      "books": 6266,
      "Ġdeserted": 6267,
      "interested": 6268,
      "nesday": 6269,
      "Ġbride": 6270,
      "Ġlaws": 6271,
      "Ġmasses": 6272,
      "Ġproposal": 6273,
      "earnest": 6274,
      "Ġtriumphant": 6275,
      "Ġabhorred": 6276,
      "Ġordinary": 6277,
      "Ġargument": 6278,
      "Ġdeclare": 6279,
      "Ġhypnotise": 6280,
      "pathi": 6281,
      "Ġpunct": 6282,
      "famili": 6283,
      "Ġautom": 6284,
      "Ġlamps": 6285,
      "Ġalteration": 6286,
      "Ġlament": 6287,
      "Ġardently": 6288,
      "Ġaccompany": 6289,
      "Ġjealous": 6290,
      "Ġdesirous": 6291,
      "Ġentertained": 6292,
      "Ġeloqu": 6293,
      "Ġdebts": 6294,
      "Ġghostly": 6295,
      "Ġbenevolent": 6296,
      "Ġcustoms": 6297,
      "Ġpallor": 6298,
      "Ġpreceding": 6299,
      "Ġmourn": 6300,
      "Ġshrink": 6301,
      "Ġwickedness": 6302,
      "Ġcorrect": 6303,
      "Ġtroubled": 6304,
      "Ġattentive": 6305,
      "Ġpronounced": 6306,
      "Ġbuilding": 6307,
      "Ġwhirl": 6308,
      "Ġrays": 6309,
      "cottage": 6310,
      "Ġtotally": 6311,
      "telegra": 6312,
      "Ġenormous": 6313,
      "Ġcontrast": 6314,
      "Ġphotograph": 6315,
      "journey": 6316,
      "Ġunlucky": 6317,
      "immediately": 6318,
      "Ġcomplexion": 6319,
      "difficul": 6320,
      "dinner": 6321,
      "17": 6322,
      "18": 6323,
      "29": 6324,
      "aper": 6325,
      "cid": 6326,
      "close": 6327,
      "det": 6328,
      "dig": 6329,
      "emb": 6330,
      "fat": 6331,
      "four": 6332,
      "flo": 6333,
      "fire": 6334,
      "free": 6335,
      "fashi": 6336,
      "frequ": 6337,
      "gi": 6338,
      "iate": 6339,
      "joh": 6340,
      "jordan": 6341,
      "kin": 6342,
      "length": 6343,
      "none": 6344,
      "nment": 6345,
      "pret": 6346,
      "sle": 6347,
      "slight": 6348,
      "tled": 6349,
      "tains": 6350,
      "ube": 6351,
      "uffe": 6352,
      "vity": 6353,
      "water": 6354,
      "yno": 6355,
      "za": 6356,
      "zoo": 6357,
      "zard": 6358,
      "heaven": 6359,
      "hetic": 6360,
      "iners": 6361,
      "inete": 6362,
      "Ġwink": 6363,
      "Ġwrist": 6364,
      "Ġsons": 6365,
      "Ġiv": 6366,
      "Ġbaff": 6367,
      "Ġtore": 6368,
      "Ġtoils": 6369,
      "Ġfil": 6370,
      "Ġfish": 6371,
      "Ġfitted": 6372,
      "Ġfainted": 6373,
      "Ġcoun": 6374,
      "Ġcunning": 6375,
      "Ġdu": 6376,
      "Ġded": 6377,
      "Ġdang": 6378,
      "Ġdomestic": 6379,
      "lli": 6380,
      "sters": 6381,
      "itating": 6382,
      "itical": 6383,
      "Ġintending": 6384,
      "Ġinsuff": 6385,
      "Ġnonsense": 6386,
      "anx": 6387,
      "Ġpot": 6388,
      "Ġpink": 6389,
      "Ġpick": 6390,
      "Ġpoured": 6391,
      "Ġpushed": 6392,
      "Ġpeter": 6393,
      "ases": 6394,
      "Ġhamp": 6395,
      "Ġhasty": 6396,
      "Ġbeast": 6397,
      "otes": 6398,
      "Ġecho": 6399,
      "lea": 6400,
      "Ġhired": 6401,
      "Ġhiding": 6402,
      "ĠĠĠ": 6403,
      "ett": 6404,
      "etch": 6405,
      "Ġreyno": 6406,
      "rier": 6407,
      "Ġforci": 6408,
      "Ġforbid": 6409,
      "isance": 6410,
      "urs": 6411,
      "irty": 6412,
      "Ġstage": 6413,
      "Ġsell": 6414,
      "Ġseas": 6415,
      "Ġseven": 6416,
      "means": 6417,
      "tering": 6418,
      "Ġdeed": 6419,
      "Ġdevelo": 6420,
      "ckled": 6421,
      "pemberley": 6422,
      "Ġlikes": 6423,
      "ouring": 6424,
      "thus": 6425,
      "ram": 6426,
      "raway": 6427,
      "alling": 6428,
      "Ġconcent": 6429,
      "Ġfee": 6430,
      "fellow": 6431,
      "Ġvic": 6432,
      "Ġnearest": 6433,
      "ilo": 6434,
      "resist": 6435,
      "Ġnoise": 6436,
      "teeth": 6437,
      "tears": 6438,
      "ussi": 6439,
      "wee": 6440,
      "west": 6441,
      "unless": 6442,
      "Ġcamp": 6443,
      "venient": 6444,
      "Ġrud": 6445,
      "Ġrats": 6446,
      "Ġabomin": 6447,
      "Ġcanv": 6448,
      "Ġunusual": 6449,
      "Ġuniform": 6450,
      "Ġleather": 6451,
      "Ġlevel": 6452,
      "Ġloat": 6453,
      "Ġproduce": 6454,
      "Ġquantity": 6455,
      "Ġrolled": 6456,
      "Ġhowl": 6457,
      "lost": 6458,
      "became": 6459,
      "Ġtem": 6460,
      "Ġtend": 6461,
      "elt": 6462,
      "eling": 6463,
      "Ġenchan": 6464,
      "forth": 6465,
      "Ġdish": 6466,
      "Ġdisp": 6467,
      "Ġdisgu": 6468,
      "Ġdiscourse": 6469,
      "cied": 6470,
      "Ġdaylight": 6471,
      "Ġeverywhere": 6472,
      "Ġowner": 6473,
      "Ġletting": 6474,
      "Ġperil": 6475,
      "ums": 6476,
      "Ġpartiality": 6477,
      "Ġbrandy": 6478,
      "Ġcomply": 6479,
      "fty": 6480,
      "Ġwhereupon": 6481,
      "conject": 6482,
      "moon": 6483,
      "Ġbegged": 6484,
      "Ġentail": 6485,
      "Ġthrowing": 6486,
      "Ġbodies": 6487,
      "order": 6488,
      "netherfield": 6489,
      "Ġblot": 6490,
      "simp": 6491,
      "inted": 6492,
      "Ġbennets": 6493,
      "ache": 6494,
      "Ġconsum": 6495,
      "Ġcontents": 6496,
      "Ġaccent": 6497,
      "nowledge": 6498,
      "tens": 6499,
      "excellent": 6500,
      "comm": 6501,
      "ignor": 6502,
      "closed": 6503,
      "answer": 6504,
      "ceptible": 6505,
      "Ġcollected": 6506,
      "Ġappetite": 6507,
      "Ġcourtyard": 6508,
      "days": 6509,
      "Ġchanging": 6510,
      "Ġdiabo": 6511,
      "Ġfarm": 6512,
      "viii": 6513,
      "Ġchecked": 6514,
      "Ġopenly": 6515,
      "Ġfollows": 6516,
      "Ġrefuge": 6517,
      "Ġregul": 6518,
      "shore": 6519,
      "impossible": 6520,
      "fact": 6521,
      "Ġillust": 6522,
      "Ġbeauties": 6523,
      "Ġ12": 6524,
      "Ġconfirmed": 6525,
      "Ġstartling": 6526,
      "Ġsteam": 6527,
      "ivity": 6528,
      "Ġlaying": 6529,
      "Ġinsist": 6530,
      "seek": 6531,
      "Ġconditions": 6532,
      "Ġexpressive": 6533,
      "Ġclosely": 6534,
      "Ġdirections": 6535,
      "Ġdespond": 6536,
      "Ġfellows": 6537,
      "Ġstock": 6538,
      "justice": 6539,
      "Ġsystem": 6540,
      "Ġsummit": 6541,
      "Ġhumanity": 6542,
      "afternoon": 6543,
      "Ġskin": 6544,
      "stones": 6545,
      "Ġvest": 6546,
      "Ġcompleted": 6547,
      "Ġlanded": 6548,
      "Ġstatement": 6549,
      "Ġpreparing": 6550,
      "Ġassumed": 6551,
      "pride": 6552,
      "Ġhonourable": 6553,
      "Ġsnowy": 6554,
      "Ġeyebrows": 6555,
      "ificent": 6556,
      "nature": 6557,
      "Ġcrimes": 6558,
      "Ġenterprise": 6559,
      "Ġsoftened": 6560,
      "accident": 6561,
      "Ġruined": 6562,
      "Ġcalmness": 6563,
      "Ġwalls": 6564,
      "Ġsolemnity": 6565,
      "Ġrosy": 6566,
      "Ġoccupations": 6567,
      "married": 6568,
      "Ġexamine": 6569,
      "Ġpropose": 6570,
      "iii": 6571,
      "Ġpolite": 6572,
      "Ġremove": 6573,
      "offic": 6574,
      "waist": 6575,
      "Ġinterruption": 6576,
      "Ġirr": 6577,
      "expressed": 6578,
      "Ġglasses": 6579,
      "finite": 6580,
      "finished": 6581,
      "Ġintellect": 6582,
      "Ġfifteen": 6583,
      "Ġvaluable": 6584,
      "Ġrocks": 6585,
      "Ġguessed": 6586,
      "small": 6587,
      "Ġerr": 6588,
      "Ġwander": 6589,
      "occup": 6590,
      "Ġhesitation": 6591,
      "Ġgroaned": 6592,
      "believed": 6593,
      "Ġfootsteps": 6594,
      "Ġengagements": 6595,
      "Ġcommunicated": 6596,
      "Ġwelcomed": 6597,
      "Ġcompliments": 6598,
      "Ġfamilies": 6599,
      "Ġrelationship": 6600,
      "kinson": 6601,
      "distingu": 6602,
      "Ġsloane": 6603,
      "Ġremarks": 6604,
      "Ġbelonged": 6605,
      "Ġgatz": 6606,
      "Ġtenderness": 6607,
      "Ġtreatment": 6608,
      "Ġmalice": 6609,
      "Ġsuperst": 6610,
      "Ġshuddered": 6611,
      "Ġsupported": 6612,
      "Ġexcessively": 6613,
      "grey": 6614,
      "gotten": 6615,
      "women": 6616,
      "Ġassurances": 6617,
      "Ġseparated": 6618,
      "satisfa": 6619,
      "Ġborgo": 6620,
      "advantage": 6621,
      "Ġobtain": 6622,
      "Ġdesirable": 6623,
      "castle": 6624,
      "strength": 6625,
      "spoken": 6626,
      "Ġdeclined": 6627,
      "Ġknocked": 6628,
      "Ġembarrassed": 6629,
      "Ġsuspected": 6630,
      "Ġdistinguished": 6631,
      "possessed": 6632,
      "favourable": 6633,
      "madam": 6634,
      "Ġsquare": 6635,
      "Ġfrown": 6636,
      "Ġbenevolence": 6637,
      "Ġelevated": 6638,
      "Ġrepresented": 6639,
      "Ġkeenly": 6640,
      "Ġwreck": 6641,
      "Ġfulfil": 6642,
      "Ġoverwhelmed": 6643,
      "Ġsummoned": 6644,
      "opportunity": 6645,
      "Ġmiseries": 6646,
      "Ġtemptation": 6647,
      "Ġslovaks": 6648,
      "Ġhanging": 6649,
      "resolved": 6650,
      "consider": 6651,
      "Ġnorthern": 6652,
      "neighbourhood": 6653,
      "black": 6654,
      "different": 6655,
      "Ġpopular": 6656,
      "Ġcarriages": 6657,
      "Ġincessantly": 6658,
      "Ġprivilege": 6659,
      "absolutely": 6660,
      "soft": 6661,
      "Ġmultitude": 6662,
      "Ġthomas": 6663,
      "Ġmargaret": 6664,
      "Ġintensity": 6665,
      "ladies": 6666,
      "Ġavenue": 6667,
      "Ġgypsies": 6668,
      "rubbery": 6669,
      "familiar": 6670,
      "telegram": 6671,
      "john": 6672,
      "Ġreynolds": 6673,
      "Ġdiabolic": 6674,
      "/*": 6675,
      "19": 6676,
      "awn": 6677,
      "bes": 6678,
      "bul": 6679,
      "bted": 6680,
      "cat": 6681,
      "cur": 6682,
      "cus": 6683,
      "cru": 6684,
      "cension": 6685,
      "during": 6686,
      "een": 6687,
      "ele": 6688,
      "eyed": 6689,
      "fun": 6690,
      "fine": 6691,
      "fig": 6692,
      "fixed": 6693,
      "gard": 6694,
      "hot": 6695,
      "hung": 6696,
      "ich": 6697,
      "iac": 6698,
      "lab": 6699,
      "langu": 6700,
      "liter": 6701,
      "mic": 6702,
      "meryton": 6703,
      "name": 6704,
      "pron": 6705,
      "sla": 6706,
      "snow": 6707,
      "situ": 6708,
      "turn": 6709,
      "times": 6710,
      "turning": 6711,
      "trees": 6712,
      "vice": 6713,
      "ws": 6714,
      "wilson": 6715,
      "wolves": 6716,
      "xed": 6717,
      "yel": 6718,
      "Ġ8": 6719,
      "Ġess": 6720,
      "Ġtid": 6721,
      "Ġtuesday": 6722,
      "heav": 6723,
      "herent": 6724,
      "Ġacted": 6725,
      "inity": 6726,
      "incl": 6727,
      "instru": 6728,
      "Ġswo": 6729,
      "Ġscept": 6730,
      "Ġscient": 6731,
      "Ġthee": 6732,
      "relie": 6733,
      "Ġmast": 6734,
      "Ġmach": 6735,
      "Ġmixed": 6736,
      "Ġident": 6737,
      "hair": 6738,
      "habited": 6739,
      "oust": 6740,
      "Ġbab": 6741,
      "Ġbers": 6742,
      "Ġburn": 6743,
      "educ": 6744,
      "enances": 6745,
      "enkinson": 6746,
      "Ġtoil": 6747,
      "Ġtoday": 6748,
      "Ġtower": 6749,
      "Ġfain": 6750,
      "Ġfant": 6751,
      "Ġcy": 6752,
      "ont": 6753,
      "oner": 6754,
      "ington": 6755,
      "Ġdus": 6756,
      "orate": 6757,
      "stance": 6758,
      "Ġlanter": 6759,
      "Ġinduced": 6760,
      "Ġnerve": 6761,
      "Ġpian": 6762,
      "Ġpush": 6763,
      "Ġhabits": 6764,
      "Ġbeau": 6765,
      "Ġbewildered": 6766,
      "Ġelapsed": 6767,
      "Ġeyel": 6768,
      "Ġgree": 6769,
      "Ġgates": 6770,
      "Ġhidden": 6771,
      "Ġyer": 6772,
      "Ġyawn": 6773,
      "uts": 6774,
      "cey": 6775,
      "ldman": 6776,
      "etition": 6777,
      "verted": 6778,
      "Ġweighed": 6779,
      "Ġrever": 6780,
      "Ġreduced": 6781,
      "Ġreception": 6782,
      "Ġreaction": 6783,
      "Ġashes": 6784,
      "Ġascended": 6785,
      "rium": 6786,
      "Ġnoth": 6787,
      "Ġnotion": 6788,
      "Ġult": 6789,
      "alo": 6790,
      "alas": 6791,
      "ales": 6792,
      "urbed": 6793,
      "lime": 6794,
      "Ġstag": 6795,
      "Ġstair": 6796,
      "Ġstamp": 6797,
      "Ġseize": 6798,
      "mem": 6799,
      "meant": 6800,
      "ooses": 6801,
      "abled": 6802,
      "Ġdepended": 6803,
      "cker": 6804,
      "peculi": 6805,
      "ources": 6806,
      "Ġkrem": 6807,
      "geon": 6808,
      "allowed": 6809,
      "Ġconj": 6810,
      "Ġconqu": 6811,
      "Ġjenkinson": 6812,
      "feared": 6813,
      "felix": 6814,
      "Ġexquis": 6815,
      "Ġknelt": 6816,
      "teous": 6817,
      "Ġshrubbery": 6818,
      "Ġamused": 6819,
      "erson": 6820,
      "Ġcaut": 6821,
      "Ġrh": 6822,
      "Ġrum": 6823,
      "Ġrussi": 6824,
      "Ġabbey": 6825,
      "mention": 6826,
      "Ġshake": 6827,
      "Ġshared": 6828,
      "Ġprosper": 6829,
      "Ġqui": 6830,
      "Ġarch": 6831,
      "Ġarmy": 6832,
      "Ġcop": 6833,
      "Ġcost": 6834,
      "Ġspr": 6835,
      "Ġteach": 6836,
      "Ġtrade": 6837,
      "Ġintolerable": 6838,
      "Ġmaybe": 6839,
      "neg": 6840,
      "force": 6841,
      "forgotten": 6842,
      "Ġ*/": 6843,
      "Ġadvers": 6844,
      "Ġmischief": 6845,
      "igantic": 6846,
      "note": 6847,
      "civil": 6848,
      "idea": 6849,
      "âĢĶ.": 6850,
      "Ġlethar": 6851,
      "Ġpermit": 6852,
      "Ġperceiving": 6853,
      "Ġchain": 6854,
      "Ġcharact": 6855,
      "Ġchauffe": 6856,
      "Ġrisen": 6857,
      "Ġbrows": 6858,
      "Ġobjections": 6859,
      "Ġprec": 6860,
      "Ġhappily": 6861,
      "Ġjustified": 6862,
      "moving": 6863,
      "Ġimpressed": 6864,
      "Ġgrant": 6865,
      "Ġboats": 6866,
      "Ġfeels": 6867,
      "Ġresigned": 6868,
      "Ġscre": 6869,
      "Ġscru": 6870,
      "Ġscale": 6871,
      "Ġscorn": 6872,
      "Ġlucky": 6873,
      "Ġmarch": 6874,
      "Ġmarks": 6875,
      "across": 6876,
      "noble": 6877,
      "Ġconsented": 6878,
      "Ġthroughout": 6879,
      "opin": 6880,
      "oples": 6881,
      "Ġcarter": 6882,
      "Ġwinds": 6883,
      "Ġacute": 6884,
      "clothes": 6885,
      "ĠĠĠĠĠĠĠĠĠĠĠĠĠĠĠĠĠĠĠĠĠĠĠĠ": 6886,
      "Ġpapa": 6887,
      "chair": 6888,
      "fectly": 6889,
      "Ġwail": 6890,
      "Ġwafer": 6891,
      "Ġwaldman": 6892,
      "Ġkinds": 6893,
      "Ġglow": 6894,
      "Ġflood": 6895,
      "Ġflash": 6896,
      "Ġflattered": 6897,
      "Ġdistorted": 6898,
      "Ġdistinction": 6899,
      "avo": 6900,
      "Ġhopeless": 6901,
      "Ġdict": 6902,
      "mons": 6903,
      "Ġlacey": 6904,
      "Ġsublime": 6905,
      "kerchief": 6906,
      "Ġengaging": 6907,
      "Ġrefres": 6908,
      "Ġrefresh": 6909,
      "Ġexchan": 6910,
      "ksome": 6911,
      "Ġintent": 6912,
      "Ġintentions": 6913,
      "Ġgardens": 6914,
      "Ġadvantages": 6915,
      "willingly": 6916,
      "Ġstrained": 6917,
      "Ġdraught": 6918,
      "afraid": 6919,
      "Ġpoints": 6920,
      "Ġdetest": 6921,
      "aints": 6922,
      "Ġhush": 6923,
      "uresque": 6924,
      "Ġmeanwhile": 6925,
      "Ġsounded": 6926,
      "Ġinterview": 6927,
      "Ġtreasure": 6928,
      "Ġawa": 6929,
      "ulties": 6930,
      "ultiv": 6931,
      "Ġcommenced": 6932,
      "Ġcommission": 6933,
      "Ġcontinual": 6934,
      "Ġcorners": 6935,
      "Ġdecay": 6936,
      "Ġrealise": 6937,
      "Ġrealised": 6938,
      "discovered": 6939,
      "disposition": 6940,
      "Ġmetal": 6941,
      "Ġdestined": 6942,
      "Ġrecover": 6943,
      "Ġcircul": 6944,
      "seems": 6945,
      "Ġrange": 6946,
      "wouldn": 6947,
      "Ġfinal": 6948,
      "formation": 6949,
      "Ġsuffering": 6950,
      "Ġinfam": 6951,
      "Ġattendants": 6952,
      "umption": 6953,
      "Ġanxiously": 6954,
      "Ġshoes": 6955,
      "Ġtraces": 6956,
      "settled": 6957,
      "Ġgladness": 6958,
      "whole": 6959,
      "Ġrespects": 6960,
      "evidently": 6961,
      "Ġcalcul": 6962,
      "Ġregarded": 6963,
      "Ġdifferently": 6964,
      "Ġtouching": 6965,
      "Ġgravel": 6966,
      "Ġsignific": 6967,
      "Ġoblige": 6968,
      "Ġoccasional": 6969,
      "Ġelect": 6970,
      "Ġopinions": 6971,
      "Ġmovements": 6972,
      "Ġedges": 6973,
      "horror": 6974,
      "priet": 6975,
      "Ġdevils": 6976,
      "missed": 6977,
      "llingham": 6978,
      "Ġcreate": 6979,
      "Ġthousands": 6980,
      "Ġastonishing": 6981,
      "Ġvariety": 6982,
      "Ġlarger": 6983,
      "Ġrecall": 6984,
      "compli": 6985,
      "complete": 6986,
      "Ġproceeding": 6987,
      "Ġdresses": 6988,
      "Ġmaids": 6989,
      "Ġblessing": 6990,
      "Ġslightest": 6991,
      "Ġrule": 6992,
      "Ġrecollect": 6993,
      "Ġrecollections": 6994,
      "Ġoccupation": 6995,
      "Ġslender": 6996,
      "Ġgracious": 6997,
      "truth": 6998,
      "Ġtravelling": 6999,
      "Ġsixteen": 7000,
      "Ġsorrowful": 7001,
      "Ġsuccessful": 7002,
      "sibilities": 7003,
      "hearted": 7004,
      "Ġhyster": 7005,
      "Ġstrict": 7006,
      "Ġprotest": 7007,
      "Ġcraw": 7008,
      "Ġirresist": 7009,
      "Ġbreathless": 7010,
      "glass": 7011,
      "Ġundoubtedly": 7012,
      "ograp": 7013,
      "Ġanimation": 7014,
      "Ġsolid": 7015,
      "finitely": 7016,
      "Ġentreaty": 7017,
      "Ġentreaties": 7018,
      "Ġmedic": 7019,
      "Ġsuggestion": 7020,
      "smiled": 7021,
      "Ġwandering": 7022,
      "begin": 7023,
      "Ġslid": 7024,
      "Ġcommunicate": 7025,
      "keeping": 7026,
      "Ġsuspicious": 7027,
      "iciency": 7028,
      "Ġafforded": 7029,
      "Ġcasual": 7030,
      "Ġbrilli": 7031,
      "Ġdeliber": 7032,
      "Ġvirtues": 7033,
      "Ġoffended": 7034,
      "Ġpractical": 7035,
      "Ġflying": 7036,
      "Ġfoolish": 7037,
      "Ġfirmly": 7038,
      "Ġrecommended": 7039,
      "burg": 7040,
      "Ġprocure": 7041,
      "understanding": 7042,
      "Ġarrangement": 7043,
      "Ġgazette": 7044,
      "delighted": 7045,
      "Ġterrific": 7046,
      "Ġtranquil": 7047,
      "cisely": 7048,
      "boxes": 7049,
      "Ġstroke": 7050,
      "Ġmodesty": 7051,
      "Ġtax": 7052,
      "Ġmutual": 7053,
      "Ġhastened": 7054,
      "Ġwitnesses": 7055,
      "silent": 7056,
      "Ġconsciousness": 7057,
      "Ġtongues": 7058,
      "Ġelopement": 7059,
      "vereign": 7060,
      "Ġconveyed": 7061,
      "comfortable": 7062,
      "Ġinfinitely": 7063,
      "Ġexecution": 7064,
      "Ġvexation": 7065,
      "Ġdiscussion": 7066,
      "suspic": 7067,
      "Ġsinking": 7068,
      "Ġcongratulations": 7069,
      "younger": 7070,
      "Ġdistinguish": 7071,
      "Ġincredul": 7072,
      "Ġindulgence": 7073,
      "Ġdisplayed": 7074,
      "watch": 7075,
      "Ġunconsciously": 7076,
      "Ġrepresent": 7077,
      "surprise": 7078,
      "destro": 7079,
      "Ġpeasant": 7080,
      "Ġpeasants": 7081,
      "talking": 7082,
      "Ġodour": 7083,
      "Ġgleam": 7084,
      "meeting": 7085,
      "beautiful": 7086,
      "connected": 7087,
      "Ġaccurate": 7088,
      "Ġinvoluntarily": 7089,
      "Ġceremony": 7090,
      "Ġbillington": 7091,
      "Ġbolt": 7092,
      "Ġcoward": 7093,
      "Ġthoroughly": 7094,
      "Ġuncommonly": 7095,
      "imagination": 7096,
      "experienced": 7097,
      "particularly": 7098,
      "Ġhammer": 7099,
      "riefly": 7100,
      "Ġmajesty": 7101,
      "thir": 7102,
      "arrived": 7103,
      "Ġsacrifice": 7104,
      "umerous": 7105,
      "Ġvivid": 7106,
      "accompl": 7107,
      "Ġestablished": 7108,
      "dreadful": 7109,
      "Ġqueer": 7110,
      "Ġchristmas": 7111,
      "Ġcelebr": 7112,
      "Ġexclamation": 7113,
      "Ġecstasy": 7114,
      "cousin": 7115,
      "purpose": 7116,
      "Ġeastern": 7117,
      "Ġobedience": 7118,
      "Ġadmirable": 7119,
      "Ġlambton": 7120,
      "bennet": 7121,
      "Ġtransfusion": 7122,
      "pathians": 7123,
      "Ġinsufficient": 7124,
      "Ġforcibly": 7125,
      "iloxi": 7126,
      "Ġvesti": 7127,
      "Ġfantastic": 7128,
      "Ġkrempe": 7129,
      "Ġcharacters": 7130,
      ";âĢĿ": 7131,
      "aps": 7132,
      "ault": 7133,
      "bs": 7134,
      "bra": 7135,
      "cli": 7136,
      "cra": 7137,
      "cil": 7138,
      "credit": 7139,
      "dressed": 7140,
      "direct": 7141,
      "eur": 7142,
      "egro": 7143,
      "fing": 7144,
      "full": 7145,
      "fool": 7146,
      "fitzwilliam": 7147,
      "gate": 7148,
      "given": 7149,
      "hundred": 7150,
      "iqu": 7151,
      "ians": 7152,
      "ko": 7153,
      "lor": 7154,
      "lit": 7155,
      "mid": 7156,
      "mare": 7157,
      "money": 7158,
      "ox": 7159,
      "pha": 7160,
      "pol": 7161,
      "pause": 7162,
      "pool": 7163,
      "shad": 7164,
      "saf": 7165,
      "sky": 7166,
      "treat": 7167,
      "taker": 7168,
      "tete": 7169,
      "uce": 7170,
      "uel": 7171,
      "wit": 7172,
      "Ġ9": 7173,
      "Ġzoo": 7174,
      "Ġtro": 7175,
      "Ġtang": 7176,
      "Ġamp": 7177,
      "Ġawe": 7178,
      "Ġawhile": 7179,
      "Ġamend": 7180,
      "inated": 7181,
      "Ġwan": 7182,
      "Ġsway": 7183,
      "Ġsnat": 7184,
      "repe": 7185,
      "reco": 7186,
      "recoll": 7187,
      "Ġoak": 7188,
      "Ġobe": 7189,
      "Ġmoth": 7190,
      "Ġmoust": 7191,
      "Ġba": 7192,
      "Ġbade": 7193,
      "Ġbounds": 7194,
      "Ġburned": 7195,
      "Ġbones": 7196,
      "Ġbattle": 7197,
      "Ġbasket": 7198,
      "Ġbriefly": 7199,
      "enjoy": 7200,
      "Ġfer": 7201,
      "Ġfis": 7202,
      "Ġfought": 7203,
      "Ġfru": 7204,
      "Ġfasc": 7205,
      "Ġcultiv": 7206,
      "Ġdashed": 7207,
      "Ġdashing": 7208,
      "Ġdirty": 7209,
      "Ġheath": 7210,
      "Ġheap": 7211,
      "start": 7212,
      "stone": 7213,
      "Ġinher": 7214,
      "Ġinex": 7215,
      "Ġintend": 7216,
      "Ġincome": 7217,
      "Ġnigh": 7218,
      "anc": 7219,
      "Ġpin": 7220,
      "Ġpow": 7221,
      "Ġpred": 7222,
      "asel": 7223,
      "hattered": 7224,
      "otic": 7225,
      "Ġelig": 7226,
      "Ġgun": 7227,
      "owered": 7228,
      "vey": 7229,
      "eting": 7230,
      "chor": 7231,
      "Ġweary": 7232,
      "Ġrelig": 7233,
      "Ġash": 7234,
      "Ġascend": 7235,
      "rily": 7236,
      "Ġherr": 7237,
      "idable": 7238,
      "--_": 7239,
      "Ġug": 7240,
      "Ġupper": 7241,
      "Ġmeasures": 7242,
      "urance": 7243,
      "Ġhuge": 7244,
      "hertfordshire": 7245,
      "iron": 7246,
      "rolled": 7247,
      "liked": 7248,
      "library": 7249,
      "Ġanchor": 7250,
      "ĠâĢľâĢĺ": 7251,
      "Ġstert": 7252,
      "Ġstaring": 7253,
      "Ġstretch": 7254,
      "Ġstature": 7255,
      "Ġstones": 7256,
      "Ġselected": 7257,
      "mest": 7258,
      "oofer": 7259,
      "Ġsale": 7260,
      "Ġallusion": 7261,
      "Ġallowing": 7262,
      "Ġalluded": 7263,
      "quincey": 7264,
      "allel": 7265,
      "Ġvulgar": 7266,
      "Ġextended": 7267,
      "Ġexcell": 7268,
      "icism": 7269,
      "Ġnostri": 7270,
      "aston": 7271,
      "Ġshine": 7272,
      "wels": 7273,
      "dev": 7274,
      "depart": 7275,
      "aments": 7276,
      "Ġwillingly": 7277,
      "Ġages": 7278,
      "Ġcommend": 7279,
      "Ġrug": 7280,
      "Ġunnatural": 7281,
      "Ġunfamiliar": 7282,
      "laug": 7283,
      "Ġtie": 7284,
      "Ġticket": 7285,
      "Ġthence": 7286,
      "ivered": 7287,
      "Ġlofty": 7288,
      "Ġproject": 7289,
      "agne": 7290,
      "Ġcover": 7291,
      "inkled": 7292,
      "become": 7293,
      "beyond": 7294,
      "blem": 7295,
      "Ġensu": 7296,
      "Ġenabled": 7297,
      "near": 7298,
      "Ġadie": 7299,
      "Ġmissing": 7300,
      "Ġdischar": 7301,
      "Ġdisagreeable": 7302,
      "Ġdissip": 7303,
      "Ġpole": 7304,
      "Ġpoison": 7305,
      "Ġmadame": 7306,
      "Ġhandkerchief": 7307,
      "civ": 7308,
      "cial": 7309,
      "ĠĠĠĠĠĠĠ": 7310,
      "Ġhoarse": 7311,
      "Ġfriendly": 7312,
      "Ġperse": 7313,
      "Ġperish": 7314,
      "umerable": 7315,
      "peration": 7316,
      "Ġgoods": 7317,
      "Ġdeserved": 7318,
      "Ġdesires": 7319,
      "Ġriding": 7320,
      "Ġbrings": 7321,
      "Ġbrute": 7322,
      "Ġcompla": 7323,
      "Ġcompared": 7324,
      "Ġhappiest": 7325,
      "conce": 7326,
      "mystery": 7327,
      "Ġnightmare": 7328,
      "Ġbohem": 7329,
      "Ġresent": 7330,
      "Ġresumed": 7331,
      "Ġscand": 7332,
      "Ġscared": 7333,
      "Ġmissed": 7334,
      "society": 7335,
      "whenever": 7336,
      "Ġplacing": 7337,
      "Ġundertaker": 7338,
      "Ġblast": 7339,
      "Ġblush": 7340,
      "Ġblasted": 7341,
      "iousness": 7342,
      "Ġturns": 7343,
      "Ġconsol": 7344,
      "Ġlifeless": 7345,
      "Ġcontrol": 7346,
      "opening": 7347,
      "Ġwrit": 7348,
      "withstanding": 7349,
      "Ġmomentary": 7350,
      "super": 7351,
      "Ġbelieves": 7352,
      "retion": 7353,
      "Ġpleasures": 7354,
      "Ġkneeling": 7355,
      "Ġpreserve": 7356,
      "exist": 7357,
      "exam": 7358,
      "exact": 7359,
      "Ġattracted": 7360,
      "Ġattributed": 7361,
      "Ġpace": 7362,
      "chamber": 7363,
      "whatever": 7364,
      "Ġglorious": 7365,
      "Ġflushed": 7366,
      "Ġflung": 7367,
      "Ġflames": 7368,
      "Ġappar": 7369,
      "Ġappalling": 7370,
      "Ġwiped": 7371,
      "Ġmatri": 7372,
      "restrained": 7373,
      "Ġindebted": 7374,
      "licit": 7375,
      "ships": 7376,
      "Ġdizzy": 7377,
      "Ġdiaries": 7378,
      "Ġprote": 7379,
      "Ġlaunch": 7380,
      "violent": 7381,
      "Ġchest": 7382,
      "Ġcheck": 7383,
      "Ġcheris": 7384,
      "Ġguided": 7385,
      "Ġsincere": 7386,
      "Ġrefusal": 7387,
      "Ġgardiners": 7388,
      "anybody": 7389,
      "Ġwondering": 7390,
      "Ġcloak": 7391,
      "Ġrelating": 7392,
      "Ġ10": 7393,
      "Ġ11": 7394,
      "Ġtremend": 7395,
      "Ġpromising": 7396,
      "Ġhurrying": 7397,
      "cerity": 7398,
      "Ġtowns": 7399,
      "letion": 7400,
      "Ġinvite": 7401,
      "Ġbuko": 7402,
      "Ġaffections": 7403,
      "Ġdoubts": 7404,
      "Ġrealized": 7405,
      "disappoint": 7406,
      "disagreeable": 7407,
      "Ġcoloured": 7408,
      "urious": 7409,
      "cribed": 7410,
      "Ġoppressed": 7411,
      "Ġinquest": 7412,
      "formity": 7413,
      "Ġimaginary": 7414,
      "lucas": 7415,
      "Ġstudent": 7416,
      "condition": 7417,
      "changed": 7418,
      "safe": 7419,
      "Ġtrifle": 7420,
      "Ġshop": 7421,
      "Ġstopping": 7422,
      "courage": 7423,
      "bitter": 7424,
      "Ġmentioning": 7425,
      "Ġforest": 7426,
      "Ġapprobation": 7427,
      "Ġparce": 7428,
      "Ġparlour": 7429,
      "Ġsignal": 7430,
      "Ġrequire": 7431,
      "Ġobliv": 7432,
      "didn": 7433,
      "Ġcharacterist": 7434,
      "vina": 7435,
      "places": 7436,
      "horses": 7437,
      "Ġmemor": 7438,
      "Ġsadly": 7439,
      "Ġsadness": 7440,
      "Ġenjoying": 7441,
      "Ġcreaking": 7442,
      "Ġagreement": 7443,
      "Ġexperiences": 7444,
      "compan": 7445,
      "Ġartic": 7446,
      "Ġcurtains": 7447,
      "Ġpersuasion": 7448,
      "Ġdespairing": 7449,
      "ferred": 7450,
      "write": 7451,
      "wrote": 7452,
      "harker": 7453,
      "Ġfancied": 7454,
      "Ġfrighten": 7455,
      "mighty": 7456,
      "Ġ24": 7457,
      "thoughts": 7458,
      "Ġimprobable": 7459,
      "Ġpursuing": 7460,
      "Ġmerchant": 7461,
      "Ġburden": 7462,
      "Ġgraves": 7463,
      "Ġcapital": 7464,
      "Ġarranging": 7465,
      "Ġremoval": 7466,
      "Ġeaten": 7467,
      "Ġclimb": 7468,
      "Ġestim": 7469,
      "Ġlanguid": 7470,
      "Ġleaden": 7471,
      "Ġprotested": 7472,
      "humoured": 7473,
      "Ġaddresses": 7474,
      "Ġsharply": 7475,
      "Ġcentre": 7476,
      "Ġagonised": 7477,
      "Ġrepeatedly": 7478,
      "Ġpulling": 7479,
      "Ġboys": 7480,
      "Ġportra": 7481,
      "Ġsearching": 7482,
      "Ġavoided": 7483,
      "Ġhundreds": 7484,
      "Ġanimated": 7485,
      "holding": 7486,
      "Ġentreated": 7487,
      "saying": 7488,
      "bbing": 7489,
      "Ġvalued": 7490,
      "Ġvolume": 7491,
      "bloofer": 7492,
      "Ġneglected": 7493,
      "Ġsuspicions": 7494,
      "iciently": 7495,
      "Ġprinciple": 7496,
      "carriage": 7497,
      "uffled": 7498,
      "Ġwounded": 7499,
      "Ġnovelt": 7500,
      "Ġturkey": 7501,
      "Ġinjury": 7502,
      "Ġrapidity": 7503,
      "Ġloudly": 7504,
      "Ġattacked": 7505,
      "colour": 7506,
      "Ġwednesday": 7507,
      "Ġbanished": 7508,
      "Ġmotionless": 7509,
      "Ġarrangements": 7510,
      "Ġfalsehood": 7511,
      "sleeping": 7512,
      "Ġexcessive": 7513,
      "drawn": 7514,
      "green": 7515,
      "Ġpunishment": 7516,
      "Ġschemes": 7517,
      "approbation": 7518,
      "Ġselfishness": 7519,
      "surely": 7520,
      "Ġsolicitude": 7521,
      "Ġdepth": 7522,
      "Ġprovide": 7523,
      "confidence": 7524,
      "Ġseparate": 7525,
      "Ġmaterials": 7526,
      "drive": 7527,
      "Ġowed": 7528,
      "Ġowing": 7529,
      "Ġinnumerable": 7530,
      "Ġstrolled": 7531,
      "fallen": 7532,
      "Ġtaxi": 7533,
      "relations": 7534,
      "questions": 7535,
      "Ġfeverish": 7536,
      "Ġlegal": 7537,
      "Ġentertainment": 7538,
      "excite": 7539,
      "Ġguests": 7540,
      "animal": 7541,
      "Ġbottom": 7542,
      "churchyard": 7543,
      "Ġsoothed": 7544,
      "Ġsoothing": 7545,
      "Ġknock": 7546,
      "Ġvexed": 7547,
      "Ġelegance": 7548,
      "promise": 7549,
      "promised": 7550,
      "suspect": 7551,
      "Ġgrandeur": 7552,
      "Ġincredulous": 7553,
      "Ġaccomplish": 7554,
      "Ġavail": 7555,
      "Ġprisoner": 7556,
      "Ġamerica": 7557,
      "guarded": 7558,
      "creatures": 7559,
      "Ġdanube": 7560,
      "Ġconjecture": 7561,
      "Ġexhibited": 7562,
      "Ġprecipices": 7563,
      "Ġincidents": 7564,
      "pointed": 7565,
      "regarding": 7566,
      "philosop": 7567,
      "surprised": 7568,
      "Ġfulfilled": 7569,
      "Ġemerged": 7570,
      "Ġmanifestly": 7571,
      "Ġgoverness": 7572,
      "Ġcoastguard": 7573,
      "Ġbetrayed": 7574,
      "Ġcruelty": 7575,
      "large": 7576,
      "Ġwrapped": 7577,
      "Ġinspired": 7578,
      "Ġmiserably": 7579,
      "observed": 7580,
      "important": 7581,
      "importance": 7582,
      "Ġglaci": 7583,
      "Ġwonders": 7584,
      "Ġdistinctly": 7585,
      "Ġtypewriter": 7586,
      "dreams": 7587,
      "wishes": 7588,
      "Ġpillow": 7589,
      "Ġhaunted": 7590,
      "ulsive": 7591,
      "concern": 7592,
      "various": 7593,
      "Ġbidding": 7594,
      "Ġradiant": 7595,
      "Ġfrankly": 7596,
      "picture": 7597,
      "record": 7598,
      "ourish": 7599,
      "Ġextinguished": 7600,
      "Ġabruptly": 7601,
      "consequence": 7602,
      "Ġachieve": 7603,
      "Ġreluctant": 7604,
      "Ġabsorbed": 7605,
      "breakfast": 7606,
      "Ġcigarette": 7607,
      "curiosity": 7608,
      "Ġdisease": 7609,
      "Ġassembly": 7610,
      "Ġsplendid": 7611,
      "Ġfaculties": 7612,
      "extreme": 7613,
      "Ġhorribly": 7614,
      "Ġtitle": 7615,
      "Ġmingled": 7616,
      "Ġinvestig": 7617,
      "Ġnarrative": 7618,
      "Ġpanic": 7619,
      "rippa": 7620,
      "Ġabandoned": 7621,
      "extraordinary": 7622,
      "Ġconfirmation": 7623,
      "Ġdangers": 7624,
      "Ġhampstead": 7625,
      "otesque": 7626,
      "distinguished": 7627,
      "situation": 7628,
      "Ġbersicker": 7629,
      "Ġdusk": 7630,
      "Ġlantern": 7631,
      "Ġultim": 7632,
      "Ġchauffeur": 7633,
      "Ġelectric": 7634,
      "laughed": 7635,
      "Ġbukovina": 7636,
      "24": 7637,
      "_--": 7638,
      "aur": 7639,
      "apped": 7640,
      "big": 7641,
      "bright": 7642,
      "blow": 7643,
      "cen": 7644,
      "cut": 7645,
      "coff": 7646,
      "cency": 7647,
      "dan": 7648,
      "dut": 7649,
      "dish": 7650,
      "eas": 7651,
      "eld": 7652,
      "equ": 7653,
      "eight": 7654,
      "east": 7655,
      "eves": 7656,
      "eff": 7657,
      "fair": 7658,
      "fresh": 7659,
      "gene": 7660,
      "grim": 7661,
      "hours": 7662,
      "jack": 7663,
      "kiss": 7664,
      "kitty": 7665,
      "main": 7666,
      "mag": 7667,
      "mass": 7668,
      "mical": 7669,
      "oy": 7670,
      "oon": 7671,
      "port": 7672,
      "pun": 7673,
      "ples": 7674,
      "pring": 7675,
      "run": 7676,
      "rity": 7677,
      "sim": 7678,
      "sens": 7679,
      "tre": 7680,
      "try": 7681,
      "trave": 7682,
      "uk": 7683,
      "vation": 7684,
      "vous": 7685,
      "wart": 7686,
      "Ġtu": 7687,
      "Ġtables": 7688,
      "heim": 7689,
      "health": 7690,
      "Ġaught": 7691,
      "inj": 7692,
      "intend": 7693,
      "intended": 7694,
      "information": 7695,
      "Ġwats": 7696,
      "Ġsly": 7697,
      "Ġsout": 7698,
      "Ġserved": 7699,
      "Ġscold": 7700,
      "Ġsources": 7701,
      "Ġshattered": 7702,
      "Ġtheory": 7703,
      "reality": 7704,
      "renew": 7705,
      "Ġobey": 7706,
      "Ġmu": 7707,
      "Ġmental": 7708,
      "ndle": 7709,
      "nders": 7710,
      "hal": 7711,
      "haust": 7712,
      "ouch": 7713,
      "Ġbul": 7714,
      "Ġbud": 7715,
      "Ġbark": 7716,
      "ede": 7717,
      "eded": 7718,
      "encies": 7719,
      "Ġfol": 7720,
      "Ġflight": 7721,
      "Ġfits": 7722,
      "Ġfired": 7723,
      "Ġfund": 7724,
      "Ġcoo": 7725,
      "Ġcens": 7726,
      "Ġcards": 7727,
      "hills": 7728,
      "Ġdign": 7729,
      "Ġdates": 7730,
      "orously": 7731,
      "oratory": 7732,
      "lla": 7733,
      "llet": 7734,
      "llars": 7735,
      "stor": 7736,
      "stained": 7737,
      "itled": 7738,
      "itute": 7739,
      "Ġlin": 7740,
      "Ġling": 7741,
      "Ġlink": 7742,
      "Ġliter": 7743,
      "aration": 7744,
      "arrow": 7745,
      "Ġinev": 7746,
      "Ġinjustice": 7747,
      "Ġninete": 7748,
      "Ġnumerous": 7749,
      "ann": 7750,
      "Ġpist": 7751,
      "Ġpage": 7752,
      "Ġpig": 7753,
      "Ġpang": 7754,
      "Ġpaint": 7755,
      "Ġpressing": 7756,
      "Ġpicked": 7757,
      "Ġhaught": 7758,
      "Ġhazard": 7759,
      "especially": 7760,
      "escaped": 7761,
      "Ġbending": 7762,
      "Ġbeads": 7763,
      "hate": 7764,
      "otent": 7765,
      "Ġgn": 7766,
      "Ġgri": 7767,
      "Ġgift": 7768,
      "Ġyach": 7769,
      "Ġyards": 7770,
      "sea": 7771,
      "send": 7772,
      "seat": 7773,
      "seven": 7774,
      "ghorn": 7775,
      "Ġital": 7776,
      "Ġitaly": 7777,
      "Ġrela": 7778,
      "Ġrevived": 7779,
      "Ġassembled": 7780,
      "rive": 7781,
      "idance": 7782,
      "isable": 7783,
      "isible": 7784,
      "Ġnotwithstanding": 7785,
      "Ġmeal": 7786,
      "Ġmechan": 7787,
      "urous": 7788,
      "urable": 7789,
      "urity": 7790,
      "Ġhom": 7791,
      "Ġthri": 7792,
      "Ġsheer": 7793,
      "living": 7794,
      "licted": 7795,
      "Ġanne": 7796,
      "Ġissue": 7797,
      "Ġsting": 7798,
      "Ġstable": 7799,
      "Ġseal": 7800,
      "Ġsam": 7801,
      "Ġsailed": 7802,
      "aborate": 7803,
      "Ġdece": 7804,
      "Ġdeference": 7805,
      "Ġdeformity": 7806,
      "ckoned": 7807,
      "Ġliv": 7808,
      "hised": 7809,
      "Ġkitten": 7810,
      "thro": 7811,
      "threat": 7812,
      "throw": 7813,
      "george": 7814,
      "quil": 7815,
      "raction": 7816,
      "raised": 7817,
      "Ġdoings": 7818,
      "Ġconstru": 7819,
      "Ġconception": 7820,
      "lfare": 7821,
      "Ġfeature": 7822,
      "Ġjaw": 7823,
      "fere": 7824,
      "Ġweren": 7825,
      "inding": 7826,
      "ante": 7827,
      "mps": 7828,
      "Ġmansion": 7829,
      "Ġalert": 7830,
      "Ġshrie": 7831,
      "Ġshrill": 7832,
      "welt": 7833,
      "Ġafore": 7834,
      "Ġgolf": 7835,
      "Ġagrippa": 7836,
      "olen": 7837,
      "Ġrash": 7838,
      "Ġunhapp": 7839,
      "Ġunnecessary": 7840,
      "Ġunworth": 7841,
      "Ġunlocked": 7842,
      "Ġshapes": 7843,
      "Ġworried": 7844,
      "Ġloath": 7845,
      "Ġlovers": 7846,
      "Ġprodu": 7847,
      "Ġquivered": 7848,
      "Ġtheirs": 7849,
      "Ġroll": 7850,
      "Ġroof": 7851,
      "Ġrolling": 7852,
      "agged": 7853,
      "Ġcoinc": 7854,
      "lover": 7855,
      "beat": 7856,
      "Ġteasing": 7857,
      "Ġtrains": 7858,
      "else": 7859,
      "Ġener": 7860,
      "neither": 7861,
      "nearly": 7862,
      "former": 7863,
      "Ġado": 7864,
      "Ġadjust": 7865,
      "Ġadler": 7866,
      "Ġdiscer": 7867,
      "Ġmadmen": 7868,
      "acknowled": 7869,
      "Ġlonging": 7870,
      "âĢĶâĢľ": 7871,
      "Ġhoping": 7872,
      "Ġpervers": 7873,
      "Ġpermitted": 7874,
      "Ġdescent": 7875,
      "Ġdesolation": 7876,
      "wolf": 7877,
      "Ġrivers": 7878,
      "Ġbrit": 7879,
      "Ġbrains": 7880,
      "achment": 7881,
      "Ġobliter": 7882,
      "Ġdearly": 7883,
      "Ġhappens": 7884,
      "Ġbackward": 7885,
      "confess": 7886,
      "conside": 7887,
      "convinced": 7888,
      "Ġjustify": 7889,
      "move": 7890,
      "ulled": 7891,
      "Ġimprudence": 7892,
      "Ġgrotesque": 7893,
      "Ġboots": 7894,
      "Ġbonds": 7895,
      "rank": 7896,
      "llowed": 7897,
      "Ġlux": 7898,
      "Ġpasses": 7899,
      "Ġplacid": 7900,
      "aneously": 7901,
      "Ġclergyman": 7902,
      "Ġrepaired": 7903,
      "Ġmarble": 7904,
      "Ġcountenances": 7905,
      "Ġblanc": 7906,
      "Ġpeoples": 7907,
      "Ġfold": 7908,
      "Ġfolds": 7909,
      "Ġmoritz": 7910,
      "Ġends": 7911,
      "ints": 7912,
      "intention": 7913,
      "Ġdoorway": 7914,
      "acles": 7915,
      "acrity": 7916,
      "Ġfounded": 7917,
      "Ġwrought": 7918,
      "Ġcarraway": 7919,
      "Ġlasted": 7920,
      "Ġexplo": 7921,
      "Ġexposed": 7922,
      "Ġexpense": 7923,
      "Ġaccus": 7924,
      "Ġaccum": 7925,
      "superior": 7926,
      "Ġretire": 7927,
      "Ġremote": 7928,
      "Ġpleasantly": 7929,
      "tenegro": 7930,
      "exceed": 7931,
      "Ġraw": 7932,
      "Ġresting": 7933,
      "comb": 7934,
      "command": 7935,
      "composed": 7936,
      "Ġattitude": 7937,
      "Ġchilled": 7938,
      "cluded": 7939,
      "Ġimitate": 7940,
      "Ġsupposition": 7941,
      "Ġpauses": 7942,
      "Ġwax": 7943,
      "Ġjoke": 7944,
      "Ġappeal": 7945,
      "Ġdares": 7946,
      "Ġplenty": 7947,
      "Ġadding": 7948,
      "Ġflirt": 7949,
      "Ġflutter": 7950,
      "Ġdistressing": 7951,
      "Ġdistrust": 7952,
      "Ġwives": 7953,
      "Ġsilk": 7954,
      "Ġlap": 7955,
      "Ġlapping": 7956,
      "viv": 7957,
      "mingly": 7958,
      "Ġswell": 7959,
      "Ġsetting": 7960,
      "Ġsubtle": 7961,
      "doing": 7962,
      "Ġmonstr": 7963,
      "Ġengrossed": 7964,
      "Ġrefusing": 7965,
      "untary": 7966,
      "impat": 7967,
      "Ġvisiting": 7968,
      "Ġexpectations": 7969,
      "Ġadvisable": 7970,
      "Ġdragged": 7971,
      "afford": 7972,
      "Ġchink": 7973,
      "minute": 7974,
      "Ġlessons": 7975,
      "Ġassisted": 7976,
      "Ġbreeding": 7977,
      "ilet": 7978,
      "Ġsurprising": 7979,
      "Ġintercourse": 7980,
      "Ġinterpret": 7981,
      "lesome": 7982,
      "Ġ13": 7983,
      "Ġ15": 7984,
      "Ġ16": 7985,
      "Ġtread": 7986,
      "Ġspiritual": 7987,
      "ultation": 7988,
      "Ġpromises": 7989,
      "Ġsteel": 7990,
      "leton": 7991,
      "Ġactivity": 7992,
      "Ġcorn": 7993,
      "Ġcorps": 7994,
      "Ġcorrupt": 7995,
      "looks": 7996,
      "Ġdecis": 7997,
      "Ġinvent": 7998,
      "Ġinvisible": 7999,
      "Ġbundle": 8000,
      "Ġappearing": 8001,
      "Ġinsolent": 8002,
      "Ġrecovery": 8003,
      "Ġrecovering": 8004,
      "Ġwarmed": 8005,
      "Ġfortitude": 8006,
      "Ġeluded": 8007,
      "ggage": 8008,
      "prob": 8009,
      "engers": 8010,
      "Ġobjected": 8011,
      "Ġstudying": 8012,
      "Ġinflict": 8013,
      "Ġswore": 8014,
      "Ġfalls": 8015,
      "Ġclearly": 8016,
      "chestra": 8017,
      "Ġtrifling": 8018,
      "object": 8019,
      "Ġfourth": 8020,
      "grad": 8021,
      "Ġtramp": 8022,
      "Ġxl": 8023,
      "setting": 8024,
      "Ġconcerns": 8025,
      "longer": 8026,
      "prejud": 8027,
      "Ġsumm": 8028,
      "Ġserve": 8029,
      "Ġelsewhere": 8030,
      "Ġpurposes": 8031,
      "consul": 8032,
      "Ġsurvive": 8033,
      "Ġlordship": 8034,
      "post": 8035,
      "Ġobliging": 8036,
      "Ġwaiter": 8037,
      "oneliness": 8038,
      "control": 8039,
      "Ġsingular": 8040,
      "Ġdevotion": 8041,
      "Ġconsiderably": 8042,
      "Ġpeaceful": 8043,
      "Ġcottages": 8044,
      "Ġvaried": 8045,
      "native": 8046,
      "naturally": 8047,
      "Ġrecalled": 8048,
      "Ġexperiment": 8049,
      "ortunities": 8050,
      "compassion": 8051,
      "Ġcries": 8052,
      "Ġfairly": 8053,
      "Ġincluding": 8054,
      "Ġbehaved": 8055,
      "Ġrepeat": 8056,
      "Ġweaker": 8057,
      "Ġweakened": 8058,
      "Ġblessings": 8059,
      "Ġgentlemanlike": 8060,
      "Ġfrontier": 8061,
      "Ġthankful": 8062,
      "Ġdisposal": 8063,
      "Ġoccurrences": 8064,
      "Ġshutters": 8065,
      "Ġsensitive": 8066,
      "repres": 8067,
      "report": 8068,
      "replied": 8069,
      "Ġsharper": 8070,
      "Ġmerit": 8071,
      "lipspring": 8072,
      "fortunately": 8073,
      "train": 8074,
      "Ġhairs": 8075,
      "Ġgardener": 8076,
      "waiting": 8077,
      "Ġfloating": 8078,
      "Ġcrown": 8079,
      "Ġcatching": 8080,
      "Ġballs": 8081,
      "Ġclient": 8082,
      "strained": 8083,
      "ĠâĢ¦âĢĿ": 8084,
      "Ġconclude": 8085,
      "Ġconclusions": 8086,
      "rers": 8087,
      "Ġleader": 8088,
      "Ġleading": 8089,
      "Ġconcealment": 8090,
      "Ġcracked": 8091,
      "regular": 8092,
      "Ġirre": 8093,
      "atically": 8094,
      "Ġmagaz": 8095,
      "judge": 8096,
      "presence": 8097,
      "presently": 8098,
      "vision": 8099,
      "visions": 8100,
      "Ġanimals": 8101,
      "ology": 8102,
      "Ġfailure": 8103,
      "intell": 8104,
      "Ġsafely": 8105,
      "Ġdesigns": 8106,
      "Ġdesigned": 8107,
      "Ġmortification": 8108,
      "Ġmedium": 8109,
      "passion": 8110,
      "Ġvoluntarily": 8111,
      "Ġgrowth": 8112,
      "Ġhesitate": 8113,
      "belief": 8114,
      "maid": 8115,
      "Ġspecimen": 8116,
      "Ġaccidentally": 8117,
      "Ġprincipally": 8118,
      "lasting": 8119,
      "Ġsatisfactory": 8120,
      "Ġcasually": 8121,
      "Ġexertions": 8122,
      "Ġdeserts": 8123,
      "Ġcommanded": 8124,
      "support": 8125,
      "Ġbelonging": 8126,
      "Ġdefence": 8127,
      "Ġproposed": 8128,
      "colonel": 8129,
      "Ġmalignity": 8130,
      "Ġencourage": 8131,
      "Ġencouragement": 8132,
      "corner": 8133,
      "Ġpockets": 8134,
      "minded": 8135,
      "Ġacknowledge": 8136,
      "Ġyielded": 8137,
      "Ġridicul": 8138,
      "Ġdiscoveries": 8139,
      "dracula": 8140,
      "greatest": 8141,
      "Ġtelegraph": 8142,
      "calm": 8143,
      "Ġwisest": 8144,
      "ligence": 8145,
      "Ġdepressed": 8146,
      "Ġseparation": 8147,
      "Ġowl": 8148,
      "Ġalarming": 8149,
      "Ġmuttered": 8150,
      "Ġrenewal": 8151,
      "paper": 8152,
      "Ġmirth": 8153,
      "Ġmirror": 8154,
      "Ġbloomin": 8155,
      "Ġbenefic": 8156,
      "solemn": 8157,
      "excuse": 8158,
      "Ġgracechurch": 8159,
      "Ġsternly": 8160,
      "Ġsoothe": 8161,
      "Ġheightened": 8162,
      "Ġesteemed": 8163,
      "Ġcongratulate": 8164,
      "Ġbalancing": 8165,
      "Ġlearning": 8166,
      "Ġbecomes": 8167,
      "Ġinconvenience": 8168,
      "Ġreverent": 8169,
      "Ġthreats": 8170,
      "Ġconjectured": 8171,
      "Ġpreceded": 8172,
      "Ġearliest": 8173,
      "Ġcondemn": 8174,
      "Ġmourning": 8175,
      "Ġmanifest": 8176,
      "Ġodious": 8177,
      "beauty": 8178,
      "protested": 8179,
      "fleet": 8180,
      "triump": 8181,
      "Ġtalent": 8182,
      "Ġbolts": 8183,
      "experience": 8184,
      "Ġadditional": 8185,
      "Ġrecognised": 8186,
      "Ġslovak": 8187,
      "Ġsanity": 8188,
      "Ġgallery": 8189,
      "Ġhospitality": 8190,
      "Ġconsulted": 8191,
      "Ġrapture": 8192,
      "Ġwondrous": 8193,
      "Ġcondescension": 8194,
      "Ġmajestic": 8195,
      "painful": 8196,
      "Ġgathering": 8197,
      "Ġperpetually": 8198,
      "Ġravings": 8199,
      "Ġcorrespondent": 8200,
      "Ġcorrespondence": 8201,
      "Ġshirts": 8202,
      "Ġmagnificent": 8203,
      "learned": 8204,
      "Ġhonest": 8205,
      "admiration": 8206,
      "Ġrusty": 8207,
      "Ġimpertinent": 8208,
      "Ġimpertinence": 8209,
      "Ġsteadily": 8210,
      "discover": 8211,
      "whisper": 8212,
      "Ġmoods": 8213,
      "Ġrejected": 8214,
      "Ġvacant": 8215,
      "Ġsparkled": 8216,
      "Ġclasped": 8217,
      "Ġnewspaper": 8218,
      "Ġobligation": 8219,
      "sisters": 8220,
      "summer": 8221,
      "Ġweapons": 8222,
      "ckleburg": 8223,
      "Ġunfolded": 8224,
      "Ġprolonged": 8225,
      "behaviour": 8226,
      "Ġobviously": 8227,
      "cheerful": 8228,
      "prepared": 8229,
      "Ġhenceforth": 8230,
      "Ġcockt": 8231,
      "Ġreplaced": 8232,
      "Ġindividual": 8233,
      "interrupted": 8234,
      "Ġsymptoms": 8235,
      "Ġembraced": 8236,
      "Ġautomob": 8237,
      "Ġeloquence": 8238,
      "difficulty": 8239,
      "frequently": 8240,
      "giving": 8241,
      "Ġbaffled": 8242,
      "Ġcounsel": 8243,
      "anxious": 8244,
      "Ġcanvas": 8245,
      "Ġtempest": 8246,
      "Ġdisguise": 8247,
      "officers": 8248,
      "waistcoat": 8249,
      "Ġsuperstition": 8250,
      "satisfaction": 8251,
      "Ġdiabolical": 8252,
      "elev": 8253,
      "garden": 8254,
      "heavy": 8255,
      "Ġbeaufort": 8256,
      "peculiar": 8257,
      "Ġexquisite": 8258,
      "Ġrhine": 8259,
      "Ġrussian": 8260,
      "Ġadversary": 8261,
      "opinion": 8262,
      "prietor": 8263,
      "compliment": 8264,
      "Ġirresistible": 8265,
      "Ġbrilliant": 8266,
      "Ġeligible": 8267,
      "Ġexcellence": 8268,
      "exactly": 8269,
      "Ġtremendous": 8270,
      "Ġoblivion": 8271,
      "coffin": 8272,
      "Ġwatson": 8273,
      "Ġdignified": 8274,
      "Ġunhappily": 8275,
      "considered": 8276,
      "Ġmonstrous": 8277,
      "lipspringer": 8278,
      ",_": 8279,
      "11": 8280,
      "20": 8281,
      "26": 8282,
      "28": 8283,
      "_)": 8284,
      "ald": 8285,
      "aid": 8286,
      "acted": 8287,
      "ban": 8288,
      "bag": 8289,
      "cill": 8290,
      "cently": 8291,
      "dare": 8292,
      "eager": 8293,
      "eches": 8294,
      "epest": 8295,
      "eenth": 8296,
      "fare": 8297,
      "fright": 8298,
      "fiend": 8299,
      "faces": 8300,
      "gan": 8301,
      "gid": 8302,
      "gust": 8303,
      "gings": 8304,
      "glot": 8305,
      "gloom": 8306,
      "gency": 8307,
      "ib": 8308,
      "ike": 8309,
      "iature": 8310,
      "lou": 8311,
      "len": 8312,
      "lore": 8313,
      "mat": 8314,
      "mur": 8315,
      "mary": 8316,
      "mosp": 8317,
      "nin": 8318,
      "nant": 8319,
      "oc": 8320,
      "pin": 8321,
      "por": 8322,
      "pent": 8323,
      "pal": 8324,
      "panied": 8325,
      "rut": 8326,
      "raint": 8327,
      "sit": 8328,
      "sitting": 8329,
      "sche": 8330,
      "south": 8331,
      "science": 8332,
      "sorry": 8333,
      "tes": 8334,
      "ties": 8335,
      "tby": 8336,
      "task": 8337,
      "uced": 8338,
      "va": 8339,
      "vast": 8340,
      "vampire": 8341,
      "won": 8342,
      "wal": 8343,
      "wake": 8344,
      "walked": 8345,
      "wretched": 8346,
      "ys": 8347,
      "Ġtate": 8348,
      "hearing": 8349,
      "Ġay": 8350,
      "Ġaris": 8351,
      "inv": 8352,
      "inal": 8353,
      "inished": 8354,
      "instead": 8355,
      "Ġwits": 8356,
      "Ġsno": 8357,
      "Ġsang": 8358,
      "Ġscope": 8359,
      "reet": 8360,
      "reth": 8361,
      "reci": 8362,
      "Ġomn": 8363,
      "Ġmould": 8364,
      "Ġmuffled": 8365,
      "Ġirene": 8366,
      "hall": 8367,
      "hable": 8368,
      "haired": 8369,
      "hallowed": 8370,
      "ouched": 8371,
      "Ġbis": 8372,
      "Ġbust": 8373,
      "Ġbats": 8374,
      "Ġborrow": 8375,
      "Ġbild": 8376,
      "Ġbunch": 8377,
      "Ġbiloxi": 8378,
      "enet": 8379,
      "enant": 8380,
      "enger": 8381,
      "Ġtos": 8382,
      "Ġtools": 8383,
      "Ġfres": 8384,
      "Ġfaster": 8385,
      "Ġfetch": 8386,
      "Ġcris": 8387,
      "ongest": 8388,
      "Ġdil": 8389,
      "Ġdwelt": 8390,
      "Ġheed": 8391,
      "oring": 8392,
      "orus": 8393,
      "llies": 8394,
      "itia": 8395,
      "itory": 8396,
      "ittering": 8397,
      "Ġloo": 8398,
      "Ġlust": 8399,
      "Ġlairs": 8400,
      "ari": 8401,
      "argu": 8402,
      "arian": 8403,
      "Ġinco": 8404,
      "Ġindis": 8405,
      "Ġinhabited": 8406,
      "Ġnav": 8407,
      "anes": 8408,
      "anse": 8409,
      "anche": 8410,
      "ata": 8411,
      "atre": 8412,
      "ators": 8413,
      "atives": 8414,
      "Ġpom": 8415,
      "Ġpad": 8416,
      "Ġpine": 8417,
      "Ġpert": 8418,
      "Ġpages": 8419,
      "asleep": 8420,
      "Ġbend": 8421,
      "Ġbelt": 8422,
      "Ġbells": 8423,
      "othe": 8424,
      "oting": 8425,
      "Ġecon": 8426,
      "Ġeckleburg": 8427,
      "Ġgust": 8428,
      "Ġgorge": 8429,
      "Ġgigantic": 8430,
      "lection": 8431,
      "leche": 8432,
      "Ġhillingham": 8433,
      "lyglot": 8434,
      "etry": 8435,
      "entire": 8436,
      "ential": 8437,
      "Ġweigh": 8438,
      "Ġwearing": 8439,
      "Ġwestern": 8440,
      "Ġwelfare": 8441,
      "Ġreass": 8442,
      "Ġreleas": 8443,
      "Ġrecess": 8444,
      "rich": 8445,
      "rial": 8446,
      "rious": 8447,
      "idal": 8448,
      "Ġforty": 8449,
      "Ġmend": 8450,
      "Ġmeat": 8451,
      "ĠâĢĿ--": 8452,
      "ura": 8453,
      "Ġhind": 8454,
      "Ġhood": 8455,
      "adise": 8456,
      "adition": 8457,
      "address": 8458,
      "Ġthread": 8459,
      "Ġthurs": 8460,
      "cting": 8461,
      "irons": 8462,
      "rog": 8463,
      "Ġatone": 8464,
      "lier": 8465,
      "lius": 8466,
      "listened": 8467,
      "Ġstout": 8468,
      "Ġstick": 8469,
      "Ġstare": 8470,
      "Ġstren": 8471,
      "Ġstates": 8472,
      "Ġsealed": 8473,
      "Ġserene": 8474,
      "Ġsober": 8475,
      "Ġwhiter": 8476,
      "Ġwhips": 8477,
      "Ġdevour": 8478,
      "Ġdejection": 8479,
      "anda": 8480,
      "andum": 8481,
      "theless": 8482,
      "Ġliable": 8483,
      "Ġklipspringer": 8484,
      "thy": 8485,
      "gered": 8486,
      "ractions": 8487,
      "Ġconverse": 8488,
      "Ġconstantly": 8489,
      "ppers": 8490,
      "Ġfeed": 8491,
      "hosp": 8492,
      "Ġjun": 8493,
      "feet": 8494,
      "fears": 8495,
      "Ġvines": 8496,
      "Ġvital": 8497,
      "Ġvault": 8498,
      "Ġneat": 8499,
      "ilhel": 8500,
      "âĢĿ;": 8501,
      "reserved": 8502,
      "rescent": 8503,
      "reserve": 8504,
      "ulses": 8505,
      "ica": 8506,
      "icule": 8507,
      "icidal": 8508,
      "Ġnoisy": 8509,
      "antel": 8510,
      "tem": 8511,
      "tender": 8512,
      "asting": 8513,
      "usive": 8514,
      "Ġmanaged": 8515,
      "ousers": 8516,
      "Ġalacrity": 8517,
      "atefully": 8518,
      "weather": 8519,
      "deal": 8520,
      "decl": 8521,
      "dearest": 8522,
      "delay": 8523,
      "devil": 8524,
      "destruction": 8525,
      "amb": 8526,
      "ams": 8527,
      "ortal": 8528,
      "outside": 8529,
      "unhappy": 8530,
      "unexpected": 8531,
      "unwilling": 8532,
      "Ġcares": 8533,
      "Ġcapri": 8534,
      "Ġcaleche": 8535,
      "Ġ_,": 8536,
      "Ġcomin": 8537,
      "Ġrul": 8538,
      "Ġrout": 8539,
      "Ġabilities": 8540,
      "Ġuni": 8541,
      "Ġunutter": 8542,
      "Ġunfeeling": 8543,
      "Ġunsuccess": 8544,
      "Ġunaffected": 8545,
      "Ġunselfish": 8546,
      "Ġuncomfortable": 8547,
      "Ġunfortunately": 8548,
      "laid": 8549,
      "lake": 8550,
      "Ġleghorn": 8551,
      "Ġties": 8552,
      "Ġoutra": 8553,
      "Ġloc": 8554,
      "Ġlog": 8555,
      "Ġpropriety": 8556,
      "Ġprodig": 8557,
      "Ġargue": 8558,
      "Ġroar": 8559,
      "Ġrode": 8560,
      "Ġroared": 8561,
      "agues": 8562,
      "Ġcoarse": 8563,
      "inking": 8564,
      "Ġoverp": 8565,
      "Ġoverspread": 8566,
      "Ġtru": 8567,
      "Ġenumer": 8568,
      "resses": 8569,
      "offe": 8570,
      "nelius": 8571,
      "forms": 8572,
      "mbles": 8573,
      "aud": 8574,
      "Ġada": 8575,
      "Ġador": 8576,
      "Ġadvert": 8577,
      "Ġmislead": 8578,
      "Ġdismay": 8579,
      "Ġdishonour": 8580,
      "Ġdissol": 8581,
      "Ġdisliked": 8582,
      "igning": 8583,
      "Ġpoll": 8584,
      "notice": 8585,
      "coach": 8586,
      "Ġowners": 8587,
      "imming": 8588,
      "Ġhole": 8589,
      "Ġperceptible": 8590,
      "uming": 8591,
      "Ġhelm": 8592,
      "perfectly": 8593,
      "Ġgoodbye": 8594,
      "Ġharrowing": 8595,
      "wondered": 8596,
      "Ġcompletion": 8597,
      "contempt": 8598,
      "constant": 8599,
      "mond": 8600,
      "Ġentailed": 8601,
      "Ġentitled": 8602,
      "Ġoffence": 8603,
      "Ġimpress": 8604,
      "Ġimprudent": 8605,
      "Ġimplored": 8606,
      "Ġimplore": 8607,
      "Ġreserve": 8608,
      "Ġresource": 8609,
      "Ġscore": 8610,
      "Ġscrew": 8611,
      "Ġluggage": 8612,
      "Ġmint": 8613,
      "Ġminut": 8614,
      "soever": 8615,
      "Ġclut": 8616,
      "Ġclues": 8617,
      "Ġclerk": 8618,
      "Ġhousehold": 8619,
      "Ġmarve": 8620,
      "Ġcounty": 8621,
      "Ġundergone": 8622,
      "Ġeverlasting": 8623,
      "Ġblushed": 8624,
      "sized": 8625,
      "Ġfoam": 8626,
      "acing": 8627,
      "acher": 8628,
      "Ġconsisted": 8629,
      "wasn": 8630,
      "Ġwrung": 8631,
      "Ġcarpathians": 8632,
      "shel": 8633,
      "Ġexpose": 8634,
      "Ġexposing": 8635,
      "Ġmomentarily": 8636,
      "suggest": 8637,
      "succeed": 8638,
      "Ġsmart": 8639,
      "teness": 8640,
      "Ġhearty": 8641,
      "comes": 8642,
      "compre": 8643,
      "compla": 8644,
      "mson": 8645,
      "Ġcalls": 8646,
      "whitby": 8647,
      "Ġimage": 8648,
      "Ġsuppress": 8649,
      "Ġjoining": 8650,
      "Ġflowed": 8651,
      "avail": 8652,
      "angled": 8653,
      "Ġcollap": 8654,
      "Ġwilf": 8655,
      "Ġlightly": 8656,
      "Ġlightning": 8657,
      "rested": 8658,
      "Ġindependence": 8659,
      "Ġfearing": 8660,
      "Ġchanges": 8661,
      "Ġdipped": 8662,
      "Ġdiligence": 8663,
      "Ġheads": 8664,
      "monster": 8665,
      "Ġlacon": 8666,
      "Ġharder": 8667,
      "spers": 8668,
      "Ġswelling": 8669,
      "Ġchemist": 8670,
      "Ġchemical": 8671,
      "Ġsubdu": 8672,
      "posure": 8673,
      "possibility": 8674,
      "Ġdrowned": 8675,
      "Ġguv": 8676,
      "Ġguidance": 8677,
      "aution": 8678,
      "author": 8679,
      "doctor": 8680,
      "Ġmontenegro": 8681,
      "Ġprofessions": 8682,
      "Ġrefer": 8683,
      "Ġexclaim": 8684,
      "Ġcareer": 8685,
      "Ġcarelessness": 8686,
      "shud": 8687,
      "Ġintegr": 8688,
      "impro": 8689,
      "xton": 8690,
      "Ġexpecting": 8691,
      "Ġarrives": 8692,
      "Ġvile": 8693,
      "Ġdrawer": 8694,
      "Ġsidewalk": 8695,
      "faith": 8696,
      "faced": 8697,
      "factor": 8698,
      "Ġchooses": 8699,
      "Ġillum": 8700,
      "ducing": 8701,
      "Ġcharms": 8702,
      "Ġcharles": 8703,
      "Ġdoubting": 8704,
      "anywhere": 8705,
      "hysi": 8706,
      "Ġbread": 8707,
      "Ġdrifting": 8708,
      "Ġwonderfully": 8709,
      "Ġinterfere": 8710,
      "Ġrelates": 8711,
      "Ġrelatives": 8712,
      "Ġ14": 8713,
      "Ġconfine": 8714,
      "ultaneously": 8715,
      "temper": 8716,
      "bringing": 8717,
      "Ġneeds": 8718,
      "Ġhurled": 8719,
      "Ġsteward": 8720,
      "Ġstepping": 8721,
      "Ġpainted": 8722,
      "Ġcornelius": 8723,
      "Ġbloody": 8724,
      "Ġdecision": 8725,
      "somewhat": 8726,
      "Ġbuff": 8727,
      "Ġbuzz": 8728,
      "Ġreasoning": 8729,
      "Ġreasonably": 8730,
      "Ġappearances": 8731,
      "gracious": 8732,
      "Ġcolours": 8733,
      "Ġcoloss": 8734,
      "Ġprice": 8735,
      "guess": 8736,
      "Ġshivered": 8737,
      "Ġshifting": 8738,
      "seemingly": 8739,
      "Ġopposed": 8740,
      "Ġoppressive": 8741,
      "Ġopportunities": 8742,
      "Ġelaborate": 8743,
      "Ġclosest": 8744,
      "ggard": 8745,
      "Ġfinn": 8746,
      "Ġsufficiently": 8747,
      "conduct": 8748,
      "Ġinfer": 8749,
      "Ġswung": 8750,
      "Ġswales": 8751,
      "Ġswallowed": 8752,
      "Ġblazed": 8753,
      "Ġblazing": 8754,
      "Ġbrothers": 8755,
      "Ġdespise": 8756,
      "Ġdespised": 8757,
      "Ġtries": 8758,
      "Ġescap": 8759,
      "Ġservices": 8760,
      "Ġeasier": 8761,
      "grown": 8762,
      "Ġladen": 8763,
      "Ġgladly": 8764,
      "ensive": 8765,
      "Ġdreadfully": 8766,
      "Ġtrusting": 8767,
      "Ġaccounts": 8768,
      "Ġsights": 8769,
      "Ġrespected": 8770,
      "event": 8771,
      "Ġsyllable": 8772,
      "Ġsimplicity": 8773,
      "Ġscarlet": 8774,
      "Ġbreathe": 8775,
      "Ġbreathed": 8776,
      "azz": 8777,
      "azed": 8778,
      "Ġformidable": 8779,
      "Ġcalmed": 8780,
      "Ġfireplace": 8781,
      "Ġapprove": 8782,
      "Ġapproved": 8783,
      "attached": 8784,
      "attachment": 8785,
      "Ġmounted": 8786,
      "reading": 8787,
      "Ġeleven": 8788,
      "ubl": 8789,
      "understood": 8790,
      "Ġaboard": 8791,
      "Ġchoked": 8792,
      "Ġsolely": 8793,
      "contented": 8794,
      "Ġdestroying": 8795,
      "horrible": 8796,
      "Ġremainder": 8797,
      "Ġsettling": 8798,
      "shoulder": 8799,
      "Ġwooden": 8800,
      "remembered": 8801,
      "Ġcastles": 8802,
      "Ġpurposely": 8803,
      "Ġcreak": 8804,
      "camp": 8805,
      "Ġgrieve": 8806,
      "ifications": 8807,
      "ilise": 8808,
      "compassed": 8809,
      "Ġneighbouring": 8810,
      "Ġarts": 8811,
      "Ġcrimson": 8812,
      "Ġclouded": 8813,
      "Ġsends": 8814,
      "Ġmaps": 8815,
      "Ġsoftness": 8816,
      "accur": 8817,
      "writing": 8818,
      "harbour": 8819,
      "Ġconceited": 8820,
      "Ġdispositions": 8821,
      "Ġjudged": 8822,
      "Ġgratifying": 8823,
      "Ġshutting": 8824,
      "Ġblinded": 8825,
      "charm": 8826,
      "charming": 8827,
      "Ġoccupy": 8828,
      "Ġpatients": 8829,
      "Ġburnt": 8830,
      "Ġgravity": 8831,
      "Ġcapacity": 8832,
      "trust": 8833,
      "Ġsickness": 8834,
      "thrown": 8835,
      "letters": 8836,
      "remain": 8837,
      "remained": 8838,
      "remark": 8839,
      "remains": 8840,
      "Ġsorrows": 8841,
      "Ġcrit": 8842,
      "Ġcrushed": 8843,
      "Ġcrush": 8844,
      "Ġcutting": 8845,
      "chooner": 8846,
      "Ġshocking": 8847,
      "Ġlaboratory": 8848,
      "Ġlanguages": 8849,
      "Ġstriving": 8850,
      "Ġstriking": 8851,
      "Ġdusty": 8852,
      "Ġdisclose": 8853,
      "Ġdiscretion": 8854,
      "Ġaddressing": 8855,
      "scar": 8856,
      "screw": 8857,
      "scene": 8858,
      "regret": 8859,
      "expectation": 8860,
      "Ġbarred": 8861,
      "Ġbarren": 8862,
      "Ġbarrier": 8863,
      "Ġbreathlessly": 8864,
      "misery": 8865,
      "Ġaugment": 8866,
      "Ġpicturesque": 8867,
      "Ġundo": 8868,
      "Ġsearchlight": 8869,
      "visible": 8870,
      "Ġangrily": 8871,
      "Ġfailing": 8872,
      "Ġchairs": 8873,
      "tomb": 8874,
      "windows": 8875,
      "Ġhurriedly": 8876,
      "Ġmortifying": 8877,
      "Ġboundary": 8878,
      "passing": 8879,
      "Ġbird": 8880,
      "Ġfifth": 8881,
      "Ġinnocently": 8882,
      "Ġpaths": 8883,
      "Ġrocky": 8884,
      "Ġstruggling": 8885,
      "Ġstruggles": 8886,
      "Ġauthors": 8887,
      "Ġquarrel": 8888,
      "occurred": 8889,
      "Ġhabitation": 8890,
      "Ġflick": 8891,
      "Ġpaying": 8892,
      "Ġkingdom": 8893,
      "Ġaccidental": 8894,
      "Ġsmollet": 8895,
      "Ġamazing": 8896,
      "awful": 8897,
      "ladyship": 8898,
      "Ġsterilise": 8899,
      "interesting": 8900,
      "princip": 8901,
      "Ġprospects": 8902,
      "Ġbleak": 8903,
      "Ġbelongs": 8904,
      "Ġpalp": 8905,
      "Ġrecorded": 8906,
      "Ġintelligent": 8907,
      "mistaken": 8908,
      "Ġoperate": 8909,
      "Ġharmless": 8910,
      "Ġverd": 8911,
      "delightful": 8912,
      "Ġridicule": 8913,
      "Ġdivided": 8914,
      "spirit": 8915,
      "spirited": 8916,
      "drawing": 8917,
      "Ġpunish": 8918,
      "Ġpublicly": 8919,
      "Ġhorseback": 8920,
      "mountain": 8921,
      "mountains": 8922,
      "Ġventure": 8923,
      "rugged": 8924,
      "Ġresults": 8925,
      "Ġsnapped": 8926,
      "Ġslave": 8927,
      "Ġtapped": 8928,
      "Ġcoachman": 8929,
      "Ġquarters": 8930,
      "paused": 8931,
      "Ġjewels": 8932,
      "Ġmoderate": 8933,
      "Ġgrasped": 8934,
      "Ġfrost": 8935,
      "street": 8936,
      "secret": 8937,
      "Ġclaims": 8938,
      "Ġbarely": 8939,
      "above": 8940,
      "Ġnecessarily": 8941,
      "Ġinquiring": 8942,
      "Ġdiscuss": 8943,
      "Ġdiscussed": 8944,
      "bule": 8945,
      "Ġstirred": 8946,
      "pesth": 8947,
      "Ġexerc": 8948,
      "Ġlodgings": 8949,
      "possession": 8950,
      "Ġindulge": 8951,
      "Ġeducated": 8952,
      "Ġfrantic": 8953,
      "Ġpressure": 8954,
      "cription": 8955,
      "Ġwinche": 8956,
      "Ġthreatened": 8957,
      "Ġfaults": 8958,
      "Ġattempting": 8959,
      "quickly": 8960,
      "Ġgovernment": 8961,
      "Ġtestim": 8962,
      "Ġdisgusted": 8963,
      "Ġperformance": 8964,
      "Ġpuzzle": 8965,
      "inquiries": 8966,
      "Ġrubbed": 8967,
      "Ġcomplaints": 8968,
      "ĠĠĠĠĠĠĠĠĠĠĠĠĠĠĠĠĠĠĠĠĠĠĠĠĠĠĠĠĠĠĠĠĠĠĠĠĠĠĠĠĠĠĠĠĠĠĠĠĠĠĠĠĠĠĠĠ": 8969,
      "girls": 8970,
      "Ġcordial": 8971,
      "Ġannounced": 8972,
      "Ġsobs": 8973,
      "Ġuniversity": 8974,
      "Ġattentively": 8975,
      "generally": 8976,
      "Ġcontemplated": 8977,
      "Ġraptures": 8978,
      "Ġresolutely": 8979,
      "Ġpatroness": 8980,
      "Ġcondescend": 8981,
      "wedding": 8982,
      "Ġwalton": 8983,
      "Ġberries": 8984,
      "Ġdoomed": 8985,
      "Ġvigil": 8986,
      "ulsively": 8987,
      "Ġenvirons": 8988,
      "Ġperpetual": 8989,
      "accompanied": 8990,
      "Ġestablishment": 8991,
      "critical": 8992,
      "Ġdrugstore": 8993,
      "Ġhonestly": 8994,
      "bestowed": 8995,
      "Ġintervals": 8996,
      "discovery": 8997,
      "Ġtumultuous": 8998,
      "balls": 8999,
      "Ġwidow": 9000,
      "attendants": 9001,
      "bearance": 9002,
      "Ġnewspapers": 9003,
      "persuade": 9004,
      "Ġlouisa": 9005,
      "Ġresponse": 9006,
      "frankenstein": 9007,
      "Ġsincerity": 9008,
      "Ġdamned": 9009,
      "Ġassociated": 9010,
      "Ġmelted": 9011,
      "Ġsustain": 9012,
      "Ġdefects": 9013,
      "amongst": 9014,
      "Ġchampagne": 9015,
      "Ġinsensible": 9016,
      "Ġpreparations": 9017,
      "Ġpenetrate": 9018,
[...]
