{
  "version": "1.0",
  "truncation": {
    "direction": "Right",
    "max_length": 64,
    "strategy": "LongestFirst",
    "stride": 0
  },
  "padding": {
    "strategy": "BatchLongest",
    "direction": "Right",
    "pad_to_multiple_of": null,
    "pad_id": 16000,
    "pad_type_id": 0,
    "pad_token": "<|endoftext|>"
  },
  "added_tokens": [
    {
      "id": 16000,
      "content": "<|endoftext|>",
      "single_word": false,
      "lstrip": false,
      "rstrip": false,
      "normalized": false,
      "special": true
    },
    {
      "id": 16001,
      "content": "<pad>",
      "single_word": false,
      "lstrip": false,
      "rstrip": false,
      "normalized": false,
      "special": true
    }
  ],
  "normalizer": {
    "type": "Sequence",
    "normalizers": [
      {
        "type": "NFD"
      },
      {
        "type": "Lowercase"
      },
      {
        "type": "Strip",
        "strip_left": true,
        "strip_right": true
      },
      {
        "type": "StripAccents"
      }
    ]
  },
  "pre_tokenizer": {
    "type": "ByteLevel",
    "add_prefix_space": false,
    "trim_offsets": true,
    "use_regex": true
  },
  "post_processor": {
    "type": "ByteLevel",
    "add_prefix_space": true,
    "trim_offsets": true,
    "use_regex": true
  },
  "decoder": {
    "type": "ByteLevel",
    "add_prefix_space": true,
    "trim_offsets": true,
    "use_regex": true
  },
  "model": {
    "type": "BPE",
    "dropout": null,
    "unk_token": null,
    "continuing_subword_prefix": null,
    "end_of_word_suffix": null,
    "fuse_unk": false,
    "byte_fallback": false,
    "ignore_merges": false,
    "vocab": {
      "\"": 0,
      "#": 1,
      "$": 2,
      "%": 3,
      "&": 4,
      "'": 5,
      "(": 6,
      ")": 7,
      "*": 8,
      "+": 9,
      ",": 10,
      "-": 11,
      ".": 12,
      "/": 13,
      "0": 14,
      "1": 15,
      "2": 16,
      "3": 17,
      "4": 18,
      "5": 19,
      "6": 20,
      "7": 21,
      "8": 22,
      "9": 23,
      ":": 24,
      ";": 25,
      "<": 26,
      "=": 27,
      ">": 28,
      "@": 29,
      "[": 30,
      "]": 31,
      "_": 32,
      "a": 33,
      "b": 34,
      "c": 35,
      "d": 36,
      "e": 37,
      "f": 38,
      "g": 39,
      "h": 40,
      "i": 41,
      "j": 42,
      "k": 43,
      "l": 44,
      "m": 45,
      "n": 46,
      "o": 47,
      "p": 48,
      "q": 49,
      "r": 50,
      "s": 51,
      "t": 52,
      "u": 53,
      "v": 54,
      "w": 55,
      "x": 56,
      "y": 57,
      "z": 58,
      "{": 59,
      "}": 60,
      "~": 61,
      "¦": 62,
      "°": 63,
      "Â": 64,
      "Ã": 65,
      "â": 66,
      "Ġ": 67,
      "Ģ": 68,
      "Ķ": 69,
      "ĺ": 70,
      "Ļ": 71,
      "ľ": 72,
      "Ŀ": 73,
      "Ġt": 74,
      "Ġth": 75,
      "Ġa": 76,
      "Ġthe": 77,
      "Ġo": 78,
      "in": 79,
      "er": 80,
      "on": 81,
      "en": 82,
      "re": 83,
      "at": 84,
      "Ġs": 85,
      "Ġof": 86,
      "it": 87,
      "Ġb": 88,
      "Ġw": 89,
      "es": 90,
      "Ġc": 91,
      "ed": 92,
      "is": 93,
      "Ġp": 94,
      "an": 95,
      "Ġin": 96,
      "Ġan": 97,
      "Ġf": 98,
      "ion": 99,
      "Ġm": 100,
      "or": 101,
      "ar": 102,
      "al": 103,
      "Ġto": 104,
      "ou": 105,
      "ic": 106,
      "Ġh": 107,
      "Ġbe": 108,
      "Ġand": 109,
      "Ġd": 110,
      "Ġn": 111,
      "ent": 112,
      "th": 113,
      "le": 114,
      "Ġe": 115,
      "ct": 116,
      "st": 117,
      "ro": 118,
      "ing": 119,
      "ly": 120,
      "se": 121,
      "ve": 122,
      "Ġwh": 123,
      "ll": 124,
      "Ġha": 125,
      "Ġg": 126,
      "Ġl": 127,
      "Ġre": 128,
      "ver": 129,
      "ce": 130,
      "ation": 131,
      "Ġit": 132,
      "om": 133,
      "ut": 134,
      "Ġthat": 135,
      "Ġcon": 136,
      "im": 137,
      "Ġon": 138,
      "if": 139,
      "Ġfor": 140,
      "Ġu": 141,
      "ir": 142,
      "Ġis": 143,
      "pe": 144,
      "ur": 145,
      "Ġas": 146,
      "ies": 147,
      "Ġst": 148,
      "ld": 149,
      "Ġno": 150,
      "as": 151,
      "ich": 152,
      "id": 153,
      "Ġor": 154,
      "ch": 155,
      "ow": 156,
      "ith": 157,
      "Ġex": 158,
      "ig": 159,
      "Ġwhich": 160,
      "Ġby": 161,
      "ate": 162,
      "Ġse": 163,
      "Ġhave": 164,
      "Ġsu": 165,
      "ould": 166,
      "ther": 167,
      "ab": 168,
      "Ġpro": 169,
      "ill": 170,
      "ul": 171,
      "ment": 172,
      "ter": 173,
      "Ġma": 174,
      "Ġmo": 175,
      "Ġwith": 176,
      "res": 177,
      "ess": 178,
      "Ġun": 179,
      "rom": 180,
      "Ġthis": 181,
      "il": 182,
      "ity": 183,
      "ts": 184,
      "Ġwe": 185,
      "and": 186,
      "am": 187,
      "Ġv": 188,
      "the": 189,
      "Ġde": 190,
      "Ġare": 191,
      "ain": 192,
      "Ġnot": 193,
      "ect": 194,
      "qu": 195,
      "Ġfrom": 196,
      "ist": 197,
      "end": 198,
      "ers": 199,
      "et": 200,
      "ive": 201,
      "po": 202,
      "est": 203,
      "iv": 204,
      "Ġwill": 205,
      "Ġr": 206,
      "Ġne": 207,
      "pec": 208,
      "Ġcom": 209,
      "oun": 210,
      "Ġtheir": 211,
      "Ġsh": 212,
      "um": 213,
      "igh": 214,
      "ol": 215,
      "ge": 216,
      "em": 217,
      "ous": 218,
      "Ġat": 219,
      "ions": 220,
      "Ġbeen": 221,
      "Ġwould": 222,
      "Ġall": 223,
      "us": 224,
      "Ġother": 225,
      "pecies": 226,
      "Ġbut": 227,
      "ure": 228,
      "ence": 229,
      "od": 230,
      "act": 231,
      "to": 232,
      "ad": 233,
      "fer": 234,
      "over": 235,
      "Ġpar": 236,
      "ant": 237,
      "Ġi": 238,
      "ame": 239,
      "Ġch": 240,
      "Ġthey": 241,
      "ru": 242,
      "able": 243,
      "all": 244,
      "per": 245,
      "ome": 246,
      "Ġim": 247,
      "Ġspecies": 248,
      "Ġmay": 249,
      "our": 250,
      "ere": 251,
      "ary": 252,
      "ple": 253,
      "ib": 254,
      "ations": 255,
      "Ġle": 256,
      "de": 257,
      "of": 258,
      "ac": 259,
      "Ġcan": 260,
      "gh": 261,
      "ust": 262,
      "reat": 263,
      "ight": 264,
      "Ġhas": 265,
      "Ġform": 266,
      "ose": 267,
      "Ġso": 268,
      "ort": 269,
      "ates": 270,
      "ari": 271,
      "Ġpl": 272,
      "very": 273,
      "Ġone": 274,
      "con": 275,
      "ap": 276,
      "Ġad": 277,
      "ach": 278,
      "ance": 279,
      "ally": 280,
      "Ġman": 281,
      "un": 282,
      "overn": 283,
      "Ġsame": 284,
      "Ġal": 285,
      "Ġany": 286,
      "pos": 287,
      "Ġdif": 288,
      "Ġmore": 289,
      "cc": 290,
      "pl": 291,
      "der": 292,
      "ay": 293,
      "ction": 294,
      "Ġj": 295,
      "Ġy": 296,
      "ener": 297,
      "ie": 298,
      "ff": 299,
      "overnment": 300,
      "Ġper": 301,
      "ke": 302,
      "Ġits": 303,
      "ated": 304,
      "Ġap": 305,
      "ject": 306,
      "Ġif": 307,
      "Ġnat": 308,
      "stit": 309,
      "Ġpow": 310,
      "ution": 311,
      "ert": 312,
      "Ġsome": 313,
      "Ġthere": 314,
      "ong": 315,
      "Ġstates": 316,
      "Ġdis": 317,
      "du": 318,
      "ci": 319,
      "Ġthem": 320,
      "ough": 321,
      "Ġca": 322,
      "ot": 323,
      "tr": 324,
      "Ġthese": 325,
      "ish": 326,
      "Ġpe": 327,
      "Ġpart": 328,
      "Ġstate": 329,
      "port": 330,
      "Ġpo": 331,
      "Ġvari": 332,
      "Ġgovernment": 333,
      "Ġthan": 334,
      "Ġam": 335,
      "bl": 336,
      "Ġgener": 337,
      "Ġgreat": 338,
      "we": 339,
      "ud": 340,
      "Ġdiffer": 341,
      "par": 342,
      "bject": 343,
      "ore": 344,
      "Ġcl": 345,
      "Ġcomm": 346,
      "ss": 347,
      "ri": 348,
      "Ġar": 349,
      "ens": 350,
      "als": 351,
      "Ġwho": 352,
      "ces": 353,
      "pro": 354,
      "pres": 355,
      "ber": 356,
      "Ġeach": 357,
      "be": 358,
      "Ġla": 359,
      "pt": 360,
      "ans": 361,
      "Ġme": 362,
      "cl": 363,
      "Ġthose": 364,
      "Ġinter": 365,
      "Ġmost": 366,
      "ire": 367,
      "ree": 368,
      "Ġhe": 369,
      "Ġdist": 370,
      "are": 371,
      "Ġpre": 372,
      "ass": 373,
      "ind": 374,
      "Ġpres": 375,
      "Ġour": 376,
      "ants": 377,
      "Ġpr": 378,
      "ard": 379,
      "Ġconstit": 380,
      "ag": 381,
      "Ġcons": 382,
      "ound": 383,
      "Ġag": 384,
      "Ġpower": 385,
      "ult": 386,
      "Ġunder": 387,
      "ven": 388,
      "wh": 389,
      "ex": 390,
      "ition": 391,
      "Ġdo": 392,
      "av": 393,
      "ople": 394,
      "Ġres": 395,
      "cess": 396,
      "eder": 397,
      "Ġk": 398,
      "Ġsuch": 399,
      "Ġmust": 400,
      "ural": 401,
      "Ġgr": 402,
      "ited": 403,
      "Ġext": 404,
      "Ġbet": 405,
      "Ġab": 406,
      "Ġnew": 407,
      "lat": 408,
      "ical": 409,
      "âĢ": 410,
      "Ġwhen": 411,
      "Ġnum": 412,
      "for": 413,
      "Ġfe": 414,
      "inct": 415,
      "Ġpeople": 416,
      "ied": 417,
      "Ġcont": 418,
      "Ġsup": 419,
      "ted": 420,
      "Ġtw": 421,
      "fic": 422,
      "Ġup": 423,
      "ord": 424,
      "ility": 425,
      "ubl": 426,
      "sel": 427,
      "ween": 428,
      "ace": 429,
      "Ġen": 430,
      "gis": 431,
      "ide": 432,
      "ang": 433,
      "Ġvery": 434,
      "iz": 435,
      "ial": 436,
      "Ġrem": 437,
      "ific": 438,
      "Ġmany": 439,
      "Ġshall": 440,
      "Ġconstitution": 441,
      "Ġtwo": 442,
      "Ġinst": 443,
      "ider": 444,
      "Ġonly": 445,
      "Ġus": 446,
      "Ġtim": 447,
      "og": 448,
      "Ġshould": 449,
      "Ġ1": 450,
      "Ġnatural": 451,
      "Ġind": 452,
      "pect": 453,
      "ious": 454,
      "ced": 455,
      "other": 456,
      "Ġqu": 457,
      "lection": 458,
      "Ġbetween": 459,
      "Ġdes": 460,
      "Ġlaw": 461,
      "Ġevery": 462,
      "Ġbr": 463,
      "ign": 464,
      "ual": 465,
      "ine": 466,
      "Ġcoun": 467,
      "uch": 468,
      "out": 469,
      "Ġtr": 470,
      "Ġhis": 471,
      "gislat": 472,
      "Ġbeing": 473,
      "ular": 474,
      "age": 475,
      "one": 476,
      "Ġhad": 477,
      "uth": 478,
      "Ġchar": 479,
      "ublic": 480,
      "Ġwas": 481,
      "uthor": 482,
      "ice": 483,
      "ue": 484,
      "ments": 485,
      "Ġsever": 486,
      "Ġinto": 487,
      "Ġhow": 488,
      "Ġdifferent": 489,
      "Ġacc": 490,
      "Ġfir": 491,
      "Ġvariet": 492,
      "ertain": 493,
      "now": 494,
      "Ġta": 495,
      "ise": 496,
      "Ġconf": 497,
      "Ġless": 498,
      "present": 499,
      "Ġwere": 500,
      "ases": 501,
      "Ġwor": 502,
      "Ġtime": 503,
      "int": 504,
      "br": 505,
      "pend": 506,
      "ffect": 507,
      "erv": 508,
      "lect": 509,
      "Ġorg": 510,
      "Ġmight": 511,
      "ite": 512,
      "not": 513,
      "ood": 514,
      "Ġprodu": 515,
      "wn": 516,
      "Ġseveral": 517,
      "ec": 518,
      "posed": 519,
      "ict": 520,
      "Ġcase": 521,
      "ory": 522,
      "ost": 523,
      "use": 524,
      "Ġcould": 525,
      "ently": 526,
      "Ġconsider": 527,
      "ither": 528,
      "Ġlegislat": 529,
      "ast": 530,
      "Ġauthor": 531,
      "iod": 532,
      "Ġfirst": 533,
      "ark": 534,
      "Ġagain": 535,
      "Ġreg": 536,
      "ten": 537,
      "Ġbec": 538,
      "med": 539,
      "ivid": 540,
      "Ġfact": 541,
      "that": 542,
      "Ġforms": 543,
      "pr": 544,
      "su": 545,
      "Ġobject": 546,
      "ederal": 547,
      "Ġcharact": 548,
      "Ġem": 549,
      "Ġupon": 550,
      "Ġnation": 551,
      "Ġcommon": 552,
      "Ġnumber": 553,
      "land": 554,
      "Ġmuch": 555,
      "Ġwhat": 556,
      "Ġnecess": 557,
      "iew": 558,
      "bers": 559,
      "Ġob": 560,
      "its": 561,
      "ful": 562,
      "Ġlar": 563,
      "Ġprov": 564,
      "inci": 565,
      "Ġcour": 566,
      "ents": 567,
      "ason": 568,
      "ike": 569,
      "ible": 570,
      "Ġop": 571,
      "Ġact": 572,
      "red": 573,
      "ars": 574,
      "Ġappe": 575,
      "Ġcases": 576,
      "Ġsub": 577,
      "Ġunion": 578,
      "Ġeven": 579,
      "fect": 580,
      "Ġsl": 581,
      "Ġbel": 582,
      "fore": 583,
      "her": 584,
      "oc": 585,
      "Ġlong": 586,
      "Ġperiod": 587,
      "Ġnature": 588,
      "Ġvarieties": 589,
      "Ġjud": 590,
      "Ġthough": 591,
      "Ġimport": 592,
      "Ġfar": 593,
      "Ġatt": 594,
      "Ġanim": 595,
      "ici": 596,
      "Ġwell": 597,
      "ors": 598,
      "Ġtru": 599,
      "rem": 600,
      "Ġselection": 601,
      "Ġadm": 602,
      "tle": 603,
      "ives": 604,
      "cre": 605,
      "ances": 606,
      "ave": 607,
      "Ġmod": 608,
      "king": 609,
      "Ġexist": 610,
      "Ġrepresent": 611,
      "ife": 612,
      "Ġstru": 613,
      "Ġgeneral": 614,
      "com": 615,
      "so": 616,
      "Ġ\"": 617,
      "enc": 618,
      "oth": 619,
      "ention": 620,
      "part": 621,
      "Ġposs": 622,
      "Ġcertain": 623,
      "itions": 624,
      "vers": 625,
      "Ġocc": 626,
      "ident": 627,
      "Ġview": 628,
      "Ġdeg": 629,
      "Ġagainst": 630,
      "Ġnow": 631,
      "Ġsen": 632,
      "Ġfound": 633,
      "Ġsubject": 634,
      "ended": 635,
      "Ġanother": 636,
      "ities": 637,
      "Ġmem": 638,
      "arly": 639,
      "Ġnor": 640,
      "âĢĶ": 641,
      "Ġstr": 642,
      "ably": 643,
      "Ġ3": 644,
      "Ġfl": 645,
      "ross": 646,
      "Ġunited": 647,
      "Ġexec": 648,
      "icular": 649,
      "Ġlife": 650,
      "Ġdesc": 651,
      "ving": 652,
      "Ġsee": 653,
      "ugh": 654,
      "Ġprinci": 655,
      "Ġ2": 656,
      "Ġfederal": 657,
      "Ġrel": 658,
      "ount": 659,
      "Ġorgan": 660,
      "Ġcontin": 661,
      "ps": 662,
      "Ġadv": 663,
      "eds": 664,
      "self": 665,
      "iate": 666,
      "ird": 667,
      "pose": 668,
      "ays": 669,
      "Ġequ": 670,
      "pre": 671,
      "ves": 672,
      "Ġlike": 673,
      "which": 674,
      "oo": 675,
      "ught": 676,
      "most": 677,
      "eric": 678,
      "Ġplants": 679,
      "Ġyet": 680,
      "Ġover": 681,
      "ress": 682,
      "uring": 683,
      "Ġcountr": 684,
      "ange": 685,
      "Ġinde": 686,
      "ute": 687,
      "Ġindivid": 688,
      "hab": 689,
      "Ġknow": 690,
      "ia": 691,
      "ty": 692,
      "atter": 693,
      "Ġoften": 694,
      "Ġmade": 695,
      "ification": 696,
      "Ġown": 697,
      "Ġbod": 698,
      "Ġnational": 699,
      "abl": 700,
      "Ġpublic": 701,
      "Ġreason": 702,
      "ever": 703,
      "ner": 704,
      "oub": 705,
      "ficult": 706,
      "Ġlaws": 707,
      "cur": 708,
      "Ġthus": 709,
      "form": 710,
      "ile": 711,
      "Ġought": 712,
      "mediate": 713,
      "Ġhaving": 714,
      "te": 715,
      "Ġsa": 716,
      "Ġbre": 717,
      "ified": 718,
      "fl": 719,
      "Ġproper": 720,
      "Ġdistinct": 721,
      "Ġprob": 722,
      "Ġeffect": 723,
      "Ġseem": 724,
      "Ġbelie": 725,
      "ks": 726,
      "utive": 727,
      "ety": 728,
      "Ġpowers": 729,
      "cum": 730,
      "Ġfo": 731,
      "Ġeither": 732,
      "ons": 733,
      "Ġdom": 734,
      "op": 735,
      "Ġ(": 736,
      "Ġparticular": 737,
      "Ġameric": 738,
      "ures": 739,
      "Ġclass": 740,
      "Ġgrou": 741,
      "Ġlarge": 742,
      "Ġauthority": 743,
      "Ġmembers": 744,
      "Ġboth": 745,
      "Ġfew": 746,
      "Ġwithout": 747,
      "Ġpresent": 748,
      "Ġwhole": 749,
      "mall": 750,
      "Ġent": 751,
      "Ġrequ": 752,
      "Ġcond": 753,
      "yst": 754,
      "Ġcannot": 755,
      "ittle": 756,
      "ined": 757,
      "Ġev": 758,
      "less": 759,
      "reme": 760,
      "Ġcir": 761,
      "Ġcor": 762,
      "ings": 763,
      "ished": 764,
      "Ġanimals": 765,
      "ail": 766,
      "Ġmen": 767,
      "Ġwhere": 768,
      "Ġrespect": 769,
      "rough": 770,
      "str": 771,
      "Ġest": 772,
      "Ġdegree": 773,
      "ase": 774,
      "ences": 775,
      "sequ": 776,
      "itu": 777,
      "Ġpers": 778,
      "Ġdifficult": 779,
      "ency": 780,
      "ystem": 781,
      "habit": 782,
      "ained": 783,
      "with": 784,
      "Ġmy": 785,
      "Ġdoub": 786,
      "Ġshow": 787,
      "Ġcol": 788,
      "Ġpur": 789,
      "cture": 790,
      "Ġaff": 791,
      "Ġconv": 792,
      "Ġbody": 793,
      "ne": 794,
      "Ġgiv": 795,
      "ccess": 796,
      "press": 797,
      "selves": 798,
      "Ġsp": 799,
      "Ġye": 800,
      "ision": 801,
      "position": 802,
      "Ġgood": 803,
      "estic": 804,
      "Ġjust": 805,
      "Ġfore": 806,
      "Ġass": 807,
      "olog": 808,
      "ised": 809,
      "ater": 810,
      "istr": 811,
      "Ġcountry": 812,
      "Ġsim": 813,
      "Ġduring": 814,
      "ked": 815,
      "Ġoffic": 816,
      "Ġpol": 817,
      "Ġrepresentat": 818,
      "Ġlittle": 819,
      "Ġsing": 820,
      "cept": 821,
      "Ġbecome": 822,
      "gg": 823,
      "Ġsmall": 824,
      "erous": 825,
      "Ġformer": 826,
      "gress": 827,
      "itiz": 828,
      "Ġnever": 829,
      "Ġrec": 830,
      "Ġwar": 831,
      "Ġexecutive": 832,
      "have": 833,
      "ily": 834,
      "Ġcharacter": 835,
      "ell": 836,
      "ness": 837,
      "pp": 838,
      "Ġend": 839,
      "Ġthrough": 840,
      "Ġhand": 841,
      "cond": 842,
      "ually": 843,
      "Ġthen": 844,
      "Ġcross": 845,
      "Ġhere": 846,
      "asion": 847,
      "min": 848,
      "Ġdisc": 849,
      "cumst": 850,
      "species": 851,
      "Ġsystem": 852,
      "from": 853,
      "led": 854,
      "rib": 855,
      "Ġremark": 856,
      "ether": 857,
      "ork": 858,
      "Ġher": 859,
      "Ġge": 860,
      "iment": 861,
      "Ġclose": 862,
      "Ġdang": 863,
      "Ġter": 864,
      "Ġuse": 865,
      "Ġnecessary": 866,
      "Ġappear": 867,
      "Ġgiven": 868,
      "cul": 869,
      "sh": 870,
      "Ġparts": 871,
      "Ġstructure": 872,
      "man": 873,
      "Ġtoo": 874,
      "Ġwithin": 875,
      "Ġmeans": 876,
      "Ġtend": 877,
      "itted": 878,
      "Ġdef": 879,
      "Ġimpro": 880,
      "Ġmanner": 881,
      "Ġgenerally": 882,
      "Ġbelieve": 883,
      "anch": 884,
      "Ġadvant": 885,
      "flu": 886,
      "ken": 887,
      "Ġout": 888,
      "Ġisland": 889,
      "Ġmake": 890,
      "Ġobs": 891,
      "Ġindepend": 892,
      "Ġdomestic": 893,
      "Ġcontr": 894,
      "Ġstill": 895,
      "ability": 896,
      "ived": 897,
      "acy": 898,
      "Ġsc": 899,
      "Ġhab": 900,
      "Ġcomp": 901,
      "ceed": 902,
      "os": 903,
      "uals": 904,
      "igin": 905,
      "gether": 906,
      "old": 907,
      "Ġinhabit": 908,
      "Ġfav": 909,
      "Ġhim": 910,
      "by": 911,
      "ph": 912,
      "Ġhigh": 913,
      "public": 914,
      "Ġinv": 915,
      "Ġsuccess": 916,
      "Ġconfeder": 917,
      "Ġsingle": 918,
      "Ġdi": 919,
      "Ġlet": 920,
      "irds": 921,
      "Ġamerica": 922,
      "und": 923,
      "Ġgreater": 924,
      "irect": 925,
      "Ġac": 926,
      "Ġgive": 927,
      "Ġplan": 928,
      "ffici": 929,
      "Ġperfect": 930,
      "portion": 931,
      "Ġkind": 932,
      "ways": 933,
      "itizens": 934,
      "Ġland": 935,
      "Ġjur": 936,
      "Ġhy": 937,
      "peri": 938,
      "Ġadd": 939,
      "Ġworld": 940,
      "Ġestabl": 941,
      "row": 942,
      "idence": 943,
      "Ġspec": 944,
      "Ġplace": 945,
      "Ġinstance": 946,
      "brid": 947,
      "Ġconditions": 948,
      "fter": 949,
      "ights": 950,
      "Ġint": 951,
      "sem": 952,
      "ause": 953,
      "utions": 954,
      "Ġalmost": 955,
      "Ġart": 956,
      "les": 957,
      "Ġwhether": 958,
      "uses": 959,
      "dis": 960,
      "dif": 961,
      "Ġlatter": 962,
      "ibert": 963,
      "Ġalso": 964,
      "Ġhapp": 965,
      "imes": 966,
      "imate": 967,
      "clus": 968,
      "ages": 969,
      "Ġdoubt": 970,
      "hap": 971,
      "llow": 972,
      "Ġtherefore": 973,
      "Ġamong": 974,
      "Ġcharacters": 975,
      "Ġimportant": 976,
      "el": 977,
      "Ġbranch": 978,
      "Ġmil": 979,
      "ĠĠ": 980,
      "omet": 981,
      "urn": 982,
      "ender": 983,
      "Ġyork": 984,
      "Ġgenera": 985,
      "ond": 986,
      "ense": 987,
      "ests": 988,
      "point": 989,
      "ward": 990,
      "erc": 991,
      "Ġcircumst": 992,
      "ged": 993,
      "Ġtrans": 994,
      "Ġsenate": 995,
      "Ġhowever": 996,
      "Ġelect": 997,
      "ower": 998,
      "ext": 999,
      "Ġrepresentatives": 1000,
      "nect": 1001,
      "Ã¦": 1002,
      "Ġbl": 1003,
      "cons": 1004,
      "Ġlegislative": 1005,
      "ix": 1006,
      "thing": 1007,
      "stru": 1008,
      "Ġexam": 1009,
      "Ġprev": 1010,
      "ctions": 1011,
      "Ġgen": 1012,
      "ply": 1013,
      "uro": 1014,
      "Ġfind": 1015,
      "Ġsepar": 1016,
      "iving": 1017,
      "Ġalways": 1018,
      "Ġthemselves": 1019,
      "Ġitself": 1020,
      "Ġothers": 1021,
      "Ġinterest": 1022,
      "requ": 1023,
      "Ġwide": 1024,
      "stand": 1025,
      "Ġlibert": 1026,
      "ains": 1027,
      "Ġlast": 1028,
      "nal": 1029,
      "Ġco": 1030,
      "Ġyou": 1031,
      "ief": 1032,
      "Ġpossess": 1033,
      "urope": 1034,
      "ved": 1035,
      "Ġincre": 1036,
      "Ġconsequ": 1037,
      "Ġdepart": 1038,
      "ady": 1039,
      "Ġforeign": 1040,
      "rel": 1041,
      "ating": 1042,
      "Ġcar": 1043,
      "ority": 1044,
      "Ġdepend": 1045,
      "aces": 1046,
      "ples": 1047,
      "Ġlegislature": 1048,
      "Ġindividuals": 1049,
      "Ġseems": 1050,
      "ometimes": 1051,
      "oy": 1052,
      "Ġhybrid": 1053,
      "inter": 1054,
      "ists": 1055,
      "Ġoccasion": 1056,
      "Ġprinciple": 1057,
      "Ġyears": 1058,
      "Ġthree": 1059,
      "Ġinflu": 1060,
      "Ġdr": 1061,
      "pet": 1062,
      "iction": 1063,
      "ped": 1064,
      "vel": 1065,
      "Ġlim": 1066,
      "Ġfacts": 1067,
      "ook": 1068,
      "haps": 1069,
      "fe": 1070,
      "will": 1071,
      "ern": 1072,
      "ared": 1073,
      "Ġgroups": 1074,
      "Ġconvention": 1075,
      "aw": 1076,
      "plic": 1077,
      "Ġbrit": 1078,
      "Ġcourse": 1079,
      "comm": 1080,
      "Ġquest": 1081,
      "vari": 1082,
      "Ġcitizens": 1083,
      "Ġslight": 1084,
      "Ġtri": 1085,
      "Ġoff": 1086,
      "Ġpass": 1087,
      "Ġleast": 1088,
      "Ġwork": 1089,
      "nat": 1090,
      "eng": 1091,
      "Ġsur": 1092,
      "this": 1093,
      "eal": 1094,
      "fact": 1095,
      "gr": 1096,
      "Ġtreat": 1097,
      "inary": 1098,
      "Ġins": 1099,
      "Ġinhabitants": 1100,
      "sol": 1101,
      "Ġeurope": 1102,
      "rit": 1103,
      "ouse": 1104,
      "Ġadvantage": 1105,
      "cil": 1106,
      "government": 1107,
      "ms": 1108,
      "Ġsou": 1109,
      "Ġorigin": 1110,
      "Ġright": 1111,
      "air": 1112,
      "iss": 1113,
      "Ġfert": 1114,
      "Ġrights": 1115,
      "Ġjudg": 1116,
      "ak": 1117,
      "gener": 1118,
      "ath": 1119,
      "duct": 1120,
      "Ġgovernments": 1121,
      "Ġproduced": 1122,
      "know": 1123,
      "Ġtheory": 1124,
      "Ġrepublic": 1125,
      "Ġsecond": 1126,
      "Ġcomple": 1127,
      "ided": 1128,
      "Ġchang": 1129,
      "erved": 1130,
      "Ġdirect": 1131,
      "Ġcongress": 1132,
      "Ġval": 1133,
      "Ġperhaps": 1134,
      "ep": 1135,
      "Ġthin": 1136,
      "ination": 1137,
      "Ġsometimes": 1138,
      "isd": 1139,
      "Ġrender": 1140,
      "Ġdoes": 1141,
      "âĢĻ": 1142,
      "Ġpolit": 1143,
      "Ġartic": 1144,
      "orm": 1145,
      "their": 1146,
      "Ġcauses": 1147,
      "Ġcontinu": 1148,
      "Ġclosely": 1149,
      "Ġ_": 1150,
      "sect": 1151,
      "ilar": 1152,
      "ially": 1153,
      "would": 1154,
      "Ġinher": 1155,
      "unity": 1156,
      "Ġimportance": 1157,
      "Ġ4": 1158,
      "ale": 1159,
      "Ġproportion": 1160,
      "Ġdecl": 1161,
      "Ġinstinct": 1162,
      "Ġtax": 1163,
      "differ": 1164,
      "Ġbest": 1165,
      "Ġcap": 1166,
      "Ġconnect": 1167,
      "Ġru": 1168,
      "ption": 1169,
      "Ġregul": 1170,
      "Ġliberty": 1171,
      "Ġbirds": 1172,
      "ired": 1173,
      "Ġextent": 1174,
      "Ġprobably": 1175,
      "Ġindependent": 1176,
      "wer": 1177,
      "Ġro": 1178,
      "Ġnearly": 1179,
      "apter": 1180,
      "Ġinfluence": 1181,
      "Ġstand": 1182,
      "Ġexpl": 1183,
      "stitution": 1184,
      "Ġamount": 1185,
      "Ġextreme": 1186,
      "ological": 1187,
      "Ġmilit": 1188,
      "Ġke": 1189,
      "Ġafter": 1190,
      "Ġwhy": 1191,
      "Ġregard": 1192,
      "Ġtrue": 1193,
      "Ġequal": 1194,
      "ength": 1195,
      "Ġmar": 1196,
      "uted": 1197,
      "Ġchange": 1198,
      "Ġpresident": 1199,
      "Ġfollow": 1200,
      "Ġseen": 1201,
      "Ġintermediate": 1202,
      "ck": 1203,
      "Ġfr": 1204,
      "Ġnations": 1205,
      "Ġexcept": 1206,
      "Ġdel": 1207,
      "Ġappoint": 1208,
      "ording": 1209,
      "Ġmodification": 1210,
      "Ġcall": 1211,
      "Ġfur": 1212,
      "Ġmere": 1213,
      "Ġtogether": 1214,
      "Ġster": 1215,
      "curity": 1216,
      "erve": 1217,
      "Ġfree": 1218,
      "Ġdest": 1219,
      "Ġmeas": 1220,
      "Ġislands": 1221,
      "iar": 1222,
      "ative": 1223,
      "Ġinfer": 1224,
      "Ġhence": 1225,
      "Ġbefore": 1226,
      "ull": 1227,
      "Ġfour": 1228,
      "empt": 1229,
      "Ġmodified": 1230,
      "Ġdanger": 1231,
      "Ġcircumstances": 1232,
      "gen": 1233,
      "ian": 1234,
      "Ġold": 1235,
      "ising": 1236,
      "Ġdec": 1237,
      "cont": 1238,
      "clud": 1239,
      "ize": 1240,
      "Ġorganic": 1241,
      "Ġsuffici": 1242,
      "Ġchapter": 1243,
      "Ġgrad": 1244,
      "Ġperson": 1245,
      "==": 1246,
      "iol": 1247,
      "Ġcle": 1248,
      "igr": 1249,
      "Ġdifference": 1250,
      "Ġdifficulty": 1251,
      "Ġdut": 1252,
      "Ġorder": 1253,
      "Ġparent": 1254,
      "ustr": 1255,
      "Ġorgans": 1256,
      "Ġproposed": 1257,
      "Ġalone": 1258,
      "Ġindividual": 1259,
      "ius": 1260,
      "Ġmag": 1261,
      "Ġrat": 1262,
      "Ġestablish": 1263,
      "Ġgenus": 1264,
      "ene": 1265,
      "Ġexerc": 1266,
      "ient": 1267,
      "Ġever": 1268,
      "ote": 1269,
      "Ġpeace": 1270,
      "Ġobjects": 1271,
      "ides": 1272,
      "Ġord": 1273,
      "poss": 1274,
      "Ġdifferences": 1275,
      "preh": 1276,
      "reg": 1277,
      "Ġans": 1278,
      "ick": 1279,
      "Ġforce": 1280,
      "Ġstrong": 1281,
      "Ġhabits": 1282,
      "inction": 1283,
      "termin": 1284,
      "Ġpoint": 1285,
      "ocal": 1286,
      "Ġthink": 1287,
      ",âĢĶ": 1288,
      "pri": 1289,
      "ige": 1290,
      "been": 1291,
      "Ġinterests": 1292,
      "where": 1293,
      "Ġbetter": 1294,
      "dist": 1295,
      "mm": 1296,
      "though": 1297,
      "Ġret": 1298,
      "Ġdistrib": 1299,
      "pring": 1300,
      "Ġcourts": 1301,
      "Ġhybrids": 1302,
      "mod": 1303,
      "Ġfin": 1304,
      "Ġconc": 1305,
      "Ġnumerous": 1306,
      "Ġtake": 1307,
      "Ġprovision": 1308,
      "Ġslow": 1309,
      "Ġfurther": 1310,
      "gu": 1311,
      "ric": 1312,
      "ready": 1313,
      "Ġmr": 1314,
      "Ġhum": 1315,
      "ify": 1316,
      "Ġmaj": 1317,
      "Ġpract": 1318,
      "ild": 1319,
      "ivers": 1320,
      "Ġfrequ": 1321,
      "Ġhouse": 1322,
      "Ġgu": 1323,
      "cient": 1324,
      "Ġ17": 1325,
      "Ġpolitical": 1326,
      "Ġrule": 1327,
      "Ġanswer": 1328,
      "ip": 1329,
      "rees": 1330,
      "arch": 1331,
      "Ġet": 1332,
      "Ġformed": 1333,
      "Ġpecul": 1334,
      "Ġbecause": 1335,
      "Ġacqu": 1336,
      "num": 1337,
      "Ġph": 1338,
      "Ġmon": 1339,
      "art": 1340,
      "Ġgl": 1341,
      "own": 1342,
      "Ġexpress": 1343,
      "ade": 1344,
      "Ġarm": 1345,
      "Ġeng": 1346,
      "Ġcouncil": 1347,
      "Ġexisting": 1348,
      "Ġpossible": 1349,
      "Ġknown": 1350,
      "Ġquestion": 1351,
      "ger": 1352,
      "Ġsoci": 1353,
      "--": 1354,
      "ble": 1355,
      "Ġsitu": 1356,
      "Ġsecurity": 1357,
      "duced": 1358,
      "Ġcause": 1359,
      "Ġhead": 1360,
      "ys": 1361,
      "Ġoper": 1362,
      "Ġinsect": 1363,
      "Ġfam": 1364,
      "Ġeas": 1365,
      "Ġexpect": 1366,
      "Ġprof": 1367,
      "perfect": 1368,
      "Ġtaken": 1369,
      "isdiction": 1370,
      "ove": 1371,
      "Ġref": 1372,
      "thern": 1373,
      "they": 1374,
      "ested": 1375,
      "Ġallied": 1376,
      "Ġaccording": 1377,
      "Ġconsidered": 1378,
      "Ġnecessity": 1379,
      "jud": 1380,
      "por": 1381,
      "ince": 1382,
      "alog": 1383,
      "ential": 1384,
      "ured": 1385,
      "ack": 1386,
      "appe": 1387,
      "Ġcommer": 1388,
      "Ġquite": 1389,
      "Ġproduce": 1390,
      "Ġoccur": 1391,
      "Ġsaid": 1392,
      "ells": 1393,
      "Ġfavor": 1394,
      "perience": 1395,
      "Ġnothing": 1396,
      "Ġcome": 1397,
      "Ġsupposed": 1398,
      "Ġcourt": 1399,
      "Ġexistence": 1400,
      "wise": 1401,
      "ints": 1402,
      "atis": 1403,
      "Ġsea": 1404,
      "aced": 1405,
      "Ġbeings": 1406,
      "bry": 1407,
      "Ġsense": 1408,
      "Ġbreeds": 1409,
      "Ġshown": 1410,
      "velop": 1411,
      "Ġaffect": 1412,
      "Ġpubl": 1413,
      "Ġlin": 1414,
      "Ġonce": 1415,
      "ought": 1416,
      "Ġhappen": 1417,
      "Ġes": 1418,
      "Ġlab": 1419,
      "Ġrev": 1420,
      "owers": 1421,
      "Ġimmediate": 1422,
      "Ġsuppose": 1423,
      "Ġadmin": 1424,
      "wards": 1425,
      "consider": 1426,
      "solute": 1427,
      "Ġut": 1428,
      "Ġdue": 1429,
      "Ġstri": 1430,
      "Ġcomb": 1431,
      "ploy": 1432,
      "Ġable": 1433,
      "sup": 1434,
      "Ġprinciples": 1435,
      "Ġsimilar": 1436,
      "but": 1437,
      "can": 1438,
      "ivil": 1439,
      "Ġalready": 1440,
      "Ġresult": 1441,
      "Ġvariety": 1442,
      "Ġtruth": 1443,
      "ggle": 1444,
      "Ġwidely": 1445,
      "Ġbritain": 1446,
      "ca": 1447,
      "iness": 1448,
      "Ġancient": 1449,
      "ales": 1450,
      "endants": 1451,
      "Ġran": 1452,
      "Ġproductions": 1453,
      "eign": 1454,
      "ft": 1455,
      "up": 1456,
      "Ġgrow": 1457,
      "Ġviol": 1458,
      "overeign": 1459,
      "constitution": 1460,
      "Ġsupport": 1461,
      "itude": 1462,
      "Ġpeculiar": 1463,
      "Ġ,": 1464,
      "Ġill": 1465,
      "Ġside": 1466,
      "Ġear": 1467,
      "Ġlocal": 1468,
      "ssil": 1469,
      "Ġnumbers": 1470,
      "Ġgroup": 1471,
      "Ġpurpose": 1472,
      "err": 1473,
      "Ġbar": 1474,
      "ism": 1475,
      "Ġful": 1476,
      "Ġwhose": 1477,
      "irit": 1478,
      "Ġproject": 1479,
      "Ġvary": 1480,
      "Ġextinct": 1481,
      "Ġbreed": 1482,
      "Ġmagistr": 1483,
      "more": 1484,
      "Ġhard": 1485,
      "Ġliving": 1486,
      "ceive": 1487,
      "Ġseeds": 1488,
      "Ġchief": 1489,
      "Ġopin": 1490,
      "iciary": 1491,
      "Ġadmit": 1492,
      "sembl": 1493,
      "Ġmajority": 1494,
      "certain": 1495,
      "equ": 1496,
      "spring": 1497,
      "ĠâĢ": 1498,
      "atever": 1499,
      "Ġsex": 1500,
      "Ġrul": 1501,
      "ousand": 1502,
      "Ġpret": 1503,
      "no": 1504,
      "pens": 1505,
      "Ġess": 1506,
      "Ġtem": 1507,
      "ased": 1508,
      "oung": 1509,
      "Ġshort": 1510,
      "arily": 1511,
      "under": 1512,
      "Ġdescended": 1513,
      "Ġincrease": 1514,
      "**": 1515,
      "bs": 1516,
      "ead": 1517,
      "ior": 1518,
      "ese": 1519,
      "Ġread": 1520,
      "Ġproceed": 1521,
      "olly": 1522,
      "ously": 1523,
      "uss": 1524,
      "ibility": 1525,
      "Ġleg": 1526,
      "Ġpersons": 1527,
      "necess": 1528,
      "Ġdistribution": 1529,
      "Ġsociety": 1530,
      "00": 1531,
      "den": 1532,
      "Ġz": 1533,
      "Ġinf": 1534,
      "Ġmut": 1535,
      "Ġmark": 1536,
      "Ġformation": 1537,
      "aph": 1538,
      "plied": 1539,
      "Ġsupreme": 1540,
      "Ġinstances": 1541,
      "ervation": 1542,
      "Ġemploy": 1543,
      "Ġrelation": 1544,
      "Ġsouth": 1545,
      "Ġ178": 1546,
      "dom": 1547,
      "Ġcat": 1548,
      "ison": 1549,
      "isions": 1550,
      "stant": 1551,
      "Ġmaking": 1552,
      "Ġra": 1553,
      "Ġalter": 1554,
      "ensive": 1555,
      "Ġabsolute": 1556,
      "Ġsuccessive": 1557,
      "Ġtrial": 1558,
      "Ġsituation": 1559,
      "ude": 1560,
      "Ġexperience": 1561,
      "amely": 1562,
      "aves": 1563,
      "Ġobjection": 1564,
      "Ġsufficient": 1565,
      "bet": 1566,
      "char": 1567,
      "ulation": 1568,
      "them": 1569,
      "conf": 1570,
      "Ġvarious": 1571,
      "imentary": 1572,
      "ting": 1573,
      "any": 1574,
      "ifications": 1575,
      "Ġconstitutional": 1576,
      "Ġequally": 1577,
      "Ġjurisdiction": 1578,
      "lar": 1579,
      "isation": 1580,
      "Ġann": 1581,
      "roy": 1582,
      "Ġconduct": 1583,
      "Ġmode": 1584,
      "Ġadap": 1585,
      "Ġunderstand": 1586,
      "Ġcertainly": 1587,
      "Ġfossil": 1588,
      "Ġentire": 1589,
      "istration": 1590,
      "represent": 1591,
      "Ġsovereign": 1592,
      "Ġcreat": 1593,
      "Ġcivil": 1594,
      "llen": 1595,
      "Ġrestr": 1596,
      "imin": 1597,
      "resp": 1598,
      "aining": 1599,
      "Ġcommunity": 1600,
      "Ġpriv": 1601,
      "Ġspirit": 1602,
      "Ġcrossed": 1603,
      "Ġgeological": 1604,
      "Ġtendency": 1605,
      "known": 1606,
      "Ġsterility": 1607,
      "day": 1608,
      "federal": 1609,
      "Ġanalog": 1610,
      "Ġfa": 1611,
      "Ġfall": 1612,
      "Ġfull": 1613,
      "Ġhold": 1614,
      "Ġder": 1615,
      "Ġel": 1616,
      "Ġgovern": 1617,
      "Ġexclus": 1618,
      "Ġformations": 1619,
      "Ġyoung": 1620,
      "Ġpoints": 1621,
      "Ġamb": 1622,
      "Ġarr": 1623,
      "Ġlikely": 1624,
      "Ġenter": 1625,
      "Ġuseful": 1626,
      "Ġfully": 1627,
      "ier": 1628,
      "ope": 1629,
      "Ġty": 1630,
      "Ġmatter": 1631,
      "Ġrud": 1632,
      "Ġplain": 1633,
      "Ġaccum": 1634,
      "Ġstruggle": 1635,
      "Ġchanges": 1636,
      "Ġav": 1637,
      "ately": 1638,
      "Ġdevelop": 1639,
      "poses": 1640,
      "Ġvariation": 1641,
      "Ġclimate": 1642,
      "Ġmean": 1643,
      "Ġabout": 1644,
      "Ġcollect": 1645,
      "ledge": 1646,
      "Ġdepartment": 1647,
      "ma": 1648,
      "oice": 1649,
      "Ġthousand": 1650,
      "Ġserv": 1651,
      "anc": 1652,
      "Ġhist": 1653,
      "states": 1654,
      "Ġreal": 1655,
      "Ġprocess": 1656,
      "ourable": 1657,
      "Ġcare": 1658,
      "Ġpop": 1659,
      "Ġanimal": 1660,
      "Ġdiscover": 1661,
      "may": 1662,
      "Ġmin": 1663,
      "Ġwhatever": 1664,
      "Ġdev": 1665,
      "Ġcompet": 1666,
      "Ġcontro": 1667,
      "oney": 1668,
      "Ġjudiciary": 1669,
      "Ġnorth": 1670,
      "Ġthroughout": 1671,
      "Ġcalled": 1672,
      "priety": 1673,
      "Ġhuman": 1674,
      "Ġinsects": 1675,
      "jur": 1676,
      "Ġsour": 1677,
      "Ġmind": 1678,
      "Ġdiv": 1679,
      "Ġshe": 1680,
      "berg": 1681,
      "Ġfeel": 1682,
      "ords": 1683,
      "Ġembry": 1684,
      "different": 1685,
      "Ġessential": 1686,
      "cour": 1687,
      "get": 1688,
      "ug": 1689,
      "Ġaw": 1690,
      "ins": 1691,
      "iform": 1692,
      "Ġneither": 1693,
      "Ġlead": 1694,
      "Ġextend": 1695,
      "Ġtrust": 1696,
      "encies": 1697,
      "Ġconcern": 1698,
      "),": 1699,
      "go": 1700,
      "til": 1701,
      "Ġaction": 1702,
      "inite": 1703,
      "ister": 1704,
      "Ġinc": 1705,
      "Ġmer": 1706,
      "state": 1707,
      "Ġgo": 1708,
      "Ġconcur": 1709,
      "Ġcompar": 1710,
      "Ġplaces": 1711,
      "duce": 1712,
      "Ġqual": 1713,
      "Ġconsiderable": 1714,
      "Ġlegislatures": 1715,
      "Ġbelong": 1716,
      "Ġjudic": 1717,
      "cret": 1718,
      "Ġeffects": 1719,
      "Ġhands": 1720,
      "undred": 1721,
      "Ġjury": 1722,
      "natural": 1723,
      "ealous": 1724,
      "Ġtreaties": 1725,
      "respond": 1726,
      "des": 1727,
      "Ġwant": 1728,
      "Ġmigr": 1729,
      "these": 1730,
      "Ġey": 1731,
      "import": 1732,
      "Ġsus": 1733,
      "Ġweight": 1734,
      "Ġrare": 1735,
      "Ġimm": 1736,
      "Ġpollen": 1737,
      "Ġargu": 1738,
      "ized": 1739,
      "Ġdescent": 1740,
      "Ġrequis": 1741,
      "Ġoffice": 1742,
      "Ġexercise": 1743,
      "Ġpublius": 1744,
      "Ġhardly": 1745,
      "coun": 1746,
      "cross": 1747,
      "pal": 1748,
      "Ġcal": 1749,
      "Ġmis": 1750,
      "ices": 1751,
      "legislat": 1752,
      "ingu": 1753,
      "Ġlook": 1754,
      "Ġtimes": 1755,
      "Ġprobable": 1756,
      "Ġjudges": 1757,
      "Ġrather": 1758,
      "Ġcommerce": 1759,
      "ry": 1760,
      "inst": 1761,
      "Ġsix": 1762,
      "anim": 1763,
      "Ġfut": 1764,
      "Ġmult": 1765,
      "arm": 1766,
      "Ġreven": 1767,
      "there": 1768,
      "Ġdem": 1769,
      "ield": 1770,
      "clude": 1771,
      "Ġdistant": 1772,
      "Ġlarger": 1773,
      "Ġattention": 1774,
      "Ġdescendants": 1775,
      "Ġremarked": 1776,
      "mitted": 1777,
      "pire": 1778,
      "Ġthing": 1779,
      "org": 1780,
      "than": 1781,
      "iments": 1782,
      "Ġexper": 1783,
      "Ġleft": 1784,
      "Ġvariations": 1785,
      "itional": 1786,
      "Ġperiods": 1787,
      "Ġoffspring": 1788,
      "Ġvalue": 1789,
      "Ġarticle": 1790,
      "between": 1791,
      "each": 1792,
      "sim": 1793,
      "ton": 1794,
      "tect": 1795,
      "inted": 1796,
      "Ġbear": 1797,
      "uten": 1798,
      "rud": 1799,
      "Ġ19": 1800,
      "Ġrequire": 1801,
      "Ġevidence": 1802,
      "Ġaffin": 1803,
      "Ġdiver": 1804,
      "Ġconsequently": 1805,
      "possible": 1806,
      "aim": 1807,
      "Ġturn": 1808,
      "Ġser": 1809,
      "Ġsay": 1810,
      "Ġele": 1811,
      "Ġwholly": 1812,
      "Ġprogen": 1813,
      "ively": 1814,
      "pecially": 1815,
      "rust": 1816,
      "Ġsole": 1817,
      "Ġparties": 1818,
      "Ġinterv": 1819,
      "Ġking": 1820,
      "Ġacts": 1821,
      "ock": 1822,
      "Ġrelated": 1823,
      "Ġfertility": 1824,
      "Ġhistory": 1825,
      "hib": 1826,
      "men": 1827,
      "some": 1828,
      "atic": 1829,
      "Ġpa": 1830,
      "icy": 1831,
      "Ġunivers": 1832,
      "Ġviews": 1833,
      "formation": 1834,
      "Ġsafe": 1835,
      "Ġseparate": 1836,
      "ission": 1837,
      "Ġmilitary": 1838,
      "Ġmeasures": 1839,
      "utenberg": 1840,
      "iable": 1841,
      "Ġerr": 1842,
      "Ġobl": 1843,
      "ened": 1844,
      "Ġway": 1845,
      "Ġcre": 1846,
      "Ġlay": 1847,
      "Ġseed": 1848,
      "Ġneg": 1849,
      "achments": 1850,
      "veni": 1851,
      "ĠĠĠĠ": 1852,
      "Ġcomplete": 1853,
      "Ġordinary": 1854,
      "Ġide": 1855,
      "Ġspe": 1856,
      "ane": 1857,
      "aries": 1858,
      "Ġhundred": 1859,
      "rown": 1860,
      "Ġwhom": 1861,
      "Ġconstru": 1862,
      "ighb": 1863,
      "anted": 1864,
      "riend": 1865,
      "Ġconsiderations": 1866,
      "fully": 1867,
      "Ġappears": 1868,
      "Ġofficers": 1869,
      "Ġconfederacy": 1870,
      "Ġextremely": 1871,
      "Ġkept": 1872,
      "Ġappointment": 1873,
      "Ġrudimentary": 1874,
      "just": 1875,
      "vious": 1876,
      "Ġed": 1877,
      "Ġthird": 1878,
      "Ġoce": 1879,
      "enn": 1880,
      "reason": 1881,
      "Ġsw": 1882,
      "Ġcr": 1883,
      "Ġfac": 1884,
      "Ġday": 1885,
      "enty": 1886,
      "Ġlight": 1887,
      "Ġuniform": 1888,
      "ume": 1889,
      "together": 1890,
      "Ġalthough": 1891,
      "Ġconstitutions": 1892,
      "ordin": 1893,
      "Ġattempt": 1894,
      "Ġconfederation": 1895,
      "Ġconnected": 1896,
      "contin": 1897,
      "crib": 1898,
      "Ġwater": 1899,
      "oured": 1900,
      "ceived": 1901,
      "ational": 1902,
      "Ġconclus": 1903,
      "ime": 1904,
      "uration": 1905,
      "ulated": 1906,
      "Ġmamm": 1907,
      "eties": 1908,
      "Ġimag": 1909,
      "Ġparty": 1910,
      "Ġgenerations": 1911,
      "Ġdiscuss": 1912,
      "Ġcontrary": 1913,
      "Ġestablished": 1914,
      "Ġdepartments": 1915,
      "Ġrepublican": 1916,
      "Ġcontinued": 1917,
      "Ġdestroy": 1918,
      "Ġclearly": 1919,
      "Ġadministration": 1920,
      "Ġrules": 1921,
      "Ġten": 1922,
      "ont": 1923,
      "Ġsize": 1924,
      "Ġden": 1925,
      "urally": 1926,
      "Ġextr": 1927,
      "term": 1928,
      "ibly": 1929,
      "Ġdisp": 1930,
      "bel": 1931,
      "formed": 1932,
      "Ġobt": 1933,
      "Ġyear": 1934,
      "Ġhabit": 1935,
      "airs": 1936,
      "Ġrendered": 1937,
      "Ġinherited": 1938,
      "appear": 1939,
      "has": 1940,
      "kind": 1941,
      "power": 1942,
      "Ġsatis": 1943,
      "Ġple": 1944,
      "Ġhope": 1945,
      "Ġearly": 1946,
      "rupt": 1947,
      "Ġappar": 1948,
      "ishment": 1949,
      "Ġvariability": 1950,
      "Ġcontinent": 1951,
      "Ġcountries": 1952,
      "Ġclasses": 1953,
      "Ġprevent": 1954,
      "Ġinherit": 1955,
      "Ġpractice": 1956,
      "Ġmagistrate": 1957,
      "ling": 1958,
      "Ġpige": 1959,
      "Ġhor": 1960,
      "Ġexter": 1961,
      "resh": 1962,
      "Ġneed": 1963,
      "Ġconsideration": 1964,
      "Ġjustice": 1965,
      "Ġbranches": 1966,
      "Ġinstincts": 1967,
      "Ġduties": 1968,
      "Ġguard": 1969,
      "Ġlabour": 1970,
      "Ġfuture": 1971,
      "author": 1972,
      "great": 1973,
      "lf": 1974,
      "mit": 1975,
      "ata": 1976,
      "Ġbene": 1977,
      "Ġcur": 1978,
      "Ġfish": 1979,
      "Ġnamely": 1980,
      "Ġgutenberg": 1981,
      "Ġpropriety": 1982,
      "Ġunf": 1983,
      "Ġarea": 1984,
      "adv": 1985,
      "Ġvariable": 1986,
      "ervations": 1987,
      "Ġflower": 1988,
      "Ġproperty": 1989,
      "should": 1990,
      "Ġhimself": 1991,
      "plicable": 1992,
      "Ġarticles": 1993,
      "Ġphys": 1994,
      "Ġcreated": 1995,
      "me": 1996,
      "oid": 1997,
      "Ġsil": 1998,
      "Ġcent": 1999,
      "Ġinclud": 2000,
      "Ġdone": 2001,
      "Ġnav": 2002,
      "oment": 2003,
      "Ġunless": 2004,
      "Ġjealous": 2005,
      "Ġappro": 2006,
      "Ġremain": 2007,
      "Ġ18": 2008,
      "Ġamerican": 2009,
      "Ġafford": 2010,
      "equal": 2011,
      "ax": 2012,
      "like": 2013,
      "Ġmoney": 2014,
      "ending": 2015,
      "Ġchance": 2016,
      "iber": 2017,
      "Ġplant": 2018,
      "aving": 2019,
      "Ġfounded": 2020,
      "Ġstrict": 2021,
      "Ġknowledge": 2022,
      "Ġmilitia": 2023,
      "Ġopinion": 2024,
      "ev": 2025,
      "ffer": 2026,
      "water": 2027,
      "xt": 2028,
      "itor": 2029,
      "Ġbound": 2030,
      "ises": 2031,
      "Ġpun": 2032,
      "Ġfresh": 2033,
      "Ġbees": 2034,
      "pel": 2035,
      "asions": 2036,
      "Ġexp": 2037,
      "Ġneighb": 2038,
      "Ġallow": 2039,
      "trib": 2040,
      "Ġprec": 2041,
      "angu": 2042,
      "Ġexisted": 2043,
      "Ġsimple": 2044,
      "Ġpolicy": 2045,
      "Ġdivers": 2046,
      "Ġcarri": 2047,
      "Ġespecially": 2048,
      "charact": 2049,
      "cure": 2050,
      "ges": 2051,
      "atch": 2052,
      "Ġsent": 2053,
      "Ġmass": 2054,
      "arr": 2055,
      "Ġlength": 2056,
      "Ġset": 2057,
      "Ġdefect": 2058,
      "used": 2059,
      "Ġparents": 2060,
      "acies": 2061,
      "Ġappreh": 2062,
      "Ġconsist": 2063,
      "who": 2064,
      "exist": 2065,
      "Ġused": 2066,
      "princi": 2067,
      "Ġflowers": 2068,
      "Ġindeed": 2069,
      "Ġsaf": 2070,
      "Ġcorrespond": 2071,
      "Ġpurposes": 2072,
      "Ġcomplex": 2073,
      "====": 2074,
      "Ġrevenue": 2075,
      "mber": 2076,
      "sl": 2077,
      "ufact": 2078,
      "reed": 2079,
      "att": 2080,
      "Ġce": 2081,
      "ann": 2082,
      "anic": 2083,
      "Ġmount": 2084,
      "those": 2085,
      "Ġsuffer": 2086,
      "pot": 2087,
      "acity": 2088,
      "posing": 2089,
      "ayed": 2090,
      "Ġresour": 2091,
      "Ġnaturalists": 2092,
      "Ġconfidence": 2093,
      "forms": 2094,
      "Ġrecord": 2095,
      "Ġfavourable": 2096,
      "Ġhighly": 2097,
      "Ġetc": 2098,
      "ĠâĢľ": 2099,
      "Ġmutual": 2100,
      "Ġemployed": 2101,
      "cretion": 2102,
      "Ġrequisite": 2103,
      "ake": 2104,
      "cceed": 2105,
      "occ": 2106,
      "ues": 2107,
      "alth": 2108,
      "Ġduration": 2109,
      "Ġeff": 2110,
      "Ġconstant": 2111,
      "Ġsuper": 2112,
      "Ġmot": 2113,
      "Ġunknown": 2114,
      "Ġdepos": 2115,
      "Ġrange": 2116,
      "Ġnext": 2117,
      "ference": 2118,
      "Ġimperfect": 2119,
      "Ġconsent": 2120,
      "what": 2121,
      "Ġground": 2122,
      "Ġprovided": 2123,
      "Ġthought": 2124,
      "Ġadmitted": 2125,
      "Ġstrength": 2126,
      "Ġrelations": 2127,
      "teen": 2128,
      "Ġimproved": 2129,
      "Ġobserved": 2130,
      "distinct": 2131,
      "Ġslowly": 2132,
      "number": 2133,
      "necessary": 2134,
      "awn": 2135,
      "bed": 2136,
      "raph": 2137,
      "same": 2138,
      "tw": 2139,
      "Ġ9": 2140,
      "Ġver": 2141,
      "onder": 2142,
      "itable": 2143,
      "Ġbill": 2144,
      "Ġant": 2145,
      "Ġmoment": 2146,
      "Ġdown": 2147,
      "Ġprogress": 2148,
      "ilton": 2149,
      "Ġgreatly": 2150,
      "Ġages": 2151,
      "Ġextinction": 2152,
      "Ġfeet": 2153,
      "Ġ13": 2154,
      "Ġtrib": 2155,
      "Ġaccom": 2156,
      "lected": 2157,
      "Ġevident": 2158,
      "ails": 2159,
      "Ġdefense": 2160,
      "Ġimprove": 2161,
      "Ġspecial": 2162,
      "Ġbritish": 2163,
      "Ġtaxation": 2164,
      "Ġexplained": 2165,
      "Ġfrequently": 2166,
      "Ġfamil": 2167,
      "Ġexternal": 2168,
      "eav": 2169,
      "lt": 2170,
      "inc": 2171,
      "Ġfund": 2172,
      "leg": 2173,
      "sever": 2174,
      "Ġlow": 2175,
      "Ġexposed": 2176,
      "Ġrate": 2177,
      "olution": 2178,
      "Ġchec": 2179,
      "acial": 2180,
      "Ġnaturally": 2181,
      "Ġpos": 2182,
      "bec": 2183,
      "ordinary": 2184,
      "Ġobvious": 2185,
      "Ġterm": 2186,
      "Ġperfectly": 2187,
      "Ġexample": 2188,
      "Ġjudgment": 2189,
      "Ġkeep": 2190,
      "Ġduty": 2191,
      "Ġgrowth": 2192,
      "Ġsource": 2193,
      "Ġoblig": 2194,
      "Ġsafety": 2195,
      "'s": 2196,
      "ament": 2197,
      "dden": 2198,
      "Ġaid": 2199,
      "Ġbat": 2200,
      "Ġwhile": 2201,
      "Ġlo": 2202,
      "urp": 2203,
      "Ġprom": 2204,
      "pointed": 2205,
      "Ġsoon": 2206,
      "Ġyour": 2207,
      "individ": 2208,
      "Ġabove": 2209,
      "Ġlesser": 2210,
      "Ġdifficulties": 2211,
      "Ġoffices": 2212,
      "Ġrepresentative": 2213,
      "Ġappearance": 2214,
      "varieties": 2215,
      "Ġ1788": 2216,
      "important": 2217,
      "such": 2218,
      "Ġ7": 2219,
      "Ġthings": 2220,
      "Ġage": 2221,
      "Ġwild": 2222,
      "Ġlost": 2223,
      "Ġresembl": 2224,
      "Ġsudden": 2225,
      "Ġmaint": 2226,
      "ensions": 2227,
      "Ġ14": 2228,
      "Ġbrought": 2229,
      "Ġaccount": 2230,
      "sub": 2231,
      "Ġobjections": 2232,
      "Ġsubs": 2233,
      "Ġcorrel": 2234,
      "Ġadvantages": 2235,
      "Ġintro": 2236,
      "Ġsouthern": 2237,
      "Ġmerely": 2238,
      "Ġpopular": 2239,
      "ium": 2240,
      "iary": 2241,
      "ram": 2242,
      "Ġsed": 2243,
      "Ġbor": 2244,
      "Ġinqu": 2245,
      "Ġfru": 2246,
      "thod": 2247,
      "Ġegg": 2248,
      "lled": 2249,
      "irm": 2250,
      "people": 2251,
      "Ġexped": 2252,
      "Ġweak": 2253,
      "ember": 2254,
      "ishing": 2255,
      "Ġabs": 2256,
      "iously": 2257,
      "particular": 2258,
      "Ġcolour": 2259,
      "Ġsmaller": 2260,
      "ixed": 2261,
      "Ġconcurr": 2262,
      "Ġidea": 2263,
      "Ġinheritance": 2264,
      "after": 2265,
      "lim": 2266,
      "might": 2267,
      "yl": 2268,
      "yond": 2269,
      "Ġthir": 2270,
      "ines": 2271,
      "Ġinjur": 2272,
      "Ġtowards": 2273,
      "icate": 2274,
      "icable": 2275,
      "selection": 2276,
      "Ġloo": 2277,
      "Ġrepro": 2278,
      "Ġsuperi": 2279,
      "Ġplaced": 2280,
      "conveni": 2281,
      "Ġado": 2282,
      "posite": 2283,
      "Ġenem": 2284,
      "Ġremote": 2285,
      "ograph": 2286,
      "Ġtrade": 2287,
      "Ġnecessarily": 2288,
      "soci": 2289,
      "Ġclassification": 2290,
      "Ġcondition": 2291,
      "Ġimproper": 2292,
      "Ġsuccession": 2293,
      "Ġelected": 2294,
      "aws": 2295,
      "Ġexpected": 2296,
      "ordinate": 2297,
      "14": 2298,
      "bit": 2299,
      "bly": 2300,
      "cir": 2301,
      "kes": 2302,
      "must": 2303,
      "ining": 2304,
      "Ġsk": 2305,
      "arce": 2306,
      "ically": 2307,
      "Ġelection": 2308,
      "omes": 2309,
      "igor": 2310,
      "Ġsucceed": 2311,
      "Ġpros": 2312,
      "Ġprotect": 2313,
      "ters": 2314,
      "Ġmoder": 2315,
      "theless": 2316,
      "perate": 2317,
      "plies": 2318,
      "Ġarch": 2319,
      "Ġextensive": 2320,
      "Ġinstru": 2321,
      "Ġconfined": 2322,
      "Ġcommonly": 2323,
      "Ġprovide": 2324,
      "Ġaffairs": 2325,
      "Ġremarkable": 2326,
      "Ġkinds": 2327,
      "Ġtransport": 2328,
      "plication": 2329,
      "Ġoperation": 2330,
      "Ġeasily": 2331,
      "Ġearth": 2332,
      "Ġzeal": 2333,
      "federalist": 2334,
      "Ġderived": 2335,
      "Ġdeveloped": 2336,
      "Ġmulti": 2337,
      "Ġintervals": 2338,
      "advant": 2339,
      "_.": 2340,
      "national": 2341,
      "ators": 2342,
      "atives": 2343,
      "Ġsince": 2344,
      "Ġput": 2345,
      "Ġinformation": 2346,
      "origin": 2347,
      "stri": 2348,
      "Ġliable": 2349,
      "Ġrest": 2350,
      "Ġrelat": 2351,
      "Ġexc": 2352,
      "Ġmain": 2353,
      "Ġchoice": 2354,
      "Ġjour": 2355,
      "well": 2356,
      "Ġpowerful": 2357,
      "Ġsubsequ": 2358,
      "pread": 2359,
      "Ġdomin": 2360,
      "ology": 2361,
      "Ġcrosses": 2362,
      "Ġprevail": 2363,
      "Ġconsequence": 2364,
      "Ġfertile": 2365,
      "Ġdeclar": 2366,
      "Ġmeasure": 2367,
      "confeder": 2368,
      "Ġmammals": 2369,
      "Ġow": 2370,
      "Ġinte": 2371,
      "Ġfem": 2372,
      "alle": 2373,
      "Ġdid": 2374,
      "Ġeb": 2375,
      "Ġham": 2376,
      "Ġuntil": 2377,
      "Ġnear": 2378,
      "Ġimpe": 2379,
      "Ġimpossible": 2380,
      "Ġapt": 2381,
      "Ġagency": 2382,
      "ogn": 2383,
      "Ġauthors": 2384,
      "ivided": 2385,
      "Ġrepresentation": 2386,
      "Ġexecution": 2387,
      "Ġbodies": 2388,
      "Ġformerly": 2389,
      "Ġterrit": 2390,
      "many": 2391,
      "Ġelections": 2392,
      "Ġlimited": 2393,
      "Ġtaxes": 2394,
      "Ġglacial": 2395,
      "Ġranked": 2396,
      "Ġjudicial": 2397,
      "Ġuniversal": 2398,
      "aff": 2399,
      "could": 2400,
      "col": 2401,
      "object": 2402,
      "Ġ6": 2403,
      "Ġir": 2404,
      "ones": 2405,
      "ator": 2406,
      "Ġincl": 2407,
      "Ġfood": 2408,
      "Ġfriend": 2409,
      "Ġexact": 2410,
      "ilst": 2411,
      "Ġvast": 2412,
      "Ġdetermin": 2413,
      "Ġdeterm": 2414,
      "establ": 2415,
      "ush": 2416,
      "ferred": 2417,
      "Ġdog": 2418,
      "Ġmodifications": 2419,
      "Ġprincipal": 2420,
      "Ġreasons": 2421,
      "Ġobservations": 2422,
      "Ġoccasional": 2423,
      "ductive": 2424,
      "Ġarmies": 2425,
      "going": 2426,
      "desc": 2427,
      "Ġexperiment": 2428,
      "ographical": 2429,
      "cor": 2430,
      "cal": 2431,
      "every": 2432,
      "gin": 2433,
      "how": 2434,
      "ians": 2435,
      "obs": 2436,
      "xim": 2437,
      "ĠâĢĶ": 2438,
      "Ġcand": 2439,
      "Ġpal": 2440,
      "Ġfif": 2441,
      "sec": 2442,
      "Ġrepe": 2443,
      "Ġvir": 2444,
      "umer": 2445,
      "umed": 2446,
      "period": 2447,
      "Ġimp": 2448,
      "Ġdisposition": 2449,
      "prov": 2450,
      "Ġpreced": 2451,
      "Ġremains": 2452,
      "arked": 2453,
      "Ġregular": 2454,
      "Ġdegrees": 2455,
      "shall": 2456,
      "Ġspecific": 2457,
      "standing": 2458,
      "Ġsurpr": 2459,
      "Ġoriginal": 2460,
      "Ġfrequent": 2461,
      "Ġarmy": 2462,
      "Ġimmediately": 2463,
      "large": 2464,
      "Ġplainly": 2465,
      "Ġmigration": 2466,
      "Ġprecise": 2467,
      "Ġresources": 2468,
      "ties": 2469,
      "Ġve": 2470,
      "Ġtro": 2471,
      "Ġthick": 2472,
      "inde": 2473,
      "ature": 2474,
      "ites": 2475,
      "Ġcells": 2476,
      "anced": 2477,
      "Ġmet": 2478,
      "Ġmale": 2479,
      "Ġconclude": 2480,
      "Ġfort": 2481,
      "Ġsuff": 2482,
      "pol": 2483,
      "Ġperman": 2484,
      "Ġdispl": 2485,
      "Ġmethod": 2486,
      "Ġtwenty": 2487,
      "Ġinstead": 2488,
      "Ġopposition": 2489,
      "Ġslaves": 2490,
      "Ġrequired": 2491,
      "sembly": 2492,
      "Ġseparated": 2493,
      "general": 2494,
      "Ġpersonal": 2495,
      "Ġreturn": 2496,
      "Ġacquired": 2497,
      "Ġcouncils": 2498,
      "Ġutter": 2499,
      "Ġsexual": 2500,
      "Ġcontrol": 2501,
      "Ġrarely": 2502,
      "Ġprogenitor": 2503,
      "Ġcreation": 2504,
      "Ġjournal": 2505,
      "af": 2506,
      "he": 2507,
      "long": 2508,
      "Ġte": 2509,
      "Ġsac": 2510,
      "Ġsides": 2511,
      "Ġbro": 2512,
      "Ġcop": 2513,
      "Ġport": 2514,
      "Ġmales": 2515,
      "ster": 2516,
      "Ġget": 2517,
      "Ġsugg": 2518,
      "Ġvol": 2519,
      "aint": 2520,
      "empl": 2521,
      "Ġmanufact": 2522,
      "Ġgreatest": 2523,
      "when": 2524,
      "exec": 2525,
      "Ġenough": 2526,
      "Ġusurp": 2527,
      "Ġopposite": 2528,
      "Ġlikewise": 2529,
      "Ġpursu": 2530,
      "Ġrecent": 2531,
      "Ġdangerous": 2532,
      "Ġterms": 2533,
      "Ġlimit": 2534,
      "Ġclear": 2535,
      "ustral": 2536,
      "Ġfamily": 2537,
      "Ġeasy": 2538,
      "ports": 2539,
      "Ġstriking": 2540,
      "Ġdiverg": 2541,
      "Ġpaper": 2542,
      "Ġextra": 2543,
      "Ġphysical": 2544,
      "Ġstrictly": 2545,
      "cing": 2546,
      "ipel": 2547,
      "ring": 2548,
      "Ġ8": 2549,
      "Ġtrees": 2550,
      "atory": 2551,
      "Ġserve": 2552,
      "Ġwrit": 2553,
      "Ġpat": 2554,
      "Ġfail": 2555,
      "Ġbeyond": 2556,
      "ctr": 2557,
      "Ġline": 2558,
      "Ġreject": 2559,
      "Ġur": 2560,
      "asing": 2561,
      "Ġdet": 2562,
      "Ġareas": 2563,
      "conom": 2564,
      "Ġdiff": 2565,
      "try": 2566,
      "ension": 2567,
      "Ġdistingu": 2568,
      "gisl": 2569,
      "Ġindis": 2570,
      "Ġfirm": 2571,
      "Ġauthorities": 2572,
      "Ġprovisions": 2573,
      "Ġopen": 2574,
      "Ġjudge": 2575,
      "Ġadmir": 2576,
      "Ġscarce": 2577,
      "osen": 2578,
      "semble": 2579,
      "Ġsecondary": 2580,
      "Ġcapacity": 2581,
      "Ġanalogous": 2582,
      "Ġtyr": 2583,
      "Ġservice": 2584,
      "Ġcalcul": 2585,
      "ipelag": 2586,
      "ires": 2587,
      "pige": 2588,
      "were": 2589,
      "Ġ5": 2590,
      "Ġtill": 2591,
      "inhabit": 2592,
      "only": 2593,
      "Ġfair": 2594,
      "Ġnest": 2595,
      "ctic": 2596,
      "Ġwhilst": 2597,
      "Ġstage": 2598,
      "Ġextermin": 2599,
      "Ġvot": 2600,
      "Ġdeb": 2601,
      "Ġapply": 2602,
      "Ġclause": 2603,
      "Ġinternal": 2604,
      "Ġpreserved": 2605,
      "Ġpreservation": 2606,
      "Ġsupposition": 2607,
      "success": 2608,
      "lands": 2609,
      "Ġoppress": 2610,
      "comp": 2611,
      "Ġcompared": 2612,
      "Ġincreased": 2613,
      "Ġdrawn": 2614,
      "Ġquestions": 2615,
      "factory": 2616,
      "Ġsterile": 2617,
      "Ġcattle": 2618,
      "Ġadapted": 2619,
      "Ġmeaning": 2620,
      "Ġcomparison": 2621,
      "Ġbelonging": 2622,
      "authority": 2623,
      "Ġfamilies": 2624,
      "amental": 2625,
      "ipelago": 2626,
      "pes": 2627,
      "right": 2628,
      "rific": 2629,
      "inces": 2630,
      "Ġinstit": 2631,
      "Ġfurn": 2632,
      "Ġmater": 2633,
      "orts": 2634,
      "orph": 2635,
      "Ġhal": 2636,
      "Ġrecomm": 2637,
      "igation": 2638,
      "Ġproof": 2639,
      "uls": 2640,
      "respect": 2641,
      "Ġrh": 2642,
      "erted": 2643,
      "duction": 2644,
      "Ġconstitu": 2645,
      "ounded": 2646,
      "anges": 2647,
      "suffici": 2648,
      "Ġlonger": 2649,
      "Ġprobability": 2650,
      "Ġslightly": 2651,
      "Ġdeliber": 2652,
      "Ġfourth": 2653,
      "Ġprofess": 2654,
      "Ġprivate": 2655,
      "Ġsafely": 2656,
      "Ġexpense": 2657,
      "allel": 2658,
      ",\"": 2659,
      "cap": 2660,
      "fir": 2661,
      "uck": 2662,
      "Ġsal": 2663,
      "Ġspread": 2664,
      "Ġgives": 2665,
      "Ġlive": 2666,
      "verse": 2667,
      "ury": 2668,
      "Ġste": 2669,
      "Ġsection": 2670,
      "Ġprohib": 2671,
      "Ġmaxim": 2672,
      "achment": 2673,
      "union": 2674,
      "united": 2675,
      "Ġappointed": 2676,
      "Ġdiscretion": 2677,
      "again": 2678,
      "Ġsupply": 2679,
      "Ġremo": 2680,
      "Ġnevertheless": 2681,
      "Ġlimits": 2682,
      "Ġchanged": 2683,
      "Ġstanding": 2684,
      "Ġfinally": 2685,
      "Ġearl": 2686,
      "Ġabsolutely": 2687,
      "Ġcompetition": 2688,
      "Ġaway": 2689,
      "Ġargument": 2690,
      "Ġeggs": 2691,
      "ctrine": 2692,
      "here": 2693,
      "jo": 2694,
      "ued": 2695,
      "Ġly": 2696,
      "itive": 2697,
      "edit": 2698,
      "Ġfill": 2699,
      "Ġreceive": 2700,
      "usiness": 2701,
      "Ġjo": 2702,
      "Ġclaim": 2703,
      "ague": 2704,
      "ultiv": 2705,
      "Ġenabl": 2706,
      "Ġenorm": 2707,
      "Ġquar": 2708,
      "Ġdesign": 2709,
      "Ġactual": 2710,
      "Ġgeographical": 2711,
      "Ġscale": 2712,
      "Ġcircumstance": 2713,
      "Ġoccasionally": 2714,
      "common": 2715,
      "Ġtried": 2716,
      "Ġeuropean": 2717,
      "Ġcapable": 2718,
      "Ġregulation": 2719,
      "Ġinferior": 2720,
      "Ġestablishment": 2721,
      "Ġchiefly": 2722,
      "Ġdivision": 2723,
      "similar": 2724,
      "Ġpigeons": 2725,
      "several": 2726,
      "effect": 2727,
      "pic": 2728,
      "wor": 2729,
      "Ġaustral": 2730,
      "enced": 2731,
      "atal": 2732,
      "Ġsch": 2733,
      "Ġsens": 2734,
      "Ġpure": 2735,
      "Ġfly": 2736,
      "Ġfun": 2737,
      "utes": 2738,
      "Ġasked": 2739,
      "ask": 2740,
      "ils": 2741,
      "Ġraces": 2742,
      "Ġparallel": 2743,
      "deg": 2744,
      "Ġmankind": 2745,
      "Ġyield": 2746,
      "ongrel": 2747,
      "Ġdisuse": 2748,
      "Ġpartial": 2749,
      "Ġclim": 2750,
      "Ġcommand": 2751,
      "Ġdistr": 2752,
      "agram": 2753,
      "Ġresp": 2754,
      "latter": 2755,
      "âĢĿ": 2756,
      "Ġenumer": 2757,
      "pract": 2758,
      "version": 2759,
      "Ġfoundation": 2760,
      "Ġnorthern": 2761,
      "Ġ39": 2762,
      "Ġ25": 2763,
      "Ġorganisation": 2764,
      "Ġlargely": 2765,
      "Ġcontrib": 2766,
      "Ġhappiness": 2767,
      "Ġfollowing": 2768,
      "Ġmonarch": 2769,
      "Ġlines": 2770,
      "Ġreadily": 2771,
      "Ġmarked": 2772,
      "Ġprivile": 2773,
      "course": 2774,
      "Ġeye": 2775,
      "animals": 2776,
      "Ġaffinities": 2777,
      "Ġjealousy": 2778,
      "Ġtribun": 2779,
      "conomy": 2780,
      "his": 2781,
      "joy": 2782,
      "ores": 2783,
      "sp": 2784,
      "time": 2785,
      "Ġign": 2786,
      "into": 2787,
      "orious": 2788,
      "Ġhon": 2789,
      "cell": 2790,
      "Ġassembly": 2791,
      "idently": 2792,
      "Ġrun": 2793,
      "Ġcomposed": 2794,
      "aded": 2795,
      "Ġlegisl": 2796,
      "offic": 2797,
      "acc": 2798,
      "ached": 2799,
      "ription": 2800,
      "Ġarms": 2801,
      "Ġintercross": 2802,
      "Ġdistance": 2803,
      "Ġdistinction": 2804,
      "Ġprey": 2805,
      "Ġpreca": 2806,
      "Ġdoctrine": 2807,
      "Ġresist": 2808,
      "Ġregions": 2809,
      "Ġfaction": 2810,
      "Ġmember": 2811,
      "without": 2812,
      "Ġendeav": 2813,
      "Ġorders": 2814,
      "representatives": 2815,
      "Ġfaith": 2816,
      "Ġelse": 2817,
      "Ġconclusion": 2818,
      "Ġcarried": 2819,
      "two": 2820,
      "Ġenemies": 2821,
      "Ġarchipelago": 2822,
      "ape": 2823,
      "cle": 2824,
      "cases": 2825,
      "ls": 2826,
      "syl": 2827,
      "van": 2828,
      "was": 2829,
      "erable": 2830,
      "Ġpay": 2831,
      "Ġprud": 2832,
      "Ġintr": 2833,
      "Ġfit": 2834,
      "Ġbea": 2835,
      "Ġdimin": 2836,
      "Ġdivided": 2837,
      "thus": 2838,
      "Ġger": 2839,
      "Ġready": 2840,
      "Ġstock": 2841,
      "ldom": 2842,
      "Ġseldom": 2843,
      "ults": 2844,
      "Ġcompreh": 2845,
      "Ġotherwise": 2846,
      "Ġchosen": 2847,
      "ruction": 2848,
      "Ġagree": 2849,
      "Ġregion": 2850,
      "Ġempire": 2851,
      "Ġconfederacies": 2852,
      "difficult": 2853,
      "Ġpassions": 2854,
      "nature": 2855,
      "Ġdirectly": 2856,
      "Ġillustr": 2857,
      "Ġambition": 2858,
      "ennsyl": 2859,
      "Ġapparently": 2860,
      "circumst": 2861,
      "first": 2862,
      "vania": 2863,
      "ennsylvania": 2864,
      "aken": 2865,
      "iance": 2866,
      "put": 2867,
      "view": 2868,
      "inced": 2869,
      "Ġsir": 2870,
      "itors": 2871,
      "Ġwish": 2872,
      "Ġwax": 2873,
      "Ġwonder": 2874,
      "Ġfle": 2875,
      "Ġfive": 2876,
      "Ġlat": 2877,
      "vert": 2878,
      "verage": 2879,
      "Ġprove": 2880,
      "def": 2881,
      "Ġmoreover": 2882,
      "Ġsomething": 2883,
      "prob": 2884,
      "Ġlaid": 2885,
      "Ġmeet": 2886,
      "irection": 2887,
      "Ġprescrib": 2888,
      "Ġpossibly": 2889,
      "Ġ30": 2890,
      "withstanding": 2891,
      "conditions": 2892,
      "Ġindependence": 2893,
      "disc": 2894,
      "generally": 2895,
      "regard": 2896,
      "modification": 2897,
      "Ġetext": 2898,
      "Ġengland": 2899,
      "Ġaffected": 2900,
      "Ġvarying": 2901,
      "Ġraised": 2902,
      "Ġadapt": 2903,
      "Ġentirely": 2904,
      "Ġdestroyed": 2905,
      "Ġcorresponding": 2906,
      "Ġinquir": 2907,
      "Ġutterly": 2908,
      "Ġhalf": 2909,
      "citizens": 2910,
      "ii": 2911,
      "mission": 2912,
      "nes": 2913,
      "ops": 2914,
      "uous": 2915,
      "zard": 2916,
      "ery": 2917,
      "Ġbusiness": 2918,
      "anation": 2919,
      "Ġinconveni": 2920,
      "Ġmill": 2921,
      "Ġmongrel": 2922,
      "Ġtot": 2923,
      "outh": 2924,
      "Ġdays": 2925,
      "Ġnom": 2926,
      "Ġled": 2927,
      "uting": 2928,
      "urd": 2929,
      "Ġassoci": 2930,
      "asure": 2931,
      "Ġsecure": 2932,
      "Ġsure": 2933,
      "Ġunite": 2934,
      "Ġwealth": 2935,
      "Ġrich": 2936,
      "Ġshare": 2937,
      "conv": 2938,
      "constit": 2939,
      "cial": 2940,
      "Ġgeneration": 2941,
      "proper": 2942,
      "class": 2943,
      "Ġourselves": 2944,
      "Ġabol": 2945,
      "Ġenc": 2946,
      "Ġsubordinate": 2947,
      "icip": 2948,
      "Ġoccasions": 2949,
      "Ġ36": 2950,
      "Ġrespects": 2951,
      "Ġdangers": 2952,
      "Ġhigher": 2953,
      "Ġdiagram": 2954,
      "Ġacknow": 2955,
      "Ġadditional": 2956,
      "Ġintended": 2957,
      "imately": 2958,
      "Ġpossessed": 2959,
      "Ġcarry": 2960,
      "Ġstandard": 2961,
      "pensable": 2962,
      "Ġdominant": 2963,
      "Ġhamilton": 2964,
      "Ġpermanent": 2965,
      "Ġtyrann": 2966,
      "Ġvotes": 2967,
      "degree": 2968,
      "do": 2969,
      "ded": 2970,
      "ials": 2971,
      "powers": 2972,
      "ra": 2973,
      "sc": 2974,
      "sen": 2975,
      "small": 2976,
      "rect": 2977,
      "Ġsign": 2978,
      "Ġbu": 2979,
      "Ġdirection": 2980,
      "Ġisol": 2981,
      "urian": 2982,
      "Ġseven": 2983,
      "iles": 2984,
      "Ġvict": 2985,
      "Ġattrib": 2986,
      "off": 2987,
      "Ġapplicable": 2988,
      "ored": 2989,
      "Ġremember": 2990,
      "Ġ11": 2991,
      "Ġaccur": 2992,
      "Ġattended": 2993,
      "idental": 2994,
      "Ġ38": 2995,
      "Ġ20": 2996,
      "Ġ28": 2997,
      "Ġcontinue": 2998,
      "Ġproperly": 2999,
      "Ġmyself": 3000,
      "Ġcolon": 3001,
      "Ġcrossing": 3002,
      "Ġdomestication": 3003,
      "Ġdoubtful": 3004,
      "Ġlegs": 3005,
      "Ġavoid": 3006,
      "country": 3007,
      "legislative": 3008,
      "Ġconstruction": 3009,
      "Ġfundamental": 3010,
      "Ġsuperior": 3011,
      "advantage": 3012,
      "executive": 3013,
      "Ġenabled": 3014,
      "doub": 3015,
      "either": 3016,
      "found": 3017,
      "fav": 3018,
      "gy": 3019,
      "hy": 3020,
      "had": 3021,
      "ogis": 3022,
      "rant": 3023,
      "system": 3024,
      "val": 3025,
      "Ġtree": 3026,
      "inations": 3027,
      "incre": 3028,
      "restri": 3029,
      "Ġsy": 3030,
      "Ġwing": 3031,
      "edy": 3032,
      "another": 3033,
      "Ġhost": 3034,
      "thy": 3035,
      "Ġeconomy": 3036,
      "Ġreduced": 3037,
      "verted": 3038,
      "Ġult": 3039,
      "irth": 3040,
      "Ġstated": 3041,
      "Ġstoc": 3042,
      "Ġexceed": 3043,
      "Ġvigor": 3044,
      "Ġneut": 3045,
      "Ġcomes": 3046,
      "Ġleave": 3047,
      "apers": 3048,
      "Ġaltogether": 3049,
      "Ġdissol": 3050,
      "trans": 3051,
      "Ġprejud": 3052,
      "Ġbring": 3053,
      "Ġtrif": 3054,
      "Ġactually": 3055,
      "Ġappeared": 3056,
      "Ġsubstit": 3057,
      "ocr": 3058,
      "Ġtruly": 3059,
      "Ġrepresented": 3060,
      "Ġsenators": 3061,
      "Ġ21": 3062,
      "Ġeffected": 3063,
      "Ġparticularly": 3064,
      "Ġcontract": 3065,
      "governments": 3066,
      "genera": 3067,
      "Ġexercised": 3068,
      "Ġrevolution": 3069,
      "Ġrank": 3070,
      "Ġopinions": 3071,
      "Ġinfinite": 3072,
      "Ġarrange": 3073,
      "Ġdemand": 3074,
      "Ġaffinity": 3075,
      "Ġsatisfactory": 3076,
      "individuals": 3077,
      "Ġrelative": 3078,
      "ĠpalÃ¦": 3079,
      "Ġsacrific": 3080,
      "Ġscarcely": 3081,
      "Ġconstituents": 3082,
      "Ġdistrict": 3083,
      "Ġignor": 3084,
      "restrial": 3085,
      "iation": 3086,
      "ob": 3087,
      "pers": 3088,
      "ral": 3089,
      "Ġthirds": 3090,
      "Ġwords": 3091,
      "ank": 3092,
      "Ġinduce": 3093,
      "Ġfixed": 3094,
      "icted": 3095,
      "icacy": 3096,
      "ctive": 3097,
      "Ġlate": 3098,
      "Ġascertain": 3099,
      "tern": 3100,
      "americ": 3101,
      "quate": 3102,
      "Ġimpress": 3103,
      "Ġlevel": 3104,
      "apid": 3105,
      "Ġadvers": 3106,
      "Ġcommun": 3107,
      "Ġcommitted": 3108,
      "being": 3109,
      "Ġdistric": 3110,
      "ultane": 3111,
      "Ġwhenever": 3112,
      "Ġenjoy": 3113,
      "agement": 3114,
      "Ġ37": 3115,
      "Ġinvol": 3116,
      "Ġaddress": 3117,
      "Ġamongst": 3118,
      "Ġmiles": 3119,
      "Ġconsequences": 3120,
      "Ġdepends": 3121,
      "Ġcontinuous": 3122,
      "Ġexception": 3123,
      "Ġsufficiently": 3124,
      "Ġstrongly": 3125,
      "Ġfinal": 3126,
      "Ġaccumulated": 3127,
      "Ġdiscovered": 3128,
      "Ġsuspect": 3129,
      "Ġarguments": 3130,
      "instance": 3131,
      "characters": 3132,
      "Ġposition": 3133,
      "Ġinjurious": 3134,
      "Ġdetermine": 3135,
      "Ġportion": 3136,
      "Ġextraordinary": 3137,
      "Ġschem": 3138,
      "Ġlegislation": 3139,
      "Ġencro": 3140,
      "ogists": 3141,
      "Ġdistricts": 3142,
      "aking": 3143,
      "hip": 3144,
      "much": 3145,
      "marked": 3146,
      "pass": 3147,
      "uable": 3148,
      "ying": 3149,
      "Ġener": 3150,
      "Ġtre": 3151,
      "Ġaug": 3152,
      "Ġaverage": 3153,
      "Ġwed": 3154,
      "Ġwings": 3155,
      "Ġcred": 3156,
      "Ġpack": 3157,
      "Ġants": 3158,
      "Ġhom": 3159,
      "Ġhive": 3160,
      "Ġbetr": 3161,
      "Ġeight": 3162,
      "Ġresemble": 3163,
      "cember": 3164,
      "Ġconven": 3165,
      "ash": 3166,
      "iding": 3167,
      "Ġselect": 3168,
      "qual": 3169,
      "Ġcompe": 3170,
      "Ġshape": 3171,
      "positions": 3172,
      "cious": 3173,
      "Ġprim": 3174,
      "Ġresol": 3175,
      "ization": 3176,
      "Ġquick": 3177,
      "Ġlarv": 3178,
      "Ġproved": 3179,
      "Ġfederalist": 3180,
      "Ġbelief": 3181,
      "Ġentit": 3182,
      "Ġrequires": 3183,
      "Ġwhereas": 3184,
      "Ġrespective": 3185,
      "Ġgiving": 3186,
      "Ġremarks": 3187,
      "Ġhighest": 3188,
      "structure": 3189,
      "Ġexamples": 3190,
      "Ġdeclare": 3191,
      "Ġmarine": 3192,
      "Ġfreely": 3193,
      "Ġgradations": 3194,
      "artner": 3195,
      "porary": 3196,
      "Ġbarri": 3197,
      "Ġsexes": 3198,
      "domestic": 3199,
      "Ġexclusive": 3200,
      "Ġaccumulation": 3201,
      "Ġembryo": 3202,
      "Ġeyes": 3203,
      "legislature": 3204,
      "Ġseries": 3205,
      "Ġoceanic": 3206,
      "Ġattempted": 3207,
      "lfare": 3208,
      "Ġsilurian": 3209,
      "Ġimprovement": 3210,
      "Ġfruit": 3211,
      "Ġadopt": 3212,
      "original": 3213,
      "pigeon": 3214,
      "Ġaustralia": 3215,
      "Ġrespons": 3216,
      "Ġpacket": 3217,
      "fo": 3218,
      "finite": 3219,
      "ham": 3220,
      "having": 3221,
      "ias": 3222,
      "tts": 3223,
      "uc": 3224,
      "Ġrom": 3225,
      "Ġtum": 3226,
      "Ġtempt": 3227,
      "Ġsort": 3228,
      "ital": 3229,
      "Ġbirth": 3230,
      "Ġwat": 3231,
      "isms": 3232,
      "ora": 3233,
      "alty": 3234,
      "icated": 3235,
      "icious": 3236,
      "sts": 3237,
      "stood": 3238,
      "Ġhazard": 3239,
      "Ġlived": 3240,
      "Ġforb": 3241,
      "Ġstud": 3242,
      "Ġexcess": 3243,
      "igible": 3244,
      "Ġsumm": 3245,
      "ession": 3246,
      "Ġvote": 3247,
      "Ġvested": 3248,
      "Ġnotwithstanding": 3249,
      "ival": 3250,
      "Ġrace": 3251,
      "achuse": 3252,
      "plant": 3253,
      "Ġarising": 3254,
      "proportion": 3255,
      "Ġpress": 3256,
      "Ġpresence": 3257,
      "exam": 3258,
      "Ġsevere": 3259,
      "Ġtaking": 3260,
      "partial": 3261,
      "Ġcontinually": 3262,
      "ooks": 3263,
      "new": 3264,
      "itizen": 3265,
      "Ġcompare": 3266,
      "Ġperfection": 3267,
      "Ġdependent": 3268,
      "Ġexplanation": 3269,
      "Ġfrance": 3270,
      "Ġexceptions": 3271,
      "Ġdestruction": 3272,
      "ustry": 3273,
      "Ġtemperate": 3274,
      "Ġraise": 3275,
      "Ġfacility": 3276,
      "Ġobtained": 3277,
      "Ġhorse": 3278,
      "Ġbenef": 3279,
      "Ġresemblance": 3280,
      "Ġthirteen": 3281,
      "Ġlooking": 3282,
      "Ġterritory": 3283,
      "Ġurged": 3284,
      "inhabitants": 3285,
      "against": 3286,
      "Ġquarter": 3287,
      "nesday": 3288,
      "Ġwednesday": 3289,
      "achusetts": 3290,
      "bre": 3291,
      "case": 3292,
      "hold": 3293,
      "little": 3294,
      "ina": 3295,
      "ered": 3296,
      "ather": 3297,
      "Ġbot": 3298,
      "Ġbeds": 3299,
      "Ġpapers": 3300,
      "Ġinex": 3301,
      "Ġinstitution": 3302,
      "ories": 3303,
      "Ġdict": 3304,
      "Ġlangu": 3305,
      "Ġreceived": 3306,
      "Ġassembl": 3307,
      "Ġself": 3308,
      "amed": 3309,
      "Ġdeleg": 3310,
      "umption": 3311,
      "ologists": 3312,
      "connect": 3313,
      "appoint": 3314,
      "cipro": 3315,
      "arest": 3316,
      "Ġpreserve": 3317,
      "Ġresort": 3318,
      "Ġextended": 3319,
      "Ġtail": 3320,
      "Ġconsidering": 3321,
      "Ġbecomes": 3322,
      "Ġemin": 3323,
      "habited": 3324,
      "Ġentertain": 3325,
      "within": 3326,
      "Ġconvinced": 3327,
      "Ġspace": 3328,
      "Ġterrestrial": 3329,
      "Ġexamined": 3330,
      "Ġseparation": 3331,
      "Ġpassed": 3332,
      "Ġregulations": 3333,
      "Ġrock": 3334,
      "Ġappointments": 3335,
      "Ġdecision": 3336,
      "cluding": 3337,
      "Ġestablishments": 3338,
      "Ġexpressly": 3339,
      "Ġcommercial": 3340,
      "Ġlinks": 3341,
      "Ġutility": 3342,
      "Ġ1787": 3343,
      "Ġgovernor": 3344,
      "Ġdevelopment": 3345,
      "ancy": 3346,
      "Ġmerit": 3347,
      "Ġkingdom": 3348,
      "Ġmountains": 3349,
      "become": 3350,
      "Ġsubsequent": 3351,
      "Ġfriends": 3352,
      "Ġexactly": 3353,
      "Ġdogs": 3354,
      "lia": 3355,
      "rid": 3356,
      "spec": 3357,
      "erog": 3358,
      "onic": 3359,
      "ret": 3360,
      "Ġsol": 3361,
      "Ġbes": 3362,
      "Ġbal": 3363,
      "Ġcultiv": 3364,
      "Ġpennsylvania": 3365,
      "Ġfal": 3366,
      "Ġfitted": 3367,
      "Ġbeg": 3368,
      "ctures": 3369,
      "Ġgre": 3370,
      "Ġgartner": 3371,
      "Ġlie": 3372,
      "Ġreally": 3373,
      "ira": 3374,
      "Ġwelfare": 3375,
      "estion": 3376,
      "antity": 3377,
      "alled": 3378,
      "conc": 3379,
      "Ġperpet": 3380,
      "Ġvaried": 3381,
      "Ġarctic": 3382,
      "bee": 3383,
      "Ġdoing": 3384,
      "Ġfee": 3385,
      "anging": 3386,
      "Ġ16": 3387,
      "Ġindirect": 3388,
      "Ġproduction": 3389,
      "subject": 3390,
      "Ġemb": 3391,
      "Ġopport": 3392,
      "heres": 3393,
      "comple": 3394,
      "Ġcontinents": 3395,
      "former": 3396,
      "Ġcorrupt": 3397,
      "Ġforegoing": 3398,
      "Ġindependently": 3399,
      "Ġblind": 3400,
      "Ġblood": 3401,
      "Ġinterested": 3402,
      "Ġsurr": 3403,
      "Ġsurv": 3404,
      "Ġfollowed": 3405,
      "possess": 3406,
      "Ġreflect": 3407,
      "ĠâĢĿ": 3408,
      "Ġsovereignty": 3409,
      "continued": 3410,
      "belie": 3411,
      "Ġincluding": 3412,
      "Ġsuddenly": 3413,
      "Ġcorrelation": 3414,
      "Ġprospect": 3415,
      "Ġowing": 3416,
      "Ġfemales": 3417,
      "Ġveget": 3418,
      "Ġtroops": 3419,
      "Ġdistinguished": 3420,
      "Ġenormous": 3421,
      "Ġtrifling": 3422,
      ";âĢĶ": 3423,
      "io": 3424,
      "law": 3425,
      "pts": 3426,
      "Ġtert": 3427,
      "atur": 3428,
      "Ġsav": 3429,
      "Ġwise": 3430,
      "Ġpast": 3431,
      "order": 3432,
      "see": 3433,
      "separ": 3434,
      "Ġstages": 3435,
      "chief": 3436,
      "owed": 3437,
      "Ġunequal": 3438,
      "Ġvis": 3439,
      "Ġdecember": 3440,
      "Ġnotice": 3441,
      "Ġrar": 3442,
      "ustom": 3443,
      "Ġperceive": 3444,
      "Ġapplied": 3445,
      "Ġsomewhat": 3446,
      "Ġamend": 3447,
      "parent": 3448,
      "Ġmeant": 3449,
      "claim": 3450,
      "Ġindustry": 3451,
      "Ġactive": 3452,
      "Ġappeal": 3453,
      "Ġattend": 3454,
      "Ġoccup": 3455,
      "Ġ33": 3456,
      "Ġmadeira": 3457,
      "Ġreasoning": 3458,
      "Ġaffirm": 3459,
      "Ġassign": 3460,
      "Ġassured": 3461,
      "Ġhereafter": 3462,
      "Ġobservation": 3463,
      "Ġtransitional": 3464,
      "Ġliberties": 3465,
      "intermediate": 3466,
      "erning": 3467,
      "grou": 3468,
      "isdom": 3469,
      "Ġdecided": 3470,
      "regular": 3471,
      "numerable": 3472,
      "Ġoperations": 3473,
      "Ġhappened": 3474,
      "Ġfaun": 3475,
      "Ġexclusion": 3476,
      "Ġcurious": 3477,
      "character": 3478,
      "whole": 3479,
      "Ġmountain": 3480,
      "Ġmaintain": 3481,
      "Ġintell": 3482,
      "Ġebook": 3483,
      "Ġindispensable": 3484,
      "Ġprofessor": 3485,
      "Ġearlier": 3486,
      "editary": 3487,
      "circumstances": 3488,
      "Ġhomolog": 3489,
      "Ġentitled": 3490,
      "Ġtertiary": 3491,
      "fort": 3492,
      "hor": 3493,
      "lish": 3494,
      "ned": 3495,
      "oll": 3496,
      "pur": 3497,
      "sue": 3498,
      "uary": 3499,
      "uated": 3500,
      "Ġident": 3501,
      "Ġtask": 3502,
      "itate": 3503,
      "Ġbas": 3504,
      "Ġbird": 3505,
      "Ġcens": 3506,
      "Ġcrit": 3507,
      "Ġcrust": 3508,
      "Ġcitizen": 3509,
      "Ġmist": 3510,
      "orable": 3511,
      "iced": 3512,
      "entions": 3513,
      "sters": 3514,
      "Ġred": 3515,
      "iferous": 3516,
      "Ġforward": 3517,
      "iring": 3518,
      "urre": 3519,
      "Ġask": 3520,
      "ames": 3521,
      "istic": 3522,
      "Ġcompl": 3523,
      "using": 3524,
      "add": 3525,
      "admin": 3526,
      "fert": 3527,
      "Ġcho": 3528,
      "Ġimpract": 3529,
      "ours": 3530,
      "acious": 3531,
      "riped": 3532,
      "Ġarbit": 3533,
      "Ġprep": 3534,
      "aged": 3535,
      "ounding": 3536,
      "Ġunderstood": 3537,
      "seless": 3538,
      "Ġcharge": 3539,
      "orses": 3540,
      "Ġstrange": 3541,
      "Ġ35": 3542,
      "Ġ26": 3543,
      "Ġcorrect": 3544,
      "Ġassent": 3545,
      "Ġcompact": 3546,
      "Ġinvest": 3547,
      "Ġelectors": 3548,
      "Ġtreaty": 3549,
      "Ġexplain": 3550,
      "Ġoccurred": 3551,
      "Ġgrowing": 3552,
      "Ġsupported": 3553,
      "Ġlegal": 3554,
      "making": 3555,
      "Ġconcerning": 3556,
      "organ": 3557,
      "Ġ197": 3558,
      "Ġnegative": 3559,
      "Ġpunishment": 3560,
      "Ġneighbors": 3561,
      "Ġdiversity": 3562,
      "========": 3563,
      "occasion": 3564,
      "Ġmotives": 3565,
      "Ġintroduced": 3566,
      "Ġconcurrence": 3567,
      "Ġzealand": 3568,
      "Ġpreceding": 3569,
      "Ġbroken": 3570,
      "Ġcopy": 3571,
      "Ġcalculated": 3572,
      "Ġfurnish": 3573,
      "Ġrecommend": 3574,
      "Ġremoved": 3575,
      "Ġlyell": 3576,
      "america": 3577,
      "co": 3578,
      "car": 3579,
      "fam": 3580,
      "mer": 3581,
      "ns": 3582,
      "namely": 3583,
      "ren": 3584,
      "Ġtit": 3585,
      "Ġade": 3586,
      "inition": 3587,
      "Ġoffer": 3588,
      "iting": 3589,
      "itated": 3590,
      "Ġwall": 3591,
      "Ġwars": 3592,
      "estern": 3593,
      "Ġfatal": 3594,
      "Ġmention": 3595,
      "Ġhu": 3596,
      "Ġnine": 3597,
      "rop": 3598,
      "Ġgain": 3599,
      "Ġlies": 3600,
      "Ġlist": 3601,
      "Ġreach": 3602,
      "Ġrecipro": 3603,
      "iful": 3604,
      "Ġseat": 3605,
      "amount": 3606,
      "Ġdeath": 3607,
      "ainted": 3608,
      "Ġrapid": 3609,
      "usion": 3610,
      "ruption": 3611,
      "Ġdiss": 3612,
      "tract": 3613,
      "ported": 3614,
      "Ġarts": 3615,
      "whether": 3616,
      "except": 3617,
      "Ġgrant": 3618,
      "Ġfear": 3619,
      "Ġupper": 3620,
      "Ġenable": 3621,
      "Ġremedy": 3622,
      "Ġworks": 3623,
      "Ġobst": 3624,
      "Ġmodify": 3625,
      "Ġflight": 3626,
      "Ġdescrib": 3627,
      "Ġeffectual": 3628,
      "Ġevidently": 3629,
      "Ġdouble": 3630,
      "ledged": 3631,
      "Ġpossession": 3632,
      "Ġsurf": 3633,
      "Ġfertil": 3634,
      "athers": 3635,
      "Ġrepublics": 3636,
      "Ġvaluable": 3637,
      "Ġregarded": 3638,
      "Ġgradual": 3639,
      "igration": 3640,
      "ricult": 3641,
      "Ġreview": 3642,
      "Ġadminister": 3643,
      "Ġtemporary": 3644,
      "Ġenterpr": 3645,
      "isters": 3646,
      "Ġdiscussed": 3647,
      "Ġdiversified": 3648,
      "Ġmassachusetts": 3649,
      "Ġefficacy": 3650,
      "Ġreproductive": 3651,
      "Ġdeclaration": 3652,
      "Ġfortun": 3653,
      "Ġmongrels": 3654,
      "Ġbuild": 3655,
      "Ġadversaries": 3656,
      "Ġaugment": 3657,
      "ĠlarvÃ¦": 3658,
      "Ġbesides": 3659,
      "ares": 3660,
      "bod": 3661,
      "both": 3662,
      "called": 3663,
      "during": 3664,
      "even": 3665,
      "ging": 3666,
      "high": 3667,
      "head": 3668,
      "ients": 3669,
      "light": 3670,
      "ning": 3671,
      "oper": 3672,
      "vol": 3673,
      "ye": 3674,
      "Ġ[": 3675,
      "inqu": 3676,
      "influ": 3677,
      "ony": 3678,
      "Ġsm": 3679,
      "Ġsan": 3680,
      "itious": 3681,
      "Ġwisdom": 3682,
      "Ġinev": 3683,
      "Ġinhabited": 3684,
      "Ġinnumerable": 3685,
      "Ġface": 3686,
      "arrow": 3687,
      "icut": 3688,
      "Ġbeet": 3689,
      "Ġded": 3690,
      "ths": 3691,
      "through": 3692,
      "Ġepo": 3693,
      "cted": 3694,
      "Ġgod": 3695,
      "Ġlater": 3696,
      "Ġstation": 3697,
      "tered": 3698,
      "Ġvac": 3699,
      "olina": 3700,
      "action": 3701,
      "antic": 3702,
      "acqu": 3703,
      "Ġplay": 3704,
      "apse": 3705,
      "Ġalarm": 3706,
      "Ġperform": 3707,
      "oted": 3708,
      "Ġpost": 3709,
      "Ġcommence": 3710,
      "Ġhear": 3711,
      "ards": 3712,
      "expect": 3713,
      "force": 3714,
      "Ġcontempl": 3715,
      "Ġ10": 3716,
      "Ġeverywhere": 3717,
      "Ġbrief": 3718,
      "Ġcounter": 3719,
      "Ġdegr": 3720,
      "Ġ31": 3721,
      "Ġdescription": 3722,
      "tebr": 3723,
      "Ġeffectually": 3724,
      "Ġevents": 3725,
      "Ġshowing": 3726,
      "Ġjustify": 3727,
      "Ġsimultane": 3728,
      "Ġsystems": 3729,
      "Ġlands": 3730,
      "Ġadded": 3731,
      "Ġexamination": 3732,
      "Ġcoast": 3733,
      "ooker": 3734,
      "grad": 3735,
      "Ġretained": 3736,
      "Ġphil": 3737,
      "Ġviolent": 3738,
      "Ġviolence": 3739,
      "ancies": 3740,
      "Ġsheep": 3741,
      "Ġelement": 3742,
      "Ġpaid": 3743,
      "Ġdispers": 3744,
      "atched": 3745,
      "principle": 3746,
      "Ġsediment": 3747,
      "Ġexpedient": 3748,
      "Ġprotection": 3749,
      "Ġinclined": 3750,
      "Ġcandid": 3751,
      "Ġvirt": 3752,
      "independ": 3753,
      "Ġdisplayed": 3754,
      "Ġsteps": 3755,
      "Ġfunction": 3756,
      "Ġprivileges": 3757,
      "Ġprecautions": 3758,
      "Ġelsewhere": 3759,
      "Ġbeaut": 3760,
      "Ġtyranny": 3761,
      "Ġscheme": 3762,
      "Ġcredit": 3763,
      "Ġhomologous": 3764,
      "Ġepoch": 3765,
      "cured": 3766,
      "ets": 3767,
      "good": 3768,
      "hand": 3769,
      "house": 3770,
      "sa": 3771,
      "tru": 3772,
      "Ġ:": 3773,
      "Ġer": 3774,
      "Ġtal": 3775,
      "onoun": 3776,
      "Ġbones": 3777,
      "Ġwants": 3778,
      "Ġcell": 3779,
      "Ġpet": 3780,
      "anqu": 3781,
      "Ġmal": 3782,
      "Ġmouth": 3783,
      "alap": 3784,
      "Ġhem": 3785,
      "Ġhooker": 3786,
      "Ġnone": 3787,
      "enth": 3788,
      "let": 3789,
      "rod": 3790,
      "vember": 3791,
      "Ġrefer": 3792,
      "Ġnovember": 3793,
      "change": 3794,
      "ows": 3795,
      "Ġseason": 3796,
      "Ġvain": 3797,
      "Ġrise": 3798,
      "Ġshells": 3799,
      "embry": 3800,
      "ouses": 3801,
      "perity": 3802,
      "Ġleague": 3803,
      "depart": 3804,
      "consequ": 3805,
      "Ġmanif": 3806,
      "plants": 3807,
      "Ġdissimilar": 3808,
      "uded": 3809,
      "produced": 3810,
      "Ġintercourse": 3811,
      "Ġprefer": 3812,
      "Ġprerog": 3813,
      "Ġago": 3814,
      "Ġgraf": 3815,
      "Ġconting": 3816,
      "Ġusually": 3817,
      "Ġquantity": 3818,
      "Ġconfine": 3819,
      "itherto": 3820,
      "Ġpossibility": 3821,
      "Ġsubjects": 3822,
      "Ġorganisms": 3823,
      "Ġcirriped": 3824,
      "Ġcorruption": 3825,
      "Ġrecogn": 3826,
      "Ġhereditary": 3827,
      "Ġimprob": 3828,
      "Ġinhabiting": 3829,
      "Ġcoin": 3830,
      "Ġincreasing": 3831,
      "Ġregulate": 3832,
      "Ġregulating": 3833,
      "contro": 3834,
      "cluded": 3835,
      "modified": 3836,
      "consideration": 3837,
      "considerable": 3838,
      "Ġstriped": 3839,
      "upon": 3840,
      "Ġmatters": 3841,
      "Ġcontrovers": 3842,
      "Ġsources": 3843,
      "Ġmerch": 3844,
      "instinct": 3845,
      "Ġexperiments": 3846,
      "Ġobtain": 3847,
      "Ġpigeon": 3848,
      "Ġcurr": 3849,
      "Ġincluded": 3850,
      "Ġallowed": 3851,
      "Ġconstantly": 3852,
      "Ġcheck": 3853,
      "Ġinstrument": 3854,
      "descendants": 3855,
      "Ġrepeated": 3856,
      "polit": 3857,
      "Ġdebts": 3858,
      "Ġlatitude": 3859,
      "Ġtotal": 3860,
      "Ġisolated": 3861,
      "Ġresponsibility": 3862,
      "Ġtumbl": 3863,
      "breeds": 3864,
      "Ġchoose": 3865,
      "Ġadequate": 3866,
      "aus": 3867,
      "affect": 3868,
      "birds": 3869,
      "breed": 3870,
      "don": 3871,
      "eat": 3872,
      "iqu": 3873,
      "nor": 3874,
      "pine": 3875,
      "sing": 3876,
      "situ": 3877,
      "tend": 3878,
      "uct": 3879,
      "vation": 3880,
      "work": 3881,
      "Ġens": 3882,
      "Ġaim": 3883,
      "insect": 3884,
      "onstr": 3885,
      "restr": 3886,
      "Ġback": 3887,
      "Ġwood": 3888,
      "Ġcities": 3889,
      "Ġpri": 3890,
      "Ġfine": 3891,
      "Ġmerc": 3892,
      "ication": 3893,
      "Ġdam": 3894,
      "then": 3895,
      "three": 3896,
      "Ġlower": 3897,
      "Ġlove": 3898,
      "Ġlapse": 3899,
      "oming": 3900,
      "Ġuseless": 3901,
      "Ġexcell": 3902,
      "igencies": 3903,
      "Ġselected": 3904,
      "Ġprop": 3905,
      "Ġmakes": 3906,
      "Ġunus": 3907,
      "amorph": 3908,
      "Ġvoice": 3909,
      "Ġdecre": 3910,
      "Ġriv": 3911,
      "Ġnearest": 3912,
      "emic": 3913,
      "empts": 3914,
      "often": 3915,
      "Ġforming": 3916,
      "Ġadult": 3917,
      "place": 3918,
      "Ġdisposed": 3919,
      "due": 3920,
      "enses": 3921,
      "president": 3922,
      "Ġdistur": 3923,
      "assad": 3924,
      "Ġpresume": 3925,
      "Ġfellow": 3926,
      "Ġnaturalist": 3927,
      "Ġattempts": 3928,
      "Ġstructures": 3929,
      "Ġadvice": 3930,
      "Ġadvoc": 3931,
      "Ġdoubted": 3932,
      "shells": 3933,
      "osed": 3934,
      "Ġinvari": 3935,
      "Ġinteresting": 3936,
      "Ġdependence": 3937,
      "Ġinsist": 3938,
      "Ġinsurre": 3939,
      "Ġdecide": 3940,
      "constitutional": 3941,
      "Ġpretext": 3942,
      "themselves": 3943,
      "Ġgoverned": 3944,
      "Ġcollected": 3945,
      "Ġleading": 3946,
      "Ġserious": 3947,
      "Ġerrors": 3948,
      "Ġspeak": 3949,
      "Ġsatisf": 3950,
      "Ġnavy": 3951,
      "Ġdefects": 3952,
      "slight": 3953,
      "Ġsuffered": 3954,
      "Ġdeposited": 3955,
      "Ġabsence": 3956,
      "Ġmodern": 3957,
      "Ġimpeachment": 3958,
      "ginia": 3959,
      "Ġinstitutions": 3960,
      "Ġrhod": 3961,
      "Ġprudence": 3962,
      "Ġsym": 3963,
      "ĠpalÃ¦ont": 3964,
      "Ġenergy": 3965,
      "liament": 3966,
      "believe": 3967,
      "Ġarbitr": 3968,
      "Ġmentioned": 3969,
      "lightened": 3970,
      "cy": 3971,
      "cks": 3972,
      "dest": 3973,
      "div": 3974,
      "eth": 3975,
      "gone": 3976,
      "iver": 3977,
      "iations": 3978,
      "mem": 3979,
      "maph": 3980,
      "sur": 3981,
      "Ġov": 3982,
      "read": 3983,
      "itably": 3984,
      "Ġcover": 3985,
      "Ġcold": 3986,
      "Ġfield": 3987,
      "Ġmed": 3988,
      "Ġhome": 3989,
      "Ġharm": 3990,
      "Ġhouses": 3991,
      "Ġrecur": 3992,
      "Ġproposition": 3993,
      "ulate": 3994,
      "Ġmach": 3995,
      "Ġmadis": 3996,
      "Ġuncons": 3997,
      "Ġdep": 3998,
      "Ġdefic": 3999,
      "Ġshores": 4000,
      "adap": 4001,
      "allied": 4002,
      "Ġimports": 4003,
      "Ġleaves": 4004,
      "Ġformid": 4005,
      "constru": 4006,
      "Ġalpine": 4007,
      "Ġjan": 4008,
      "Ġjaws": 4009,
      "Ġthereof": 4010,
      "Ġdisappear": 4011,
      "Ġpoor": 4012,
      "parts": 4013,
      "Ġarise": 4014,
      "productive": 4015,
      "Ġpronoun": 4016,
      "agon": 4017,
      "agos": 4018,
      "ounds": 4019,
      "expl": 4020,
      "Ġabund": 4021,
      "Ġcontend": 4022,
      "Ġ12": 4023,
      "ictions": 4024,
      "Ġembr": 4025,
      "Ġprovinces": 4026,
      "Ġopposed": 4027,
      "Ġslave": 4028,
      "Ġevil": 4029,
      "Ġshows": 4030,
      "Ġtends": 4031,
      "Ġdefinition": 4032,
      "Ġaddition": 4033,
      "Ġartific": 4034,
      "Ġgenius": 4035,
      "Ġcarolina": 4036,
      "interests": 4037,
      "Ġdraw": 4038,
      "Ġconnecticut": 4039,
      "Ġolder": 4040,
      "archy": 4041,
      "Ġenglish": 4042,
      "Ġlabor": 4043,
      "Ġcombination": 4044,
      "Ġrulers": 4045,
      "Ġproceeded": 4046,
      "Ġannual": 4047,
      "Ġanalogy": 4048,
      "Ġexclusively": 4049,
      "Ġambassad": 4050,
      "Ġaware": 4051,
      "Ġincap": 4052,
      "Ġimmense": 4053,
      "Ġimagine": 4054,
      "Ġpleasure": 4055,
      "likely": 4056,
      "Ġneighbor": 4057,
      "Ġconcurrent": 4058,
      "however": 4059,
      "Ġsuffr": 4060,
      "Ġsuggested": 4061,
      "convention": 4062,
      "senate": 4063,
      "Ġultimately": 4064,
      "Ġinfinitely": 4065,
      "Ġencroachments": 4066,
      "Ġtreas": 4067,
      "Ġlanguage": 4068,
      "Ġimpracticable": 4069,
      "Ġreciprocal": 4070,
      "Ġdescribed": 4071,
      "alapagos": 4072,
      "Ġinvariably": 4073,
      "maphrod": 4074,
      "Ġmadison": 4075,
      "life": 4076,
      "lings": 4077,
      "laws": 4078,
      "mis": 4079,
      "miss": 4080,
      "never": 4081,
      "sed": 4082,
      "side": 4083,
      "uate": 4084,
      "Ġaf": 4085,
      "inher": 4086,
      "Ġsays": 4087,
      "Ġspring": 4088,
      "Ġwest": 4089,
      "Ġcab": 4090,
      "Ġhop": 4091,
      "lebr": 4092,
      "stance": 4093,
      "vey": 4094,
      "Ġconform": 4095,
      "Ġstig": 4096,
      "Ġseas": 4097,
      "Ġmasters": 4098,
      "iven": 4099,
      "emn": 4100,
      "actions": 4101,
      "Ġimpartial": 4102,
      "contr": 4103,
      "unities": 4104,
      "Ġnative": 4105,
      "ducing": 4106,
      "cip": 4107,
      "cipl": 4108,
      "Ġconsuls": 4109,
      "Ġagricult": 4110,
      "exts": 4111,
      "Ġfelt": 4112,
      "Ġcontain": 4113,
      "Ġusual": 4114,
      "Ġnaturalised": 4115,
      "Ġindian": 4116,
      "Ġworthy": 4117,
      "Ġattain": 4118,
      "Ġflora": 4119,
      "Ġrelate": 4120,
      "Ġindefinite": 4121,
      "Ġfewer": 4122,
      "Ġestimate": 4123,
      "Ġcoloured": 4124,
      "ceptible": 4125,
      "Ġrecol": 4126,
      "Ġcompens": 4127,
      "Ġspecim": 4128,
      "Ġintrust": 4129,
      "Ġtransmitted": 4130,
      "extreme": 4131,
      "Ġworkers": 4132,
      "Ġsecondly": 4133,
      "Ġdirected": 4134,
      "Ġconnection": 4135,
      "Ġmarch": 4136,
      "Ġfollows": 4137,
      "genus": 4138,
      "Ġgradually": 4139,
      "Ġmagn": 4140,
      "Ġretain": 4141,
      "Ġacquire": 4142,
      "Ġexpressed": 4143,
      "Ġprofitable": 4144,
      "Ġfavorable": 4145,
      "considered": 4146,
      "Ġmarks": 4147,
      "Ġcollective": 4148,
      "Ġminority": 4149,
      "Ġcompetent": 4150,
      "Ġconcerned": 4151,
      "Ġmultitude": 4152,
      "Ġsolely": 4153,
      "Ġerror": 4154,
      "Ġcompletely": 4155,
      "Ġocean": 4156,
      "ennial": 4157,
      "greater": 4158,
      "Ġaccompl": 4159,
      "Ġobliged": 4160,
      "Ġloss": 4161,
      "individual": 4162,
      "Ġsubsist": 4163,
      "confederation": 4164,
      "Ġimpeachments": 4165,
      "Ġfifth": 4166,
      "Ġmanufactures": 4167,
      "Ġdivergence": 4168,
      "Ġexterminated": 4169,
      "sufficient": 4170,
      "Ġtribunals": 4171,
      "Ġwonderful": 4172,
      "Ġacknowledged": 4173,
      "doubted": 4174,
      "Ġsubstitute": 4175,
      "Ġarrangement": 4176,
      "Ġsacrifice": 4177,
      "Ġquickly": 4178,
      "Ġbalance": 4179,
      "Ġopportunity": 4180,
      "Ġcrustace": 4181,
      "influence": 4182,
      "Ġcirripedes": 4183,
      "Ġformidable": 4184,
      "Ġjanuary": 4185,
      "Ġambassadors": 4186,
      "bal": 4187,
      "five": 4188,
      "hood": 4189,
      "mon": 4190,
      "ron": 4191,
      "sometimes": 4192,
      "Ġtur": 4193,
      "inal": 4194,
      "rec": 4195,
      "itness": 4196,
      "Ġbur": 4197,
      "Ġbad": 4198,
      "Ġcame": 4199,
      "Ġpict": 4200,
      "Ġanc": 4201,
      "Ġmid": 4202,
      "orough": 4203,
      "aring": 4204,
      "almost": 4205,
      "ston": 4206,
      "Ġwhite": 4207,
      "Ġgone": 4208,
      "Ġlately": 4209,
      "oms": 4210,
      "utary": 4211,
      "Ġforget": 4212,
      "Ġexhib": 4213,
      "ulous": 4214,
      "ilities": 4215,
      "ander": 4216,
      "Ġround": 4217,
      "ounted": 4218,
      "Ġparas": 4219,
      "Ġimpo": 4220,
      "acle": 4221,
      "ustri": 4222,
      "kets": 4223,
      "Ġapplication": 4224,
      "cience": 4225,
      "Ġpartly": 4226,
      "Ġstatement": 4227,
      "Ġheld": 4228,
      "Ġpred": 4229,
      "Ġconsult": 4230,
      "Ġresults": 4231,
      "Ġbecame": 4232,
      "Ġbecoming": 4233,
      "super": 4234,
      "Ġacting": 4235,
      "Ġstruck": 4236,
      "compet": 4237,
      "Ġflo": 4238,
      "Ġ27": 4239,
      "Ġadvance": 4240,
      "Ġevent": 4241,
      "Ġpersu": 4242,
      "Ġconviction": 4243,
      "Ġassume": 4244,
      "Ġappearing": 4245,
      "Ġlastly": 4246,
      "interest": 4247,
      "Ġoriginally": 4248,
      "Ġchanging": 4249,
      "Ġpolitic": 4250,
      "Ġdeclared": 4251,
      "difference": 4252,
      "differences": 4253,
      "artic": 4254,
      "Ġreflection": 4255,
      "Ġaccordingly": 4256,
      "Ġutmost": 4257,
      "Ġpretend": 4258,
      "Ġpretended": 4259,
      "Ġproceedings": 4260,
      "Ġtypes": 4261,
      "Ġpopulation": 4262,
      "jurisdiction": 4263,
      "Ġqualities": 4264,
      "therefore": 4265,
      "Ġuniversally": 4266,
      "Ġnegot": 4267,
      "ĠĠĠĠĠĠĠĠ": 4268,
      "Ġapparent": 4269,
      "Ġafforded": 4270,
      "existing": 4271,
      "existence": 4272,
      "principles": 4273,
      "Ġefforts": 4274,
      "Ġaccommod": 4275,
      "Ġpromote": 4276,
      "Ġadoption": 4277,
      "Ġsucceeding": 4278,
      "Ġsubsequently": 4279,
      "Ġfemale": 4280,
      "ogniz": 4281,
      "Ġmetamorph": 4282,
      "Ġusurpation": 4283,
      "Ġsensible": 4284,
      "Ġparallelism": 4285,
      "Ġclimates": 4286,
      "according": 4287,
      "Ġintercrossing": 4288,
      "hybrid": 4289,
      "Ġvigorous": 4290,
      "Ġbetray": 4291,
      "Ġcompelled": 4292,
      "hamilton": 4293,
      "Ġbotan": 4294,
      "concerning": 4295,
      "fertility": 4296,
      "body": 4297,
      "operation": 4298,
      "Ġsanction": 4299,
      "Ġvacancies": 4300,
      "Ġcommencement": 4301,
      "Ġdispersal": 4302,
      "Ġtalents": 4303,
      "Ġmanifest": 4304,
      "Ġtreasury": 4305,
      "lebrated": 4306,
      "come": 4307,
      "dang": 4308,
      "direct": 4309,
      "elect": 4310,
      "frequ": 4311,
      "got": 4312,
      "greg": 4313,
      "ha": 4314,
      "hn": 4315,
      "hire": 4316,
      "iological": 4317,
      "lin": 4318,
      "mag": 4319,
      "made": 4320,
      "uments": 4321,
      "zo": 4322,
      "zen": 4323,
      "Ġtell": 4324,
      "Ġteach": 4325,
      "Ġtreason": 4326,
      "Ġthrown": 4327,
      "Ġair": 4328,
      "Ġoath": 4329,
      "incl": 4330,
      "Ġsangu": 4331,
      "iter": 4332,
      "itud": 4333,
      "Ġbias": 4334,
      "Ġword": 4335,
      "Ġmature": 4336,
      "Ġhitherto": 4337,
      "Ġda": 4338,
      "Ġnect": 4339,
      "Ġname": 4340,
      "Ġnests": 4341,
      "Ġnarrow": 4342,
      "Ġeffici": 4343,
      "Ġgalapagos": 4344,
      "Ġconverted": 4345,
      "imm": 4346,
      "immediate": 4347,
      "Ġones": 4348,
      "pection": 4349,
      "Ġexert": 4350,
      "illity": 4351,
      "Ġunanim": 4352,
      "Ġundoubted": 4353,
      "Ġdepr": 4354,
      "quatic": 4355,
      "question": 4356,
      "istance": 4357,
      "Ġwilling": 4358,
      "umin": 4359,
      "emed": 4360,
      "fertil": 4361,
      "anty": 4362,
      "del": 4363,
      "develop": 4364,
      "acities": 4365,
      "accum": 4366,
      "concil": 4367,
      "Ġadher": 4368,
      "Ġcast": 4369,
      "Ġcaused": 4370,
      "Ġample": 4371,
      "wel": 4372,
      "Ġmel": 4373,
      "Ġprint": 4374,
      "Ġconstitute": 4375,
      "Ġgranted": 4376,
      "anged": 4377,
      "Ġdesire": 4378,
      "Ġdespot": 4379,
      "Ġcharles": 4380,
      "Ġaccidental": 4381,
      "branch": 4382,
      "Ġemer": 4383,
      "Ġsubstance": 4384,
      "remark": 4385,
      "othing": 4386,
      "Ġequity": 4387,
      "Ġsimply": 4388,
      "Ġcharacteristic": 4389,
      "Ġdiscern": 4390,
      "manner": 4391,
      "Ġobserve": 4392,
      "Ġinvasion": 4393,
      "Ġblack": 4394,
      "Ġexamine": 4395,
      "Ġprevious": 4396,
      "plicated": 4397,
      "community": 4398,
      "variety": 4399,
      "Ġvalid": 4400,
      "Ġafterwards": 4401,
      "Ġestablishing": 4402,
      "distingu": 4403,
      "cannot": 4404,
      "000": 4405,
      "Ġannually": 4406,
      "Ġfossils": 4407,
      "Ġarrived": 4408,
      "Ġcarefully": 4409,
      "organic": 4410,
      "Ġuniformity": 4411,
      "Ġfishes": 4412,
      "Ġsentiments": 4413,
      "arrass": 4414,
      "Ġbills": 4415,
      "Ġanticip": 4416,
      "Ġsubsidence": 4417,
      "Ġcorrelated": 4418,
      "Ġthirty": 4419,
      "Ġtransported": 4420,
      "Ġthickness": 4421,
      "Ġteeth": 4422,
      "Ġpatri": 4423,
      "Ġflying": 4424,
      "Ġenumerated": 4425,
      "Ġintrig": 4426,
      "Ġgermin": 4427,
      "difficulty": 4428,
      "Ġinconveniences": 4429,
      "offspring": 4430,
      "Ġbenefit": 4431,
      "Ġdelegated": 4432,
      "Ġfalse": 4433,
      "groups": 4434,
      "administration": 4435,
      "Ġsimultaneously": 4436,
      "Ġerect": 4437,
      "anquillity": 4438,
      "insects": 4439,
      "Ġexcellent": 4440,
      "Ġrivals": 4441,
      "Ġmedium": 4442,
      "ognizance": 4443,
      "bar": 4444,
      "dr": 4445,
      "govern": 4446,
      "hum": 4447,
      "iances": 4448,
      "oso": 4449,
      "treat": 4450,
      "yet": 4451,
      "Ġtest": 4452,
      "Ġtues": 4453,
      "Ġthr": 4454,
      "Ġach": 4455,
      "republic": 4456,
      "Ġsqu": 4457,
      "Ġsatur": 4458,
      "itous": 4459,
      "Ġbind": 4460,
      "Ġbond": 4461,
      "Ġbook": 4462,
      "Ġwestern": 4463,
      "Ġpou": 4464,
      "Ġpie": 4465,
      "Ġmor": 4466,
      "Ġhomes": 4467,
      "Ġhorses": 4468,
      "Ġbeak": 4469,
      "Ġdon": 4470,
      "Ġdign": 4471,
      "sey": 4472,
      "seeds": 4473,
      "llate": 4474,
      "Ġhair": 4475,
      "Ġgree": 4476,
      "Ġrep": 4477,
      "Ġconveni": 4478,
      "Ġconsec": 4479,
      "iff": 4480,
      "Ġforces": 4481,
      "Ġstam": 4482,
      "Ġstations": 4483,
      "Ġstability": 4484,
      "Ġexigencies": 4485,
      "ules": 4486,
      "among": 4487,
      "Ġdee": 4488,
      "Ġranges": 4489,
      "Ġii": 4490,
      "Ġleaving": 4491,
      "Ġadjo": 4492,
      "Ġalong": 4493,
      "Ġjer": 4494,
      "Ġpermit": 4495,
      "portions": 4496,
      "Ġcommit": 4497,
      "ensible": 4498,
      "arely": 4499,
      "Ġpreference": 4500,
      "Ġconsists": 4501,
      "exper": 4502,
      "express": 4503,
      "ficial": 4504,
      "orders": 4505,
      "izes": 4506,
      "Ġremaining": 4507,
      "Ġdesir": 4508,
      "Ġtrave": 4509,
      "Ġaccord": 4510,
      "erves": 4511,
      "Ġnecessities": 4512,
      "Ġacted": 4513,
      "Ġappeals": 4514,
      "Ġsubmitted": 4515,
      "compar": 4516,
      "Ġstrata": 4517,
      "Ġ32": 4518,
      "Ġexecute": 4519,
      "Ġexecuted": 4520,
      "Ġ22": 4521,
      "Ġ23": 4522,
      "Ġorganism": 4523,
      "Ġadvanced": 4524,
      "pret": 4525,
      "Ġsake": 4526,
      "Ġcollection": 4527,
      "Ġspain": 4528,
      "Ġendemic": 4529,
      "Ġgeology": 4530,
      "Ġobser": 4531,
      "Ġcontrad": 4532,
      "Ġscru": 4533,
      "Ġletters": 4534,
      "Ġacross": 4535,
      "Ġaccept": 4536,
      "happ": 4537,
      "Ġlimbs": 4538,
      "Ġpassion": 4539,
      "Ġ41": 4540,
      "Ġ45": 4541,
      "Ġregulated": 4542,
      "Ġroy": 4543,
      "Ġacquainted": 4544,
      "Ġglo": 4545,
      "domin": 4546,
      "Ġraising": 4547,
      "Ġminute": 4548,
      "Ġminds": 4549,
      "belong": 4550,
      "Ġappropri": 4551,
      "Ġmotive": 4552,
      "Ġdeposits": 4553,
      "Ġvertebr": 4554,
      "Ġbattle": 4555,
      "Ġborn": 4556,
      "Ġabsurd": 4557,
      "limited": 4558,
      "Ġprosperity": 4559,
      "Ġirregular": 4560,
      "correspond": 4561,
      "Ġvirginia": 4562,
      "Ġsurprise": 4563,
      "Ġrejected": 4564,
      "Ġdetail": 4565,
      "Ġinquiries": 4566,
      "increase": 4567,
      "Ġprejudices": 4568,
      "ocracy": 4569,
      "Ġignorance": 4570,
      "Ġresolutions": 4571,
      "Ġstudy": 4572,
      "Ġassigned": 4573,
      "Ġassuredly": 4574,
      "Ġintellig": 4575,
      "Ġsurface": 4576,
      "Ġsmith": 4577,
      "Ġbeetles": 4578,
      "Ġvirtue": 4579,
      "political": 4580,
      "Ġpropag": 4581,
      "Ġarbitrary": 4582,
      "Ġancest": 4583,
      "zoic": 4584,
      "Ġtuesday": 4585,
      "Ġsaturday": 4586,
      "ae": 4587,
      "bru": 4588,
      "distr": 4589,
      "fac": 4590,
      "gment": 4591,
      "hav": 4592,
      "ipp": 4593,
      "pon": 4594,
      "path": 4595,
      "rence": 4596,
      "ture": 4597,
      "Ġaston": 4598,
      "ink": 4599,
      "atible": 4600,
      "Ġcrown": 4601,
      "anne": 4602,
      "Ġinfl": 4603,
      "always": 4604,
      "Ġtold": 4605,
      "entle": 4606,
      "section": 4607,
      "Ġreversion": 4608,
      "Ġconce": 4609,
      "Ġstat": 4610,
      "Ġstep": 4611,
      "Ġexpens": 4612,
      "ams": 4613,
      "Ġvice": 4614,
      "aints": 4615,
      "ounts": 4616,
      "Ġalluded": 4617,
      "Ġparliament": 4618,
      "antly": 4619,
      "depend": 4620,
      "acing": 4621,
      "acles": 4622,
      "Ġplaus": 4623,
      "unt": 4624,
      "Ġperformed": 4625,
      "Ġdiscipl": 4626,
      "ductions": 4627,
      "ried": 4628,
      "project": 4629,
      "productions": 4630,
      "before": 4631,
      "close": 4632,
      "Ġpresumed": 4633,
      "Ġaggreg": 4634,
      "Ġundergone": 4635,
      "exerc": 4636,
      "Ġkill": 4637,
      "Ġabrid": 4638,
      "Ġenlar": 4639,
      "Ġenlightened": 4640,
      "ogical": 4641,
      "Ġdesired": 4642,
      "Ġconfess": 4643,
      "astern": 4644,
      "Ġoppose": 4645,
      "pshire": 4646,
      "Ġequator": 4647,
      "ooked": 4648,
      "habits": 4649,
      "Ġreasonable": 4650,
      "Ġspheres": 4651,
      "Ġassert": 4652,
      "Ġassumed": 4653,
      "Ġdefine": 4654,
      "Ġdefined": 4655,
      "Ġscot": 4656,
      "phere": 4657,
      "phys": 4658,
      "perienced": 4659,
      "Ġblue": 4660,
      "relation": 4661,
      "aware": 4662,
      "variations": 4663,
      "grity": 4664,
      "Ġcontinuance": 4665,
      "Ġinference": 4666,
      "Ġinferred": 4667,
      "Ġstronger": 4668,
      "guard": 4669,
      "Ġhumble": 4670,
      "ifying": 4671,
      "Ġpracticable": 4672,
      "Ġpublished": 4673,
      "Ġcombined": 4674,
      "Ġmagistracy": 4675,
      "Ġtemper": 4676,
      "***": 4677,
      "Ġproceeding": 4678,
      "necessity": 4679,
      "representative": 4680,
      "iminal": 4681,
      "Ġderive": 4682,
      "Ġtype": 4683,
      "Ġcareful": 4684,
      "Ġministers": 4685,
      "Ġdivide": 4686,
      "Ġconcerns": 4687,
      "Ġcomparative": 4688,
      "Ġqualified": 4689,
      "Ġsusceptible": 4690,
      "Ġedition": 4691,
      "cribed": 4692,
      "Ġconclusive": 4693,
      "Ġimagined": 4694,
      "Ġdiscussion": 4695,
      "Ġcentury": 4696,
      "Ġnavigation": 4697,
      "reedom": 4698,
      "Ġcease": 4699,
      "Ġcelebrated": 4700,
      "Ġkeeping": 4701,
      "Ġweakness": 4702,
      "Ġowen": 4703,
      "Ġebooks": 4704,
      "established": 4705,
      "Ġprecisely": 4706,
      "Ġusurpations": 4707,
      "Ġpursued": 4708,
      "Ġdetails": 4709,
      "Ġfirmness": 4710,
      "Ġmaterial": 4711,
      "Ġenumeration": 4712,
      "Ġfleets": 4713,
      "probably": 4714,
      "Ġadaptation": 4715,
      "Ġmillions": 4716,
      "Ġattribute": 4717,
      "Ġcolonies": 4718,
      "Ġstocked": 4719,
      "Ġconvenient": 4720,
      "Ġbarriers": 4721,
      "Ġentertained": 4722,
      "Ġfeeble": 4723,
      "Ġindirectly": 4724,
      "Ġtitle": 4725,
      "Ġinevitably": 4726,
      "Ġbeautiful": 4727,
      "Ġunusual": 4728,
      "Ġafric": 4729,
      "Ġcompensation": 4730,
      "Ġspecimens": 4731,
      "Ġintrusted": 4732,
      "Ġimposts": 4733,
      "Ġsanguine": 4734,
      "Ġadjoining": 4735,
      "bruary": 4736,
      ",(": 4737,
      ",âĢĿ": 4738,
      "aks": 4739,
      "cr": 4740,
      "care": 4741,
      "dig": 4742,
      "ips": 4743,
      "libert": 4744,
      "mount": 4745,
      "nicious": 4746,
      "nothing": 4747,
      "rights": 4748,
      "take": 4749,
      "ux": 4750,
      "ule": 4751,
      "war": 4752,
      "wide": 4753,
      "you": 4754,
      "eness": 4755,
      "Ġswe": 4756,
      "Ġsound": 4757,
      "Ġbed": 4758,
      "Ġwid": 4759,
      "Ġwol": 4760,
      "Ġwitness": 4761,
      "Ġinn": 4762,
      "Ġfant": 4763,
      "Ġtol": 4764,
      "Ġhours": 4765,
      "Ġnames": 4766,
      "seen": 4767,
      "search": 4768,
      "Ġgentle": 4769,
      "Ġreappear": 4770,
      "uter": 4771,
      "Ġconfer": 4772,
      "imperfect": 4773,
      "irmed": 4774,
      "peace": 4775,
      "iest": 4776,
      "Ġpropens": 4777,
      "Ġprosec": 4778,
      "ulating": 4779,
      "Ġmove": 4780,
      "Ġunable": 4781,
      "Ġdeep": 4782,
      "ivity": 4783,
      "Ġcomplicated": 4784,
      "olle": 4785,
      "ading": 4786,
      "peror": 4787,
      "Ġimposed": 4788,
      "ouring": 4789,
      "ourse": 4790,
      "acks": 4791,
      "Ġplans": 4792,
      "Ġplayed": 4793,
      "Ġalle": 4794,
      "planted": 4795,
      "Ġpernicious": 4796,
      "Ġdise": 4797,
      "Ġgeneric": 4798,
      "Ġcloth": 4799,
      "prove": 4800,
      "bell": 4801,
      "answer": 4802,
      "Ġheight": 4803,
      "Ġprice": 4804,
      "arden": 4805,
      "Ġdozen": 4806,
      "Ġgrand": 4807,
      "Ġextrem": 4808,
      "Ġfebruary": 4809,
      "Ġcontained": 4810,
      "Ġsupplied": 4811,
      "Ġsupposing": 4812,
      "Ġsupplant": 4813,
      "izing": 4814,
      "Ġremained": 4815,
      "Ġshoulder": 4816,
      "Ġindul": 4817,
      "Ġdesp": 4818,
      "Ġcounty": 4819,
      "Ġtrying": 4820,
      "erving": 4821,
      "Ġproductive": 4822,
      "Ġembed": 4823,
      "arsh": 4824,
      "ocks": 4825,
      "ocene": 4826,
      "Ġattached": 4827,
      "Ġadmission": 4828,
      "Ġflow": 4829,
      "Ġorganization": 4830,
      "Ġfoot": 4831,
      "Ġcircum": 4832,
      "Ġwherever": 4833,
      "strong": 4834,
      "Ġsingular": 4835,
      "Ġrecently": 4836,
      "Ġwarm": 4837,
      "Ġends": 4838,
      "Ġendure": 4839,
      "Ġdefend": 4840,
      "Ġcontriv": 4841,
      "Ġhabitu": 4842,
      "Ġhappy": 4843,
      "extinction": 4844,
      "consist": 4845,
      "struggle": 4846,
      "variation": 4847,
      "facts": 4848,
      "Ġadvantageous": 4849,
      "Ġdeclares": 4850,
      "Ġroom": 4851,
      "Ġequality": 4852,
      "Ġdecisions": 4853,
      "Ġengage": 4854,
      "Ġengaged": 4855,
      "Ġoperate": 4856,
      "appeared": 4857,
      "Ġrevol": 4858,
      "cape": 4859,
      "Ġalterations": 4860,
      "Ġfossiliferous": 4861,
      "Ġholding": 4862,
      "Ġambitious": 4863,
      "make": 4864,
      "Ġthousands": 4865,
      "Ġreality": 4866,
      "Ġembryonic": 4867,
      "Ġextending": 4868,
      "Ġmerits": 4869,
      "Ġjudicious": 4870,
      "importance": 4871,
      "Ġdemonstr": 4872,
      "riendly": 4873,
      "justice": 4874,
      "Ġdeny": 4875,
      "Ġdisputed": 4876,
      "Ġplease": 4877,
      "Ġapproach": 4878,
      "Ġapprehension": 4879,
      "Ġweaker": 4880,
      "Ġsuperiority": 4881,
      "advantages": 4882,
      "Ġmainly": 4883,
      "objects": 4884,
      "Ġlimitation": 4885,
      "Ġdiffers": 4886,
      "Ġmaterials": 4887,
      "uckoo": 4888,
      "Ġclaims": 4889,
      "Ġdiminished": 4890,
      "Ġprescribe": 4891,
      "discover": 4892,
      "Ġnomination": 4893,
      "Ġcarrying": 4894,
      "Ġadopted": 4895,
      "Ġwaters": 4896,
      "Ġforbid": 4897,
      "connected": 4898,
      "Ġperpetual": 4899,
      "Ġembarrass": 4900,
      "Ġbriefly": 4901,
      "Ġhemis": 4902,
      "Ġcontroversies": 4903,
      "Ġrhode": 4904,
      "members": 4905,
      "gotten": 4906,
      "Ġnectar": 4907,
      "Ġdespotism": 4908,
      "Ġpatriot": 4909,
      "Ġjersey": 4910,
      "havior": 4911,
      "cend": 4912,
      "dog": 4913,
      "divers": 4914,
      "far": 4915,
      "fur": 4916,
      "hound": 4917,
      "ience": 4918,
      "iarly": 4919,
      "iency": 4920,
      "lab": 4921,
      "mn": 4922,
      "nations": 4923,
      "ozoic": 4924,
      "rate": 4925,
      "rical": 4926,
      "tes": 4927,
      "tum": 4928,
      "uity": 4929,
      "vir": 4930,
      "xi": 4931,
      "ze": 4932,
      "Ġthrow": 4933,
      "Ġthorough": 4934,
      "Ġaquatic": 4935,
      "atus": 4936,
      "Ġspot": 4937,
      "Ġsession": 4938,
      "Ġscience": 4939,
      "Ġbase": 4940,
      "Ġways": 4941,
      "Ġcut": 4942,
      "Ġcity": 4943,
      "Ġcuckoo": 4944,
      "Ġpist": 4945,
      "Ġpac": 4946,
      "anci": 4947,
      "Ġinclude": 4948,
      "Ġanarchy": 4949,
      "Ġfile": 4950,
      "Ġflatter": 4951,
      "aly": 4952,
      "Ġtown": 4953,
      "Ġbegin": 4954,
      "Ġnon": 4955,
      "least": 4956,
      "Ġgained": 4957,
      "Ġli": 4958,
      "Ġrevers": 4959,
      "ceeds": 4960,
      "Ġexports": 4961,
      "ulent": 4962,
      "ulations": 4963,
      "Ġmaster": 4964,
      "Ġunity": 4965,
      "ilt": 4966,
      "Ġweb": 4967,
      "Ġvent": 4968,
      "Ġvig": 4969,
      "etof": 4970,
      "etext": 4971,
      "pecul": 4972,
      "emin": 4973,
      "too": 4974,
      "rule": 4975,
      "perhaps": 4976,
      "Ġimplies": 4977,
      "aryland": 4978,
      "conclus": 4979,
      "ung": 4980,
      "Ġpermitted": 4981,
      "Ġdisregard": 4982,
      "Ġcape": 4983,
      "otted": 4984,
      "also": 4985,
      "proposed": 4986,
      "ptions": 4987,
      "Ġhel": 4988,
      "Ġheart": 4989,
      "avag": 4990,
      "ordination": 4991,
      "Ġindia": 4992,
      "Ġworking": 4993,
      "Ġproducing": 4994,
      "Ġsla": 4995,
      "foreign": 4996,
      "icians": 4997,
      "Ġ24": 4998,
      "Ġ200": 4999,
      "stract": 5000,
      "Ġspan": 5001,
      "Ġwarrant": 5002,
      "Ġsystematic": 5003,
      "Ġcompass": 5004,
      "Ġfavoured": 5005,
      "Ġperfected": 5006,
      "Ġoffenses": 5007,
      "Ġ42": 5008,
      "Ġproportional": 5009,
      "Ġrocks": 5010,
      "Ġmarsup": 5011,
      "Ġappointing": 5012,
      "Ġconcert": 5013,
      "Ġguar": 5014,
      "Ġetexts": 5015,
      "Ġprofound": 5016,
      "Ġescape": 5017,
      "Ġstripes": 5018,
      "Ġviolated": 5019,
      "Ġbreeding": 5020,
      "equally": 5021,
      "Ġanalogical": 5022,
      "Ġleads": 5023,
      "Ġrequisitions": 5024,
      "Ġerrone": 5025,
      "Ġseedlings": 5026,
      "Ġideas": 5027,
      "Ġconstructed": 5028,
      "Ġcriminal": 5029,
      "Ġtenure": 5030,
      "Ġpreventing": 5031,
      "Ġhorns": 5032,
      "Ġcentral": 5033,
      "Ġdeposit": 5034,
      "because": 5035,
      "Ġbats": 5036,
      "Ġborne": 5037,
      "Ġlooked": 5038,
      "Ġskin": 5039,
      "Ġprevailed": 5040,
      "Ġterritories": 5041,
      "Ġdetermining": 5042,
      "Ġdetermined": 5043,
      "establish": 5044,
      "Ġsurprising": 5045,
      "Ġadmirable": 5046,
      "Ġadmiralty": 5047,
      "Ġextermination": 5048,
      "Ġoppression": 5049,
      "Ġdeliberate": 5050,
      "Ġsalutary": 5051,
      "world": 5052,
      "Ġhonor": 5053,
      "Ġcomprehend": 5054,
      "Ġprescribed": 5055,
      "Ġinquiry": 5056,
      "Ġassociation": 5057,
      "constitutions": 5058,
      "Ġaccuracy": 5059,
      "Ġstocks": 5060,
      "Ġdissolution": 5061,
      "Ġignorant": 5062,
      "follow": 5063,
      "Ġrome": 5064,
      "Ġinexplicable": 5065,
      "Ġcultivated": 5066,
      "Ġbegun": 5067,
      "complete": 5068,
      "Ġrarity": 5069,
      "Ġamendments": 5070,
      "Ġchargeable": 5071,
      "famil": 5072,
      "Ġhuber": 5073,
      "Ġdedu": 5074,
      "throughout": 5075,
      "expected": 5076,
      "Ġdegrad": 5077,
      "safe": 5078,
      "Ġgrafted": 5079,
      "Ġcontingencies": 5080,
      "Ġtumbler": 5081,
      "Ġadvocates": 5082,
      "Ġinsisted": 5083,
      "Ġsympath": 5084,
      "maphrodites": 5085,
      "Ġagriculture": 5086,
      "hybrids": 5087,
      "itudes": 5088,
      "welve": 5089,
      "Ġemerg": 5090,
      "osoph": 5091,
      "Ġachae": 5092,
      "Ġexpenses": 5093,
      "etofore": 5094,
      "az": 5095,
      "bor": 5096,
      "civil": 5097,
      "eas": 5098,
      "europe": 5099,
      "gl": 5100,
      "jority": 5101,
      "lantic": 5102,
      "mr": 5103,
      "my": 5104,
      "mere": 5105,
      "nÃ¦": 5106,
      "pa": 5107,
      "pable": 5108,
      "sum": 5109,
      "warr": 5110,
      "Ġtwelve": 5111,
      "erts": 5112,
      "itute": 5113,
      "itime": 5114,
      "Ġwr": 5115,
      "Ġcognizance": 5116,
      "eding": 5117,
      "Ġing": 5118,
      "Ġinj": 5119,
      "Ġincon": 5120,
      "Ġinno": 5121,
      "Ġanom": 5122,
      "Ġfreedom": 5123,
      "Ġmiss": 5124,
      "Ġmaryland": 5125,
      "orous": 5126,
      "arctic": 5127,
      "alk": 5128,
      "Ġbee": 5129,
      "Ġbeat": 5130,
      "Ġbears": 5131,
      "Ġbehavior": 5132,
      "entially": 5133,
      "ley": 5134,
      "road": 5135,
      "second": 5136,
      "Ġreduce": 5137,
      "Ġconqu": 5138,
      "Ġconject": 5139,
      "Ġconvey": 5140,
      "Ġforth": 5141,
      "Ġforbe": 5142,
      "Ġforced": 5143,
      "Ġforgotten": 5144,
      "Ġum": 5145,
      "Ġstop": 5146,
      "Ġsearch": 5147,
      "Ġsecret": 5148,
      "Ġunjust": 5149,
      "amm": 5150,
      "Ġdetect": 5151,
      "points": 5152,
      "ivorous": 5153,
      "Ġrad": 5154,
      "Ġrash": 5155,
      "Ġcoming": 5156,
      "Ġcomposition": 5157,
      "umph": 5158,
      "Ġattract": 5159,
      "acts": 5160,
      "adru": 5161,
      "allow": 5162,
      "Ġimplied": 5163,
      "plex": 5164,
      "Ġlev": 5165,
      "Ġsoil": 5166,
      "orted": 5167,
      "Ġplum": 5168,
      "Ġali": 5169,
      "Ġalike": 5170,
      "ieu": 5171,
      "Ġapplies": 5172,
      "Ġdischar": 5173,
      "Ġcaution": 5174,
      "Ġcaves": 5175,
      "otas": 5176,
      "bles": 5177,
      "wealth": 5178,
      "proceed": 5179,
      "preservation": 5180,
      "Ġpride": 5181,
      "Ġprince": 5182,
      "Ġagreed": 5183,
      "exclus": 5184,
      "experience": 5185,
      "avoid": 5186,
      "Ġaboriginal": 5187,
      "Ġfeathers": 5188,
      "Ġcontest": 5189,
      "Ġencour": 5190,
      "Ġ15": 5191,
      "Ġcounten": 5192,
      "Ġcounties": 5193,
      "Ġtry": 5194,
      "Ġtrain": 5195,
      "Ġtrace": 5196,
      "Ġtranquillity": 5197,
      "Ġacclim": 5198,
      "Ġproduct": 5199,
      "Ġauthorized": 5200,
      "Ġemperor": 5201,
      "Ġproves": 5202,
      "Ġsubjected": 5203,
      "Ġrelates": 5204,
      "prev": 5205,
      "preci": 5206,
      "formations": 5207,
      "Ġbreach": 5208,
      "Ġbelieves": 5209,
      "Ġclassed": 5210,
      "Ġrequiring": 5211,
      "Ġevils": 5212,
      "Ġcorn": 5213,
      "Ġsphere": 5214,
      "Ġjustly": 5215,
      "Ġasserted": 5216,
      "ologist": 5217,
      "Ġrecourse": 5218,
      "Ġtermin": 5219,
      "culated": 5220,
      "Ġdefeat": 5221,
      "fluous": 5222,
      "Ġinvested": 5223,
      "endered": 5224,
      "Ġblended": 5225,
      "ixture": 5226,
      "willing": 5227,
      "Ġtriumph": 5228,
      "Ġpassing": 5229,
      "akes": 5230,
      "generations": 5231,
      "Ġ43": 5232,
      "Ġmarkets": 5233,
      "Ġmaritime": 5234,
      "Ġfront": 5235,
      "Ġgraduated": 5236,
      "Ġratio": 5237,
      "Ġanswered": 5238,
      "numerous": 5239,
      "Ġexpression": 5240,
      "judiciary": 5241,
      "appears": 5242,
      "atisation": 5243,
      "Ġaffecting": 5244,
      "considerations": 5245,
      "support": 5246,
      "causes": 5247,
      "Ġbreeders": 5248,
      "Ġgoverning": 5249,
      "Ġavar": 5250,
      "majority": 5251,
      "Ġquality": 5252,
      "Ġqualifications": 5253,
      "Ġmigrated": 5254,
      "council": 5255,
      "Ġseriously": 5256,
      "Ġcreate": 5257,
      "Ġlaying": 5258,
      "Ġfacil": 5259,
      "Ġextravag": 5260,
      "Ġbeneath": 5261,
      "Ġ185": 5262,
      "Ġapprehend": 5263,
      "slow": 5264,
      "potent": 5265,
      "Ġimperfection": 5266,
      "Ġaccomp": 5267,
      "Ġchecks": 5268,
      "Ġmaintained": 5269,
      "Ġinjury": 5270,
      "Ġreproduction": 5271,
      "Ġmultiplication": 5272,
      "Ġintegrity": 5273,
      "Ġcandolle": 5274,
      "Ġmethods": 5275,
      "Ġdeliberations": 5276,
      "Ġfunctions": 5277,
      "Ġtribunal": 5278,
      "Ġaccurate": 5279,
      "Ġneuter": 5280,
      "Ġbarrier": 5281,
      "Ġsummary": 5282,
      "ivalent": 5283,
      "Ġassemblies": 5284,
      "Ġeminently": 5285,
      "Ġfauna": 5286,
      "purpose": 5287,
      "Ġcopyright": 5288,
      "years": 5289,
      "Ġseasons": 5290,
      "instincts": 5291,
      "single": 5292,
      "situation": 5293,
      "Ġdisturbed": 5294,
      "Ġinsurrection": 5295,
      "Ġcovered": 5296,
      "Ġcrustaceans": 5297,
      "ustrious": 5298,
      "Ġfloated": 5299,
      "Ġbotanists": 5300,
      "Ġundoubtedly": 5301,
      "Ġdignity": 5302,
      "Ġgreece": 5303,
      "Ġconsecutive": 5304,
      "ponents": 5305,
      "Ġaggregate": 5306,
      "Ġafrica": 5307,
      "Ġgentlemen": 5308,
      "Ġhabitually": 5309,
      "Ġdegradation": 5310,
      "Ġsympathy": 5311,
      "summ": 5312,
      "best": 5313,
      "bene": 5314,
      "cu": 5315,
      "eff": 5316,
      "faced": 5317,
      "hides": 5318,
      "low": 5319,
      "member": 5320,
      "pical": 5321,
      "sense": 5322,
      "satis": 5323,
      "tm": 5324,
      "tem": 5325,
      "tener": 5326,
      "trees": 5327,
      "tax": 5328,
      "ub": 5329,
      "uation": 5330,
      "viol": 5331,
      "xter": 5332,
      "Ġod": 5333,
      "inity": 5334,
      "ref": 5335,
      "real": 5336,
      "atures": 5337,
      "Ġspr": 5338,
      "itic": 5339,
      "itself": 5340,
      "Ġwom": 5341,
      "Ġcod": 5342,
      "isen": 5343,
      "Ġpy": 5344,
      "Ġpair": 5345,
      "Ġpup": 5346,
      "Ġinforms": 5347,
      "Ġincip": 5348,
      "Ġfight": 5349,
      "Ġflat": 5350,
      "Ġming": 5351,
      "oud": 5352,
      "Ġdre": 5353,
      "Ġduck": 5354,
      "security": 5355,
      "Ġwhence": 5356,
      "Ġgold": 5357,
      "Ġlod": 5358,
      "ceiving": 5359,
      "utation": 5360,
      "utious": 5361,
      "iday": 5362,
      "changes": 5363,
      "Ġexperienced": 5364,
      "igate": 5365,
      "thers": 5366,
      "Ġproportions": 5367,
      "Ġwithstand": 5368,
      "Ġunwilling": 5369,
      "andon": 5370,
      "amities": 5371,
      "Ġvest": 5372,
      "Ġvague": 5373,
      "Ġdead": 5374,
      "Ġdeemed": 5375,
      "ems": 5376,
      "Ġalliances": 5377,
      "Ġchild": 5378,
      "Ġimper": 5379,
      "Ġimply": 5380,
      "Ġimped": 5381,
      "Ġplains": 5382,
      "apit": 5383,
      "unction": 5384,
      "pled": 5385,
      "Ġaphides": 5386,
      "Ġdisgr": 5387,
      "ciously": 5388,
      "Ġpel": 5389,
      "Ġpoison": 5390,
      "udation": 5391,
      "Ġclos": 5392,
      "Ġcommission": 5393,
      "ensibly": 5394,
      "prof": 5395,
      "Ġconstituted": 5396,
      "agger": 5397,
      "vening": 5398,
      "whatever": 5399,
      "extr": 5400,
      "Ġgrass": 5401,
      "Ġgrave": 5402,
      "Ġabstract": 5403,
      "Ġfel": 5404,
      "Ġcontent": 5405,
      "Ġsupplies": 5406,
      "Ġsupplanted": 5407,
      "Ġenlarge": 5408,
      "Ġremove": 5409,
      "Ġdeserve": 5410,
      "Ġtakes": 5411,
      "Ġconfl": 5412,
      "Ġconsiderably": 5413,
      "asts": 5414,
      "aston": 5415,
      "tense": 5416,
      "Ġemol": 5417,
      "Ġappellate": 5418,
      "Ġsubstant": 5419,
      "Ġattained": 5420,
      "remarked": 5421,
      "comb": 5422,
      "Ġrelig": 5423,
      "Ġreasonably": 5424,
      "opin": 5425,
      "Ġrequest": 5426,
      "ailed": 5427,
      "Ġrespectable": 5428,
      "Ġpurch": 5429,
      "Ġpursue": 5430,
      "nearly": 5431,
      "Ġforever": 5432,
      "Ġassistance": 5433,
      "ception": 5434,
      "Ġrecapit": 5435,
      "ellow": 5436,
      "Ġheretofore": 5437,
      "Ġgeomet": 5438,
      "manufact": 5439,
      "Ġtook": 5440,
      "Ġdomesticated": 5441,
      "Ġscore": 5442,
      "Ġinvasions": 5443,
      "Ġconfederate": 5444,
      "Ġdiet": 5445,
      "Ġhypo": 5446,
      "Ġhappens": 5447,
      "Ġelective": 5448,
      "Ġgeneal": 5449,
      "requis": 5450,
      "Ġcoinc": 5451,
      "related": 5452,
      "Ġdry": 5453,
      "petition": 5454,
      "faction": 5455,
      "grand": 5456,
      "Ġoriginated": 5457,
      "Ġ44": 5458,
      "Ġcapital": 5459,
      "Ġstands": 5460,
      "Ġfriday": 5461,
      "Ġdestitute": 5462,
      "Ġprofit": 5463,
      "Ġescap": 5464,
      "Ġcombinations": 5465,
      "Ġsimilarity": 5466,
      "Ġresulting": 5467,
      "Ġreader": 5468,
      "necessarily": 5469,
      "Ġholds": 5470,
      "Ġincident": 5471,
      "Ġcomparing": 5472,
      "Ġmischief": 5473,
      "Ġsixty": 5474,
      "organs": 5475,
      "orgia": 5476,
      "rudimentary": 5477,
      "Ġprogenitors": 5478,
      "Ġfacult": 5479,
      "Ġimagination": 5480,
      "Ġdenied": 5481,
      "Ġprevented": 5482,
      "Ġunfav": 5483,
      "means": 5484,
      "Ġnaval": 5485,
      "Ġpunish": 5486,
      "Ġapprehended": 5487,
      "occup": 5488,
      "Ġimprovements": 5489,
      "Ġobligations": 5490,
      "Ġenemy": 5491,
      "Ġskill": 5492,
      "Ġrelating": 5493,
      "Ġhampshire": 5494,
      "Ġsurprised": 5495,
      "indeed": 5496,
      "Ġsuffice": 5497,
      "Ġfairly": 5498,
      "successive": 5499,
      "compatible": 5500,
      "Ġproofs": 5501,
      "effected": 5502,
      "Ġcontribute": 5503,
      "Ġprecaution": 5504,
      "Ġassociated": 5505,
      "Ġabolish": 5506,
      "Ġattributed": 5507,
      "Ġeminent": 5508,
      "Ġsolid": 5509,
      "formerly": 5510,
      "Ġvegetable": 5511,
      "ustomed": 5512,
      "Ġoccupied": 5513,
      "Ġfaunas": 5514,
      "Ġidentical": 5515,
      "Ġobstacles": 5516,
      "Ġfertilised": 5517,
      "Ġadministered": 5518,
      "consequently": 5519,
      "Ġprerogative": 5520,
      "Ġimprobable": 5521,
      "affected": 5522,
      "breeding": 5523,
      "Ġstigma": 5524,
      "superable": 5525,
      "links": 5526,
      "inclined": 5527,
      "developed": 5528,
      "Ġanticipated": 5529,
      "Ġdeeply": 5530,
      "Ġtravel": 5531,
      "Ġplausible": 5532,
      "Ġpropensity": 5533,
      "Ġclothed": 5534,
      "Ġembedded": 5535,
      "Ġhemisphere": 5536,
      "labour": 5537,
      "Ġpacific": 5538,
      "peculiar": 5539,
      "Ġingred": 5540,
      "xterity": 5541,
      "Ġincipient": 5542,
      "bro": 5543,
      "fill": 5544,
      "fall": 5545,
      "four": 5546,
      "gest": 5547,
      "gue": 5548,
      "hil": 5549,
      "jour": 5550,
      "mar": 5551,
      "mater": 5552,
      "sovereign": 5553,
      "tow": 5554,
      "tical": 5555,
      "taking": 5556,
      "xagon": 5557,
      "Ġx": 5558,
      "Ġostr": 5559,
      "Ġoption": 5560,
      "inv": 5561,
      "informed": 5562,
      "erion": 5563,
      "ering": 5564,
      "ona": 5565,
      "Ġsn": 5566,
      "Ġspo": 5567,
      "Ġsight": 5568,
      "Ġsaving": 5569,
      "Ġsinc": 5570,
      "Ġoftener": 5571,
      "Ġburd": 5572,
      "Ġwished": 5573,
      "Ġcited": 5574,
      "Ġcost": 5575,
      "isk": 5576,
      "islands": 5577,
      "Ġinduced": 5578,
      "Ġfab": 5579,
      "alay": 5580,
      "Ġbeget": 5581,
      "Ġnour": 5582,
      "Ġnails": 5583,
      "thousand": 5584,
      "thren": 5585,
      "lex": 5586,
      "Ġeag": 5587,
      "Ġeastern": 5588,
      "still": 5589,
      "Ġlives": 5590,
      "Ġreve": 5591,
      "Ġrecess": 5592,
      "Ġconferred": 5593,
      "impe": 5594,
      "Ġissue": 5595,
      "urance": 5596,
      "Ġexcre": 5597,
      "Ġexerted": 5598,
      "Ġsec": 5599,
      "Ġseized": 5600,
      "Ġsum": 5601,
      "Ġprodig": 5602,
      "illations": 5603,
      "mention": 5604,
      "Ġmother": 5605,
      "Ġunal": 5606,
      "Ġuncertain": 5607,
      "Ġunnatural": 5608,
      "Ġunnecessary": 5609,
      "Ġunavoid": 5610,
      "Ġvan": 5611,
      "Ġdeput": 5612,
      "Ġnotorious": 5613,
      "quar": 5614,
      "Ġrid": 5615,
      "Ġrational": 5616,
      "Ġcompr": 5617,
      "Ġcomposing": 5618,
      "ado": 5619,
      "Ġchanne": 5620,
      "Ġimpose": 5621,
      "Ġlear": 5622,
      "decl": 5623,
      "Ġpled": 5624,
      "apsed": 5625,
      "Ġadjust": 5626,
      "Ġmanagement": 5627,
      "Ġalph": 5628,
      "Ġanything": 5629,
      "otion": 5630,
      "ishes": 5631,
      "Ġpointed": 5632,
      "bees": 5633,
      "closed": 5634,
      "Ġinterference": 5635,
      "Ġheath": 5636,
      "Ġhexagon": 5637,
      "aging": 5638,
      "Ġextension": 5639,
      "Ġabuse": 5640,
      "others": 5641,
      "Ġaccustomed": 5642,
      "Ġconfirm": 5643,
      "Ġworth": 5644,
      "Ġobstru": 5645,
      "Ġactivity": 5646,
      "Ġsubmit": 5647,
      "Ġbelow": 5648,
      "Ġimported": 5649,
      "Ġanimos": 5650,
      "Ġmodes": 5651,
      "Ġsenator": 5652,
      "Ġflour": 5653,
      "Ġfluct": 5654,
      "Ġ29": 5655,
      "Ġequivalent": 5656,
      "Ġknows": 5657,
      "Ġoftenest": 5658,
      "Ġsaw": 5659,
      "Ġbrethren": 5660,
      "Ġbelieving": 5661,
      "ailing": 5662,
      "Ġeste": 5663,
      "Ġestim": 5664,
      "Ġendowed": 5665,
      "Ġdiscord": 5666,
      "Ġgeese": 5667,
      "Ġdefinite": 5668,
      "Ġouter": 5669,
      "Ġjuries": 5670,
      "Ġspecially": 5671,
      "extensive": 5672,
      "rels": 5673,
      "few": 5674,
      "variability": 5675,
      "Ġjudging": 5676,
      "Ġdeclam": 5677,
      "Ġinstinctive": 5678,
      "Ġcapacities": 5679,
      "Ġrod": 5680,
      "Ġdelicate": 5681,
      "Ġdelaware": 5682,
      "Ġstrongest": 5683,
      "distant": 5684,
      "distance": 5685,
      "Ġdistributed": 5686,
      "moder": 5687,
      "Ġpeculiarly": 5688,
      "judic": 5689,
      "Ġrevision": 5690,
      "Ġmagistrates": 5691,
      "Ġpretensions": 5692,
      "Ġinfall": 5693,
      "Ġmutually": 5694,
      "Ġemployment": 5695,
      "Ġcatalog": 5696,
      "Ġalternat": 5697,
      "Ġmodel": 5698,
      "Ġrestrained": 5699,
      "Ġelapsed": 5700,
      "Ġdeviations": 5701,
      "Ġextends": 5702,
      "Ġincidental": 5703,
      "crossing": 5704,
      "instances": 5705,
      "Ġrevenues": 5706,
      "Ġbearing": 5707,
      "Ġ199": 5708,
      "Ġturned": 5709,
      "Ġprogeny": 5710,
      "Ġswim": 5711,
      "Ġsword": 5712,
      "Ġmammal": 5713,
      "rupted": 5714,
      "Ġbeneficial": 5715,
      "Ġphysiological": 5716,
      "Ġjealousies": 5717,
      "Ġsentence": 5718,
      "Ġsuperint": 5719,
      "Ġsuperfluous": 5720,
      "Ġantiqu": 5721,
      "Ġ137": 5722,
      "Ġfamiliar": 5723,
      "Ġchecked": 5724,
      "Ġexpedients": 5725,
      "Ġmoderation": 5726,
      "Ġmultiply": 5727,
      "Ġmultiplied": 5728,
      "Ġexcav": 5729,
      "confederacy": 5730,
      "objection": 5731,
      "Ġdetermination": 5732,
      "establishment": 5733,
      "Ġtropical": 5734,
      "Ġdisplay": 5735,
      "Ġdivergent": 5736,
      "Ġwritten": 5737,
      "Ġdebt": 5738,
      "Ġmaxims": 5739,
      "Ġfilled": 5740,
      "worthy": 5741,
      "Ġprivilege": 5742,
      "officers": 5743,
      "Ġresistance": 5744,
      "Ġendeavor": 5745,
      "putation": 5746,
      "defense": 5747,
      "discuss": 5748,
      "Ġmillion": 5749,
      "Ġsurely": 5750,
      "Ġvictorious": 5751,
      "Ġinducements": 5752,
      "Ġascertained": 5753,
      "Ġinvolved": 5754,
      "Ġforbes": 5755,
      "appointment": 5756,
      "Ġsurrounding": 5757,
      "Ġsurvive": 5758,
      "Ġrarer": 5759,
      "Ġ339": 5760,
      "horse": 5761,
      "Ġcensure": 5762,
      "Ġcritical": 5763,
      "Ġinvestigation": 5764,
      "Ġfortunes": 5765,
      "independent": 5766,
      "Ġmerchant": 5767,
      "Ġcurrents": 5768,
      "tendency": 5769,
      "Ġprior": 5770,
      "Ġsatisfy": 5771,
      "Ġabundant": 5772,
      "Ġembrace": 5773,
      "Ġhopes": 5774,
      "Ġrecollect": 5775,
      "Ġparasitic": 5776,
      "Ġpolitics": 5777,
      "elections": 5778,
      "Ġdesirable": 5779,
      "Ġglobe": 5780,
      "ippi": 5781,
      "exercise": 5782,
      "Ġkilled": 5783,
      "Ġenlarged": 5784,
      "Ġsanguinea": 5785,
      "Ġfantail": 5786,
      "Ġmarsupials": 5787,
      "families": 5788,
      "Ġemergencies": 5789,
      "Ġlodged": 5790,
      "Ġdisgrace": 5791,
      "Ġburdens": 5792,
      "\";": 5793,
      ");": 5794,
      "aked": 5795,
      "aft": 5796,
      "aug": 5797,
      "bi": 5798,
      "bation": 5799,
      "bur": 5800,
      "bird": 5801,
      "crit": 5802,
      "cultiv": 5803,
      "divided": 5804,
      "ele": 5805,
      "fut": 5806,
      "full": 5807,
      "grown": 5808,
      "him": 5809,
      "hist": 5810,
      "iers": 5811,
      "iated": 5812,
      "iÃ¦": 5813,
      "ihil": 5814,
      "last": 5815,
      "local": 5816,
      "mult": 5817,
      "morph": 5818,
      "migration": 5819,
      "norm": 5820,
      "ole": 5821,
      "ots": 5822,
      "oided": 5823,
      "pid": 5824,
      "prud": 5825,
      "ration": 5826,
      "ser": 5827,
      "vary": 5828,
      "viate": 5829,
      "Ġ)": 5830,
      "Ġice": 5831,
      "Ġtells": 5832,
      "Ġaber": 5833,
      "Ġowe": 5834,
      "Ġomission": 5835,
      "Ġosc": 5836,
      "inate": 5837,
      "inconveni": 5838,
      "erical": 5839,
      "reproductive": 5840,
      "reuter": 5841,
      "Ġspl": 5842,
      "itation": 5843,
      "Ġbo": 5844,
      "Ġbul": 5845,
      "Ġbud": 5846,
      "Ġbless": 5847,
      "edily": 5848,
      "isons": 5849,
      "Ġpen": 5850,
      "anied": 5851,
      "Ġinformed": 5852,
      "Ġinconsiderable": 5853,
      "Ġmedit": 5854,
      "orter": 5855,
      "armed": 5856,
      "icts": 5857,
      "Ġhes": 5858,
      "Ġbehold": 5859,
      "Ġdu": 5860,
      "Ġdig": 5861,
      "enter": 5862,
      "thr": 5863,
      "lead": 5864,
      "set": 5865,
      "lling": 5866,
      "Ġreform": 5867,
      "Ġreverse": 5868,
      "uries": 5869,
      "idation": 5870,
      "idÃ¦": 5871,
      "ched": 5872,
      "Ġexempl": 5873,
      "Ġsecre": 5874,
      "Ġsections": 5875,
      "Ġsecured": 5876,
      "absolute": 5877,
      "ulse": 5878,
      "terior": 5879,
      "Ġmaced": 5880,
      "Ġunimportant": 5881,
      "Ġunworthy": 5882,
      "Ġweal": 5883,
      "ande": 5884,
      "amb": 5885,
      "Ġvii": 5886,
      "Ġdexterity": 5887,
      "quieu": 5888,
      "estions": 5889,
      "ivable": 5890,
      "Ġrising": 5891,
      "peck": 5892,
      "Ġcompose": 5893,
      "olreuter": 5894,
      "Ġatlantic": 5895,
      "Ġalliance": 5896,
      "Ġchain": 5897,
      "Ġchains": 5898,
      "Ġchalk": 5899,
      "determ": 5900,
      "arious": 5901,
      "Ġplural": 5902,
      "Ġplata": 5903,
      "appreh": 5904,
      "appointed": 5905,
      "placed": 5906,
      "Ġperplex": 5907,
      "Ġdispos": 5908,
      "Ġdisunion": 5909,
      "Ġdisadvantages": 5910,
      "Ġcausing": 5911,
      "Ġparticip": 5912,
      "Ġcliff": 5913,
      "Ġarist": 5914,
      "Ġaround": 5915,
      "Ġarisen": 5916,
      "proved": 5917,
      "propriety": 5918,
      "beings": 5919,
      "Ġpreferred": 5920,
      "indis": 5921,
      "agree": 5922,
      "Ġconsol": 5923,
      "Ġagents": 5924,
      "why": 5925,
      "extermin": 5926,
      "Ġresid": 5927,
      "Ġresolution": 5928,
      "Ġkolreuter": 5929,
      "Ġgrants": 5930,
      "Ġfears": 5931,
      "Ġcontended": 5932,
      "aceous": 5933,
      "Ġenfor": 5934,
      "Ġencoun": 5935,
      "Ġindicate": 5936,
      "cedent": 5937,
      "Ġquadru": 5938,
      "Ġquotas": 5939,
      "ignation": 5940,
      "Ġcharged": 5941,
      "Ġaccounted": 5942,
      "Ġtaught": 5943,
      "brit": 5944,
      "Ġproduces": 5945,
      "Ġcommons": 5946,
      "Ġlargest": 5947,
      "Ġprovince": 5948,
      "Ġopponents": 5949,
      "Ġactions": 5950,
      "Ġattack": 5951,
      "Ġattachment": 5952,
      "Ġattacks": 5953,
      "Ġadmon": 5954,
      "Ġadmits": 5955,
      "parta": 5956,
      "Ġseeing": 5957,
      "Ġbreak": 5958,
      "Ġseemed": 5959,
      "Ġbelieved": 5960,
      "Ġfores": 5961,
      "Ġdomain": 5962,
      "Ġrespectively": 5963,
      "Ġdoubts": 5964,
      "Ġaffords": 5965,
      "Ġassum": 5966,
      "Ġofficial": 5967,
      "Ġendow": 5968,
      "condition": 5969,
      "Ġdiscr": 5970,
      "Ġelectric": 5971,
      "Ġpreval": 5972,
      "Ġpossessing": 5973,
      "Ġcarn": 5974,
      "commer": 5975,
      "variable": 5976,
      "Ġworkmen": 5977,
      "Ġtreated": 5978,
      "Ġinspire": 5979,
      "Ġinspection": 5980,
      "Ġrendering": 5981,
      "Ġ40": 5982,
      "Ġ48": 5983,
      "Ġframed": 5984,
      "Ġexcepting": 5985,
      "Ġratification": 5986,
      "possibility": 5987,
      "Ġpractical": 5988,
      "Ġguide": 5989,
      "ipona": 5990,
      "Ġeasier": 5991,
      "perfectly": 5992,
      "Ġfavorite": 5993,
      "supported": 5994,
      "Ġranks": 5995,
      "Ġaltered": 5996,
      "Ġannihil": 5997,
      "Ġsovereigns": 5998,
      "Ġrestraining": 5999,
      "Ġrestraint": 6000,
      "Ġentering": 6001,
      "Ġembryos": 6002,
      "courts": 6003,
      "ugn": 6004,
      "Ġleaders": 6005,
      "Ġgoing": 6006,
      "naturalists": 6007,
      "Ġsuspend": 6008,
      "Ġsuspic": 6009,
      "Ġimmigr": 6010,
      "crossed": 6011,
      "Ġsixth": 6012,
      "Ġdiverse": 6013,
      "Ġelevation": 6014,
      "Ġsolemn": 6015,
      "Ġspeedily": 6016,
      "aneous": 6017,
      "Ġoceans": 6018,
      "ordinarily": 6019,
      "Ġdenudation": 6020,
      "mean": 6021,
      "meas": 6022,
      "Ġbounds": 6023,
      "Ġpunct": 6024,
      "Ġdefective": 6025,
      "Ġapprehensions": 6026,
      "Ġconsistent": 6027,
      "attention": 6028,
      "Ġresource": 6029,
      "Ġlowest": 6030,
      "Ġobligation": 6031,
      "Ġintroduction": 6032,
      "Ġinquire": 6033,
      "society": 6034,
      "Ġmoderate": 6035,
      "originally": 6036,
      "Ġexcite": 6037,
      "Ġdeclaring": 6038,
      "Ġnearer": 6039,
      "collect": 6040,
      "observed": 6041,
      "observations": 6042,
      "Ġspecifically": 6043,
      "Ġvolume": 6044,
      "Ġdiverging": 6045,
      "Ġwriters": 6046,
      "pigeons": 6047,
      "succession": 6048,
      "Ġrhom": 6049,
      "sufficiently": 6050,
      "Ġprohibition": 6051,
      "Ġprohibited": 6052,
      "Ġcontributions": 6053,
      "Ġmonarchy": 6054,
      "Ġgermany": 6055,
      "Ġfleet": 6056,
      "doubt": 6057,
      "Ġultimate": 6058,
      "Ġprejudice": 6059,
      "Ġtempted": 6060,
      "complex": 6061,
      "Ġvegetation": 6062,
      "fortun": 6063,
      "Ġbasis": 6064,
      "================": 6065,
      "Ġenterprise": 6066,
      "Ġphilosoph": 6067,
      "Ġdissimilarity": 6068,
      "destroy": 6069,
      "Ġdeficient": 6070,
      "adapt": 6071,
      "Ġartificial": 6072,
      "Ġincapable": 6073,
      "Ġsuffrage": 6074,
      "inherited": 6075,
      "haust": 6076,
      "magistr": 6077,
      "Ġdaily": 6078,
      "Ġefficient": 6079,
      "immediately": 6080,
      "Ġintrigues": 6081,
      "Ġpieces": 6082,
      "Ġaccordance": 6083,
      "Ġroyal": 6084,
      "corresponding": 6085,
      "Ġintelligent": 6086,
      "Ġpropagated": 6087,
      "liberty": 6088,
      "widely": 6089,
      "Ġwolf": 6090,
      "Ġalleged": 6091,
      "Ġcircums": 6092,
      "further": 6093,
      "Ġpistil": 6094,
      "Ġtowns": 6095,
      "conclusion": 6096,
      "Ġerroneous": 6097,
      "Ġcountenance": 6098,
      "Ġacclimatisation": 6099,
      "Ġavarice": 6100,
      "slowly": 6101,
      "ĠpupÃ¦": 6102,
      "extra": 6103,
      "Ġgeometrical": 6104,
      "Ġostrich": 6105,
      "Ġeager": 6106,
      "Ġfluctu": 6107,
      "Ġmacedon": 6108,
      "Ġplurality": 6109,
      "10": 6110,
      "aire": 6111,
      "bert": 6112,
      "bility": 6113,
      "creat": 6114,
      "cun": 6115,
      "een": 6116,
      "ech": 6117,
      "give": 6118,
      "grow": 6119,
      "given": 6120,
      "hon": 6121,
      "iet": 6122,
      "line": 6123,
      "mil": 6124,
      "met": 6125,
      "mind": 6126,
      "pill": 6127,
      "rul": 6128,
      "ranges": 6129,
      "rande": 6130,
      "son": 6131,
      "sent": 6132,
      "sac": 6133,
      "south": 6134,
      "tled": 6135,
      "taken": 6136,
      "trop": 6137,
      "vations": 6138,
      "xes": 6139,
      "Ġ#": 6140,
      "Ġthreat": 6141,
      "Ġtheore": 6142,
      "once": 6143,
      "enes": 6144,
      "rest": 6145,
      "reconcil": 6146,
      "atum": 6147,
      "attrib": 6148,
      "Ġsin": 6149,
      "Ġsend": 6150,
      "Ġsag": 6151,
      "Ġsparta": 6152,
      "itz": 6153,
      "Ġbars": 6154,
      "Ġbold": 6155,
      "Ġwatch": 6156,
      "Ġwoll": 6157,
      "Ġwander": 6158,
      "Ġcustom": 6159,
      "isis": 6160,
      "isive": 6161,
      "Ġped": 6162,
      "Ġpot": 6163,
      "Ġpatter": 6164,
      "Ġpond": 6165,
      "Ġinconsist": 6166,
      "Ġfer": 6167,
      "Ġfate": 6168,
      "Ġfanci": 6169,
      "orpor": 6170,
      "already": 6171,
      "Ġtouch": 6172,
      "ica": 6173,
      "Ġhil": 6174,
      "Ġhart": 6175,
      "Ġdark": 6176,
      "rog": 6177,
      "ros": 6178,
      "seed": 6179,
      "Ġgarden": 6180,
      "Ġrept": 6181,
      "Ġreference": 6182,
      "Ġreputation": 6183,
      "omination": 6184,
      "Ġconn": 6185,
      "Ġconceive": 6186,
      "Ġconverse": 6187,
      "ift": 6188,
      "Ġforty": 6189,
      "Ġaspect": 6190,
      "Ġstre": 6191,
      "Ġstead": 6192,
      "Ġnovel": 6193,
      "Ġnobility": 6194,
      "asual": 6195,
      "iders": 6196,
      "chapter": 6197,
      "Ġexists": 6198,
      "Ġsev": 6199,
      "Ġpropri": 6200,
      "ulative": 6201,
      "resist": 6202,
      "essile": 6203,
      "ample": 6204,
      "Ġven": 6205,
      "Ġnote": 6206,
      "quis": 6207,
      "quite": 6208,
      "pop": 6209,
      "post": 6210,
      "Ġren": 6211,
      "ols": 6212,
      "Ġallies": 6213,
      "adder": 6214,
      "Ġpardon": 6215,
      "Ġiii": 6216,
      "dec": 6217,
      "decess": 6218,
      "ortun": 6219,
      "univers": 6220,
      "posit": 6221,
      "Ġperceived": 6222,
      "Ġnatives": 6223,
      "Ġcave": 6224,
      "trial": 6225,
      "Ġpecun": 6226,
      "Ġpoly": 6227,
      "Ġamounts": 6228,
      "Ġdiffering": 6229,
      "riptions": 6230,
      "produce": 6231,
      "preserved": 6232,
      "becom": 6233,
      "cles": 6234,
      "Ġinterfer": 6235,
      "Ġpredomin": 6236,
      "Ġpretense": 6237,
      "assiz": 6238,
      "Ġpresumption": 6239,
      "Ġprinces": 6240,
      "Ġconsumption": 6241,
      "Ġagassiz": 6242,
      "Ġundergo": 6243,
      "Ġundergoing": 6244,
      "venient": 6245,
      "ava": 6246,
      "Ġresent": 6247,
      "Ġreside": 6248,
      "Ġkings": 6249,
      "Ġgray": 6250,
      "Ġabrupt": 6251,
      "Ġabandon": 6252,
      "Ġenforce": 6253,
      "Ġusing": 6254,
      "Ġtrad": 6255,
      "Ġdifferently": 6256,
      "Ġconfines": 6257,
      "bra": 6258,
      "brane": 6259,
      "superi": 6260,
      "Ġobjected": 6261,
      "Ġsubordination": 6262,
      "Ġjudged": 6263,
      "Ġrepresenting": 6264,
      "Ġcertainty": 6265,
      "Ġflies": 6266,
      "Ġdescriptions": 6267,
      "Ġseek": 6268,
      "Ġrelied": 6269,
      "Ġcontinual": 6270,
      "Ġparticulars": 6271,
      "Ġpresented": 6272,
      "Ġcondemn": 6273,
      "Ġrespecting": 6274,
      "strength": 6275,
      "Ġestate": 6276,
      "Ġcountrymen": 6277,
      "Ġsingly": 6278,
      "Ġendang": 6279,
      "Ġgeorgia": 6280,
      "culation": 6281,
      "ship": 6282,
      "Ġfavour": 6283,
      "Ġworlds": 6284,
      "Ġspecified": 6285,
      "Ġintention": 6286,
      "ĠbranchiÃ¦": 6287,
      "Ġblank": 6288,
      "Ġpreviously": 6289,
      "Ġseparately": 6290,
      "Ġinfluenced": 6291,
      "feathers": 6292,
      "Ġpassage": 6293,
      "naturally": 6294,
      "issippi": 6295,
      "Ġcompleted": 6296,
      "Ġruin": 6297,
      "Ġroad": 6298,
      "Ġframe": 6299,
      "Ġdeline": 6300,
      "Ġfourteen": 6301,
      "Ġdecisive": 6302,
      "cludes": 6303,
      "Ġgrades": 6304,
      "Ġmajor": 6305,
      "numbers": 6306,
      "Ġexpressions": 6307,
      "Ġheads": 6308,
      "Ġprofits": 6309,
      "judgment": 6310,
      "Ġtruths": 6311,
      "Ġbarrande": 6312,
      "understand": 6313,
      "Ġmarket": 6314,
      "Ġcatch": 6315,
      "Ġrestricted": 6316,
      "Ġrestrictions": 6317,
      "Ġrestraints": 6318,
      "Ġentered": 6319,
      "Ġaccumulating": 6320,
      "Ġavoided": 6321,
      "Ġserves": 6322,
      "Ġservices": 6323,
      "Ġdiscovery": 6324,
      "Ġdeviation": 6325,
      "Ġembryology": 6326,
      "Ġcalamities": 6327,
      "Ġelements": 6328,
      "Ġinterval": 6329,
      "Ġintervention": 6330,
      "reasonable": 6331,
      "Ġcrisis": 6332,
      "Ġconclusions": 6333,
      "Ġobtaining": 6334,
      "appearance": 6335,
      "Ġguardians": 6336,
      "Ġunfit": 6337,
      "Ġunfriendly": 6338,
      "Ġunfortun": 6339,
      "equality": 6340,
      "evident": 6341,
      "Ġcarriers": 6342,
      "principal": 6343,
      "Ġpositive": 6344,
      "Ġprompt": 6345,
      "Ġ144": 6346,
      "Ġrests": 6347,
      "Ġmainland": 6348,
      "confederacies": 6349,
      "affairs": 6350,
      "Ġfifty": 6351,
      "periods": 6352,
      "Ġbroad": 6353,
      "Ġdiffused": 6354,
      "Ġdistinguish": 6355,
      "Ġinstituted": 6356,
      "Ġrecommended": 6357,
      "Ġearliest": 6358,
      "Ġjoint": 6359,
      "Ġenormously": 6360,
      "Ġclimatal": 6361,
      "spirit": 6362,
      "Ġpayment": 6363,
      "difficulties": 6364,
      "Ġillustrate": 6365,
      "defined": 6366,
      "Ġinconvenience": 6367,
      "classes": 6368,
      "Ġacknowledge": 6369,
      "raised": 6370,
      "Ġsignification": 6371,
      "Ġisolation": 6372,
      "Ġremembered": 6373,
      "favor": 6374,
      "favourable": 6375,
      "Ġdissolved": 6376,
      "ĠpalÃ¦ozoic": 6377,
      "person": 6378,
      "Ġimpressed": 6379,
      "Ġimpressions": 6380,
      "Ġcommunicated": 6381,
      "Ġcommunication": 6382,
      "Ġenjoyed": 6383,
      "Ġinvolve": 6384,
      "Ġprimary": 6385,
      "fossil": 6386,
      "Ġwatson": 6387,
      "Ġbenefits": 6388,
      "Ġdictates": 6389,
      "Ġassembled": 6390,
      "Ġgrey": 6391,
      "Ġsaved": 6392,
      "Ġaffirmative": 6393,
      "Ġbasins": 6394,
      "organisation": 6395,
      "occasional": 6396,
      "family": 6397,
      "Ġrapidly": 6398,
      "Ġdissatis": 6399,
      "Ġbuilding": 6400,
      "Ġmalay": 6401,
      "embryo": 6402,
      "department": 6403,
      "departments": 6404,
      "Ġprerogatives": 6405,
      "Ġconfinement": 6406,
      "Ġwoodpeck": 6407,
      "Ġmercy": 6408,
      "Ġdecrease": 6409,
      "Ġsatisfied": 6410,
      "ĠpalÃ¦ontologists": 6411,
      "division": 6412,
      "Ġmachine": 6413,
      "Ġunconscious": 6414,
      "Ġunconsciously": 6415,
      "adapted": 6416,
      "Ġsuffrages": 6417,
      "contrary": 6418,
      "articles": 6419,
      "Ġaccommodation": 6420,
      "frequently": 6421,
      "Ġconvenience": 6422,
      "Ġscotland": 6423,
      "Ġtoler": 6424,
      "Ġengagements": 6425,
      "Ġwebbed": 6426,
      "establishments": 6427,
      "warrant": 6428,
      "Ġwrong": 6429,
      "Ġconjecture": 6430,
      "Ġforbear": 6431,
      "Ġextravagant": 6432,
      "Ġaccompanied": 6433,
      "Ġgenealogical": 6434,
      "grandize": 6435,
      "Ġmischiefs": 6436,
      "occupied": 6437,
      "journ": 6438,
      "Ġpledge": 6439,
      "Ġesteem": 6440,
      "Ġantiquity": 6441,
      "normal": 6442,
      "measures": 6443,
      "tropical": 6444,
      "Ġwollaston": 6445,
      "Ġpattern": 6446,
      "Ġpropriet": 6447,
      "Ġpecuniary": 6448,
      ").": 6449,
      "auses": 6450,
      "bas": 6451,
      "bage": 6452,
      "cent": 6453,
      "dem": 6454,
      "dimin": 6455,
      "eight": 6456,
      "early": 6457,
      "free": 6458,
      "fund": 6459,
      "fellow": 6460,
      "hed": 6461,
      "iam": 6462,
      "lo": 6463,
      "lity": 6464,
      "living": 6465,
      "mal": 6466,
      "main": 6467,
      "oke": 6468,
      "rarely": 6469,
      "six": 6470,
      "tain": 6471,
      "times": 6472,
      "trust": 6473,
      "wers": 6474,
      "xious": 6475,
      "Â°": 6476,
      "Ġaided": 6477,
      "iny": 6478,
      "infer": 6479,
      "reven": 6480,
      "Ġspect": 6481,
      "Ġserved": 6482,
      "itting": 6483,
      "Ġber": 6484,
      "Ġban": 6485,
      "Ġbould": 6486,
      "esis": 6487,
      "Ġcant": 6488,
      "Ġcrop": 6489,
      "ancient": 6490,
      "Ġingen": 6491,
      "Ġinjustice": 6492,
      "Ġinaug": 6493,
      "Ġang": 6494,
      "Ġanterior": 6495,
      "Ġfix": 6496,
      "Ġmud": 6497,
      "Ġmyst": 6498,
      "Ġmixture": 6499,
      "icult": 6500,
      "icked": 6501,
      "Ġdate": 6502,
      "Ġdun": 6503,
      "Ġnamed": 6504,
      "ental": 6505,
      "thens": 6506,
      "lem": 6507,
      "lets": 6508,
      "leased": 6509,
      "stone": 6510,
      "stros": 6511,
      "roph": 6512,
      "select": 6513,
      "Ġgrown": 6514,
      "Ġlic": 6515,
      "Ġrever": 6516,
      "Ġreferred": 6517,
      "Ġresearch": 6518,
      "Ġreceiving": 6519,
      "Ġrepetition": 6520,
      "ifted": 6521,
      "iration": 6522,
      "urs": 6523,
      "Ġnoble": 6524,
      "Ġexagger": 6525,
      "igid": 6526,
      "igantic": 6527,
      "Ġseize": 6528,
      "Ġpropositions": 6529,
      "amp": 6530,
      "Ġvic": 6531,
      "Ġvide": 6532,
      "Ġvital": 6533,
      "endeav": 6534,
      "Ġranging": 6535,
      "ounce": 6536,
      "umb": 6537,
      "geological": 6538,
      "employ": 6539,
      "odities": 6540,
      "acted": 6541,
      "adth": 6542,
      "dev": 6543,
      "determin": 6544,
      "accur": 6545,
      "acknow": 6546,
      "orticult": 6547,
      "congress": 6548,
      "conduct": 6549,
      "until": 6550,
      "iev": 6551,
      "Ġperish": 6552,
      "Ġapportion": 6553,
      "Ġtherein": 6554,
      "Ġdisorder": 6555,
      "duous": 6556,
      "Ġcautious": 6557,
      "Ġpartake": 6558,
      "bladder": 6559,
      "Ġdiffered": 6560,
      "Ġclover": 6561,
      "Ġarduous": 6562,
      "process": 6563,
      "progen": 6564,
      "berry": 6565,
      "Ġinterm": 6566,
      "Ġinterpret": 6567,
      "Ġdistress": 6568,
      "Ġprepar": 6569,
      "Ġpresents": 6570,
      "Ġconstituting": 6571,
      "Ġaggrandize": 6572,
      "exped": 6573,
      "Ġgraft": 6574,
      "Ġability": 6575,
      "Ġabuses": 6576,
      "âĢľ": 6577,
      "Ġfeed": 6578,
      "Ġtwice": 6579,
      "Ġenclosed": 6580,
      "idelity": 6581,
      "izont": 6582,
      "Ġshallow": 6583,
      "Ġdesol": 6584,
      "Ġaccus": 6585,
      "Ġconfusion": 6586,
      "Ġlessen": 6587,
      "icty": 6588,
      "Ġauthorize": 6589,
      "Ġregret": 6590,
      "Ġfactions": 6591,
      "Ġcommonwealth": 6592,
      "Ġproviding": 6593,
      "arsi": 6594,
      "Ġattach": 6595,
      "remacy": 6596,
      "compreh": 6597,
      "Ġ34": 6598,
      "Ġfles": 6599,
      "Ġexecuting": 6600,
      "Ġrelief": 6601,
      "Ġequitable": 6602,
      "prec": 6603,
      "Ġreasonings": 6604,
      "flower": 6605,
      "Ġpresenting": 6606,
      "Ġcircle": 6607,
      "Ġspaces": 6608,
      "aterpill": 6609,
      "istry": 6610,
      "istrations": 6611,
      "Ġsimil": 6612,
      "Ġsimpl": 6613,
      "Ġpolity": 6614,
      "Ġrecords": 6615,
      "Ġwarmer": 6616,
      "Ġendless": 6617,
      "Ġhermaphrodites": 6618,
      "Ġterr": 6619,
      "management": 6620,
      "Ġobscure": 6621,
      "Ġcontrast": 6622,
      "Ġhimalay": 6623,
      "phicty": 6624,
      "Ġplanes": 6625,
      "Ġlanded": 6626,
      "Ġadding": 6627,
      "Ġhappily": 6628,
      "Ġbranching": 6629,
      "ĠĠĠ": 6630,
      "Ġtransactions": 6631,
      "extinct": 6632,
      "Ġblown": 6633,
      "plicity": 6634,
      "Ġdelinqu": 6635,
      "Ġchapters": 6636,
      "regulated": 6637,
      "Ġacquies": 6638,
      "Ġmontes": 6639,
      "Ġmonstros": 6640,
      "Ġsocieties": 6641,
      "Ġsituations": 6642,
      "judges": 6643,
      "Ġoccurs": 6644,
      "suppose": 6645,
      "Ġviolation": 6646,
      "Ġpeculiarity": 6647,
      "Ġadmitting": 6648,
      "equiv": 6649,
      "Ġessentially": 6650,
      "Ġzones": 6651,
      "Ġsuccessively": 6652,
      "confined": 6653,
      "Ġrestriction": 6654,
      "iminate": 6655,
      "Ġfalling": 6656,
      "Ġeligible": 6657,
      "Ġcollecting": 6658,
      "Ġcollections": 6659,
      "ancing": 6660,
      "Ġhistor": 6661,
      "Ġembryological": 6662,
      "court": 6663,
      "naturalised": 6664,
      "Ġimmut": 6665,
      "Ġimmigration": 6666,
      "crosses": 6667,
      "legislatures": 6668,
      "Ġeleph": 6669,
      "Ġspeaking": 6670,
      "Ġspeaks": 6671,
      "Ġthirdly": 6672,
      "cribe": 6673,
      "Ġimaginary": 6674,
      "Ġdispute": 6675,
      "Ġdisputes": 6676,
      "mitt": 6677,
      "Ġcenturies": 6678,
      "Ġincludes": 6679,
      "Ġapproved": 6680,
      "Ġcarrier": 6681,
      "arrisons": 6682,
      "Ġsettle": 6683,
      "Ġimperfectly": 6684,
      "legal": 6685,
      "Ġlowlands": 6686,
      "subordinate": 6687,
      "Ġsedu": 6688,
      "Ġborder": 6689,
      "Ġfrustr": 6690,
      "Ġinstruction": 6691,
      "Ġexcises": 6692,
      "descent": 6693,
      "Ġpalpable": 6694,
      "provisions": 6695,
      "policy": 6696,
      "Ġsacred": 6697,
      "Ġportions": 6698,
      "Ġvolunt": 6699,
      "aintance": 6700,
      "inhabiting": 6701,
      "Ġfurnished": 6702,
      "sufficiency": 6703,
      "Ġspreading": 6704,
      "Ġprohibit": 6705,
      "john": 6706,
      "Ġjoin": 6707,
      "Ġjohn": 6708,
      "office": 6709,
      "Ġendeavoured": 6710,
      "Ġfaithful": 6711,
      "Ġprudent": 6712,
      "Ġbeaks": 6713,
      "Ġcomprehended": 6714,
      "Ġwishes": 6715,
      "Ġadaptive": 6716,
      "Ġtotally": 6717,
      "Ġabolished": 6718,
      "Ġ386": 6719,
      "systems": 6720,
      "Ġhostility": 6721,
      "Ġneuters": 6722,
      "Ġneutral": 6723,
      "Ġcontracted": 6724,
      "Ġdemands": 6725,
      "Ġsuspected": 6726,
      "passed": 6727,
      "qualified": 6728,
      "examination": 6729,
      "Ġbott": 6730,
      "Ġdictate": 6731,
      "appointments": 6732,
      "possessions": 6733,
      "Ġsavages": 6734,
      "Ġamendment": 6735,
      "Ġintelligible": 6736,
      "Ġcensus": 6737,
      "Ġcriterion": 6738,
      "Ġmistake": 6739,
      "Ġmistaken": 6740,
      "Ġredress": 6741,
      "Ġcompliance": 6742,
      "Ġprepared": 6743,
      "Ġpreponder": 6744,
      "Ġ1971": 6745,
      "Ġdissensions": 6746,
      "Ġenterprises": 6747,
      "acquired": 6748,
      "Ġcontemplation": 6749,
      "Ġcounterbal": 6750,
      "true": 6751,
      "Ġmerchants": 6752,
      "Ġdamages": 6753,
      "surpr": 6754,
      "Ġdepth": 6755,
      "Ġpronounce": 6756,
      "Ġneighboring": 6757,
      "Ġneighborhood": 6758,
      "nevertheless": 6759,
      "extremely": 6760,
      "Ġmagnitude": 6761,
      "Ġaccomplish": 6762,
      "Ġpicture": 6763,
      "Ġmidd": 6764,
      "Ġmidst": 6765,
      "Ġteaches": 6766,
      "deliber": 6767,
      "Ġmelipona": 6768,
      "Ġvalidity": 6769,
      "republican": 6770,
      "Ġsquir": 6771,
      "Ġbinding": 6772,
      "Ġmoral": 6773,
      "experiment": 6774,
      "comparison": 6775,
      "Ġobserver": 6776,
      "Ġstatute": 6777,
      "closely": 6778,
      "Ġconfessed": 6779,
      "Ġthoroughly": 6780,
      "Ġvigour": 6781,
      "Ġslavery": 6782,
      "Ġguaranty": 6783,
      "Ġmississippi": 6784,
      "Ġbeaten": 6785,
      "Ġdetected": 6786,
      "Ġplumage": 6787,
      "Ġdischarge": 6788,
      "Ġproducts": 6789,
      "Ġfacilitate": 6790,
      "Ġunfavourable": 6791,
      "Ġsincere": 6792,
      "impeachments": 6793,
      "Ġprodigious": 6794,
      "Ġrodents": 6795,
      "Ġcatalogue": 6796,
      "future": 6797,
      "history": 6798,
      "morphic": 6799,
      "Ġoscillations": 6800,
      "thrush": 6801,
      "Ġdisposal": 6802,
      "Ġforesight": 6803,
      "Ġsuspicion": 6804,
      "magistrate": 6805,
      "Ġinconsistent": 6806,
      "Ġhilaire": 6807,
      "Ġreptiles": 6808,
      "Ġboulders": 6809,
      "izontal": 6810,
      "Ġmontesquieu": 6811,
      "\".": 6812,
      ";--": 6813,
      "bon": 6814,
      "cking": 6815,
      "cription": 6816,
      "dy": 6817,
      "diver": 6818,
      "election": 6819,
      "ebra": 6820,
      "fem": 6821,
      "gn": 6822,
      "gain": 6823,
      "gence": 6824,
      "gust": 6825,
      "hundred": 6826,
      "horses": 6827,
      "ierr": 6828,
      "li": 6829,
      "langu": 6830,
      "ltry": 6831,
      "looked": 6832,
      "mist": 6833,
      "mud": 6834,
      "mass": 6835,
      "money": 6836,
      "nith": 6837,
      "opo": 6838,
      "oci": 6839,
      "ping": 6840,
      "pir": 6841,
      "peds": 6842,
      "pense": 6843,
      "pennsylvania": 6844,
      "rat": 6845,
      "rach": 6846,
      "riment": 6847,
      "ractions": 6848,
      "sou": 6849,
      "since": 6850,
      "uv": 6851,
      "ument": 6852,
      "vals": 6853,
      "wonder": 6854,
      "york": 6855,
      "young": 6856,
      "Ġid": 6857,
      "Ġiv": 6858,
      "Ġtarsi": 6859,
      "Ġtierr": 6860,
      "Ġau": 6861,
      "Ġaz": 6862,
      "Ġaxi": 6863,
      "Ġathens": 6864,
      "invari": 6865,
      "including": 6866,
      "erland": 6867,
      "onies": 6868,
      "ena": 6869,
      "enem": 6870,
      "rev": 6871,
      "resembl": 6872,
      "ats": 6873,
      "Ġsave": 6874,
      "itance": 6875,
      "itimate": 6876,
      "Ġbases": 6877,
      "Ġbank": 6878,
      "Ġwa": 6879,
      "Ġwind": 6880,
      "Ġwast": 6881,
      "Ġcure": 6882,
      "Ġcasual": 6883,
      "iser": 6884,
      "isable": 6885,
      "island": 6886,
      "Ġpains": 6887,
      "Ġinland": 6888,
      "Ġincur": 6889,
      "Ġincul": 6890,
      "Ġincompatible": 6891,
      "Ġinsuperable": 6892,
      "Ġanten": 6893,
      "Ġanthers": 6894,
      "Ġfue": 6895,
      "Ġmat": 6896,
      "Ġmur": 6897,
      "Ġmort": 6898,
      "Ġmixed": 6899,
      "Ġmatur": 6900,
      "Ġmarsh": 6901,
      "orial": 6902,
      "alous": 6903,
      "altogether": 6904,
      "icit": 6905,
      "Ġhar": 6906,
      "Ġhour": 6907,
      "Ġhoney": 6908,
      "Ġhorticult": 6909,
      "Ġbeasts": 6910,
      "Ġdim": 6911,
      "Ġdare": 6912,
      "Ġdread": 6913,
      "Ġnay": 6914,
      "thir": 6915,
      "think": 6916,
      "thesis": 6917,
      "Ġeat": 6918,
      "Ġhaw": 6919,
      "Ġlose": 6920,
      "Ġlot": 6921,
      "Ġloc": 6922,
      "Ġliter": 6923,
      "Ġrevert": 6924,
      "Ġreported": 6925,
      "Ġreconcil": 6926,
      "utriment": 6927,
      "Ġconj": 6928,
      "Ġconcluded": 6929,
      "imag": 6930,
      "imerical": 6931,
      "ifiable": 6932,
      "Ġstip": 6933,
      "Ġnowhere": 6934,
      "idious": 6935,
      "Ġexpose": 6936,
      "Ġexcluding": 6937,
      "Ġexchange": 6938,
      "Ġexhaust": 6939,
      "Ġsecur": 6940,
      "Ġsun": 6941,
      "Ġpropose": 6942,
      "Ġproceeds": 6943,
      "ula": 6944,
      "result": 6945,
      "Ġundue": 6946,
      "Ġunlimited": 6947,
      "Ġunequiv": 6948,
      "Ġweap": 6949,
      "Ġvision": 6950,
      "enders": 6951,
      "endence": 6952,
      "esty": 6953,
      "Ġrene": 6954,
      "Ġrivers": 6955,
      "Ġrigor": 6956,
      "Ġshut": 6957,
      "Ġshell": 6958,
      "usc": 6959,
      "usive": 6960,
      "usca": 6961,
      "usurp": 6962,
      "Ġparag": 6963,
      "antile": 6964,
      "Ġche": 6965,
      "plement": 6966,
      "Ġsold": 6967,
      "applied": 6968,
      "appreci": 6969,
      "Ġadvert": 6970,
      "Ġadjourn": 6971,
      "unici": 6972,
      "plan": 6973,
      "places": 6974,
      "iel": 6975,
      "key": 6976,
      "Ġdisadvantage": 6977,
      "Ġdismember": 6978,
      "Ġpartially": 6979,
      "Ġstatements": 6980,
      "Ġamphicty": 6981,
      "weight": 6982,
      "orets": 6983,
      "Ġargue": 6984,
      "Ġmech": 6985,
      "Ġinterposition": 6986,
      "Ġinterior": 6987,
      "Ġintersection": 6988,
      "Ġheard": 6989,
      "Ġdistances": 6990,
      "Ġdistrust": 6991,
      "Ġpreserving": 6992,
      "vened": 6993,
      "Ġgrat": 6994,
      "Ġabilities": 6995,
      "Ġabnormal": 6996,
      "Ġfeud": 6997,
      "Ġfeatures": 6998,
      "Ġcontending": 6999,
      "Ġsupremacy": 7000,
      "Ġsupplement": 7001,
      "Ġupright": 7002,
      "Ġnaturalisation": 7003,
      "Ġconfided": 7004,
      "Ġlesson": 7005,
      "Ġworn": 7006,
      "intention": 7007,
      "priv": 7008,
      "Ġobviate": 7009,
      "Ġopened": 7010,
      "Ġattachments": 7011,
      "compl": 7012,
      "Ġdegener": 7013,
      "Ġdescend": 7014,
      "Ġ(_": 7015,
      "strous": 7016,
      "ney": 7017,
      "neighb": 7018,
      "pressed": 7019,
      "Ġwarr": 7020,
      "Ġgeoff": 7021,
      "Ġappearances": 7022,
      "Ġdefe": 7023,
      "Ġscope": 7024,
      "phatic": 7025,
      "Ġinviol": 7026,
      "Ġletter": 7027,
      "Ġkindred": 7028,
      "Ġadds": 7029,
      "Ġspecious": 7030,
      "discretion": 7031,
      "els": 7032,
      "eligible": 7033,
      "Ġbranched": 7034,
      "ercion": 7035,
      "Ġtransitions": 7036,
      "Ġfinds": 7037,
      "require": 7038,
      "Ġcoll": 7039,
      "Ġforeigners": 7040,
      "relations": 7041,
      "intervals": 7042,
      "plicit": 7043,
      "various": 7044,
      "Ġslightest": 7045,
      "Ġoffers": 7046,
      "Ġoffense": 7047,
      "Ġworkman": 7048,
      "Ġsurm": 7049,
      "granted": 7050,
      "Ġinsensibly": 7051,
      "issions": 7052,
      "Ġthinking": 7053,
      "Ġcontinuing": 7054,
      "Ġcontinuously": 7055,
      "Ġinherent": 7056,
      "Ġexplains": 7057,
      "Ġfrag": 7058,
      "Ġexcepted": 7059,
      "Ġdeliver": 7060,
      "ulls": 7061,
      "Ġgradation": 7062,
      "Ġfrequency": 7063,
      "Ġguilt": 7064,
      "Ġmonstrous": 7065,
      "Ġglory": 7066,
      "adequate": 7067,
      "--\"": 7068,
      "Ġsituated": 7069,
      "Ġrefine": 7070,
      "Ġrefused": 7071,
      "Ġaffection": 7072,
      "Ġadministrations": 7073,
      "Ġcombine": 7074,
      "canic": 7075,
      "certainly": 7076,
      "Ġpretty": 7077,
      "ussia": 7078,
      "Ġzebra": 7079,
      "Ġinfring": 7080,
      "Ġcats": 7081,
      "Ġaltern": 7082,
      "Ġaltering": 7083,
      "confidence": 7084,
      "representation": 7085,
      "Ġcreature": 7086,
      "Ġcivilized": 7087,
      "Ġfaults": 7088,
      "Ġfallen": 7089,
      "Ġfuller": 7090,
      "Ġarrive": 7091,
      "Ġavail": 7092,
      "ancery": 7093,
      "Ġdevised": 7094,
      "Ġdevotion": 7095,
      "Ġdivisions": 7096,
      "bergs": 7097,
      "Ġfeelings": 7098,
      "Ġtrusted": 7099,
      "Ġgoes": 7100,
      "palÃ¦": 7101,
      "Ġdemocracy": 7102,
      "Ġdiverged": 7103,
      "Ġturning": 7104,
      "Ġhundreds": 7105,
      "Ġcontinental": 7106,
      "Ġflowering": 7107,
      "Ġsilence": 7108,
      "Ġcentres": 7109,
      "Ġ184": 7110,
      "Ġboundaries": 7111,
      "Ġprecarious": 7112,
      "Ġconsisting": 7113,
      "existed": 7114,
      "occasions": 7115,
      "Ġmotion": 7116,
      "Ġrelationship": 7117,
      "twenty": 7118,
      "Ġ132": 7119,
      "Ġ135": 7120,
      "Ġ72": 7121,
      "Ġ76": 7122,
      "Ġresemblances": 7123,
      "Ġintroducing": 7124,
      "ramid": 7125,
      "Ġcolours": 7126,
      "Ġsucceeded": 7127,
      "Ġinstruments": 7128,
      "objections": 7129,
      "Ġinclinations": 7130,
      "Ġrepeat": 7131,
      "Ġprecedent": 7132,
      "Ġsuggestion": 7133,
      "Ġpursuit": 7134,
      "Ġextraordinarily": 7135,
      "Ġpatr": 7136,
      "Ġfailed": 7137,
      "Ġoppressions": 7138,
      "compared": 7139,
      "ulsions": 7140,
      "Ġconstituent": 7141,
      "Ġsteady": 7142,
      "effects": 7143,
      "Ġyielding": 7144,
      "Ġpartiality": 7145,
      "Ġhonors": 7146,
      "account": 7147,
      "Ġintercrossed": 7148,
      "clearly": 7149,
      "circumstance": 7150,
      "classification": 7151,
      "Ġtyrannical": 7152,
      "Ġvictim": 7153,
      "Ġsubstituted": 7154,
      "ocratic": 7155,
      "Ġcontracts": 7156,
      "persons": 7157,
      "Ġ376": 7158,
      "Ġselecting": 7159,
      "Ġcompete": 7160,
      "Ġprimitive": 7161,
      "Ġexcessively": 7162,
      "example": 7163,
      "Ġkingdoms": 7164,
      "Ġbegan": 7165,
      "Ġsurrendered": 7166,
      "Ġsurviving": 7167,
      "separated": 7168,
      "claims": 7169,
      "addition": 7170,
      "occasionally": 7171,
      "carri": 7172,
      "Ġoffered": 7173,
      "exceptions": 7174,
      "Ġmodifying": 7175,
      "Ġaugmentation": 7176,
      "Ġcontemplate": 7177,
      "Ġmouths": 7178,
      "Ġgrafts": 7179,
      "Ġinsurrections": 7180,
      "construction": 7181,
      "explained": 7182,
      "inheritance": 7183,
      "Ġcabbage": 7184,
      "Ġconformity": 7185,
      "Ġattainder": 7186,
      "Ġexhibited": 7187,
      "competent": 7188,
      "article": 7189,
      "Ġnegotiation": 7190,
      "dangerous": 7191,
      "questionably": 7192,
      "fertilisation": 7193,
      "Ġadhering": 7194,
      "distinguish": 7195,
      "Ġgerminated": 7196,
      "treaties": 7197,
      "Ġpoultry": 7198,
      "Ġdonations": 7199,
      "Ġrepugn": 7200,
      "Ġstamens": 7201,
      "experiments": 7202,
      "Ġobservers": 7203,
      "belonging": 7204,
      "Ġappropriated": 7205,
      "Ġancestor": 7206,
      "uxil": 7207,
      "Ġprosecution": 7208,
      "Ġdisease": 7209,
      "Ġextremity": 7210,
      "Ġwarmth": 7211,
      "Ġcontrivance": 7212,
      "diversified": 7213,
      "Ġreversed": 7214,
      "Ġventure": 7215,
      "following": 7216,
      "Ġinnovations": 7217,
      "councils": 7218,
      "Ġodious": 7219,
      "Ġfighting": 7220,
      "Ġmingled": 7221,
      "Ġimperial": 7222,
      "Ġrecapitulation": 7223,
      "requisite": 7224,
      "Ġescaped": 7225,
      "Ġfaculties": 7226,
      "Ġingredients": 7227,
      "broken": 7228,
      "marine": 7229,
      "Ġspoken": 7230,
      "Ġfabric": 7231,
      "Ġreveal": 7232,
      "Ġsecuring": 7233,
      "mentioned": 7234,
      "Ġdeputies": 7235,
      "Ġhexagonal": 7236,
      "Ġalternative": 7237,
      "discussion": 7238,
      "Ġaberrant": 7239,
      "Ġexemplified": 7240,
      "Ġconsolidation": 7241,
      "exterminated": 7242,
      "Ġenforced": 7243,
      "Ġsuspended": 7244,
      "extraordinary": 7245,
      "itzerland": 7246,
      "Ġconversely": 7247,
      "universal": 7248,
      "warrantable": 7249,
      "Ġcantons": 7250,
      "Ġinterpretation": 7251,
      "Ġgrafting": 7252,
      "Ġhimalaya": 7253,
      "rachians": 7254,
      "Ġtierra": 7255,
      "invariably": 7256,
      "Ġinculc": 7257,
      "ĠantennÃ¦": 7258,
      "Ġsecurities": 7259,
      "Ġrenew": 7260,
      "unicipal": 7261,
      "'t": 7262,
      ";âĢĿ": 7263,
      "_,": 7264,
      "ael": 7265,
      "cence": 7266,
      "cens": 7267,
      "cop": 7268,
      "cold": 7269,
      "eb": 7270,
      "eps": 7271,
      "fish": 7272,
      "find": 7273,
      "giving": 7274,
      "gutenberg": 7275,
      "hing": 7276,
      "heav": 7277,
      "iating": 7278,
      "iennial": 7279,
      "jealous": 7280,
      "list": 7281,
      "lay": 7282,
      "look": 7283,
      "liable": 7284,
      "lines": 7285,
      "mut": 7286,
      "mad": 7287,
      "mast": 7288,
      "mak": 7289,
      "mont": 7290,
      "maint": 7291,
      "nation": 7292,
      "nical": 7293,
      "oir": 7294,
      "ool": 7295,
      "pat": 7296,
      "prom": 7297,
      "pred": 7298,
      "rated": 7299,
      "races": 7300,
      "ranging": 7301,
      "sw": 7302,
      "spread": 7303,
      "test": 7304,
      "uine": 7305,
      "vis": 7306,
      "wood": 7307,
      "writ": 7308,
      "western": 7309,
      "Ġ*": 7310,
      "Ġties": 7311,
      "Ġtam": 7312,
      "Ġtame": 7313,
      "Ġauxil": 7314,
      "inf": 7315,
      "inities": 7316,
      "instru": 7317,
      "era": 7318,
      "erity": 7319,
      "ench": 7320,
      "reland": 7321,
      "atical": 7322,
      "Ġsought": 7323,
      "itt": 7324,
      "iture": 7325,
      "Ġbare": 7326,
      "Ġbred": 7327,
      "Ġbarely": 7328,
      "Ġbiennial": 7329,
      "Ġwinter": 7330,
      "Ġwatched": 7331,
      "Ġcro": 7332,
      "Ġcow": 7333,
      "Ġcru": 7334,
      "Ġcrow": 7335,
      "Ġcaterpill": 7336,
      "Ġcuv": 7337,
      "Ġpu": 7338,
      "Ġpall": 7339,
      "Ġincess": 7340,
      "Ġinability": 7341,
      "Ġinequality": 7342,
      "Ġinsufficiency": 7343,
      "Ġfig": 7344,
      "Ġfidelity": 7345,
      "ionus": 7346,
      "ionable": 7347,
      "Ġmus": 7348,
      "Ġmine": 7349,
      "Ġmild": 7350,
      "Ġmorph": 7351,
      "Ġmcle": 7352,
      "Ġmental": 7353,
      "Ġmunicipal": 7354,
      "Ġhun": 7355,
      "Ġhatched": 7356,
      "Ġdil": 7357,
      "Ġdried": 7358,
      "Ġnaked": 7359,
      "entire": 7360,
      "throw": 7361,
      "stocks": 7362,
      "ingen": 7363,
      "lying": 7364,
      "Ġhast": 7365,
      "Ġgall": 7366,
      "Ġgave": 7367,
      "Ġgross": 7368,
      "Ġgigantic": 7369,
      "Ġgarrisons": 7370,
      "Ġlof": 7371,
      "Ġlord": 7372,
      "Ġlights": 7373,
      "Ġloud": 7374,
      "Ġrect": 7375,
      "Ġrely": 7376,
      "Ġrepr": 7377,
      "Ġreducing": 7378,
      "omin": 7379,
      "Ġconvers": 7380,
      "Ġconceived": 7381,
      "imil": 7382,
      "imination": 7383,
      "improve": 7384,
      "Ġforc": 7385,
      "ura": 7386,
      "urate": 7387,
      "urity": 7388,
      "Ġascend": 7389,
      "assembly": 7390,
      "ichael": 7391,
      "idity": 7392,
      "ches": 7393,
      "chment": 7394,
      "changing": 7395,
      "chnical": 7396,
      "Ġexempt": 7397,
      "igs": 7398,
      "igations": 7399,
      "Ġsept": 7400,
      "abs": 7401,
      "Ġprote": 7402,
      "Ġproposing": 7403,
      "illustr": 7404,
      "ulence": 7405,
      "Ġmoll": 7406,
      "essential": 7407,
      "Ġunwise": 7408,
      "Ġunreasonable": 7409,
      "Ġunquestionably": 7410,
      "ilful": 7411,
      "anded": 7412,
      "Ġvices": 7413,
      "Ġvoid": 7414,
      "theory": 7415,
      "Ġdeposition": 7416,
      "Ġnoticed": 7417,
      "Ġrab": 7418,
      "Ġrival": 7419,
      "Ġrigid": 7420,
      "Ġcomment": 7421,
      "Ġshad": 7422,
      "Ġshep": 7423,
      "Ġships": 7424,
      "geographical": 7425,
      "Ġallude": 7426,
      "Ġallotted": 7427,
      "adm": 7428,
      "admitted": 7429,
      "Ġparamount": 7430,
      "Ġireland": 7431,
      "Ġchimerical": 7432,
      "run": 7433,
      "ructive": 7434,
      "perceived": 7435,
      "Ġimposition": 7436,
      "ourselves": 7437,
      "Ġcanon": 7438,
      "Ġformal": 7439,
      "Ġformica": 7440,
      "Ġplacing": 7441,
      "concur": 7442,
      "constant": 7443,
      "appar": 7444,
      "unless": 7445,
      "unknown": 7446,
      "uniform": 7447,
      "Ġalb": 7448,
      "Ġju": 7449,
      "Ġdisunited": 7450,
      "Ġdisorders": 7451,
      "duc": 7452,
      "otes": 7453,
      "Ġposter": 7454,
      "Ġamply": 7455,
      "Ġgreatness": 7456,
      "weak": 7457,
      "Ġclauses": 7458,
      "Ġcommodities": 7459,
      "rium": 7460,
      "Ġard": 7461,
      "Ġarmed": 7462,
      "ensurate": 7463,
      "protect": 7464,
      "beyond": 7465,
      "climate": 7466,
      "Ġpredecess": 7467,
      "agg": 7468,
      "Ġconspire": 7469,
      "Ġconscious": 7470,
      "Ġconspir": 7471,
      "Ġaggress": 7472,
      "exed": 7473,
      "exion": 7474,
      "exact": 7475,
      "Ġgrav": 7476,
      "Ġaborted": 7477,
      "Ġupwards": 7478,
      "Ġupraised": 7479,
      "sels": 7480,
      "Ġinstant": 7481,
      "Ġinstantly": 7482,
      "Ġnaturalization": 7483,
      "Ġdesert": 7484,
      "Ġbraz": 7485,
      "igned": 7486,
      "ignific": 7487,
      "Ġcount": 7488,
      "Ġaccident": 7489,
      "Ġconfirmed": 7490,
      "Ġworse": 7491,
      "Ġworked": 7492,
      "intro": 7493,
      "intended": 7494,
      "Ġfactious": 7495,
      "Ġobjectors": 7496,
      "Ġprovides": 7497,
      "Ġsubmission": 7498,
      "herd": 7499,
      "Ġimportation": 7500,
      "Ġstrugg": 7501,
      "Ġgenerality": 7502,
      "soon": 7503,
      "sole": 7504,
      "soever": 7505,
      "Ġ\"(": 7506,
      "identical": 7507,
      "Ġsubjecting": 7508,
      "Ġflor": 7509,
      "preca": 7510,
      "oosing": 7511,
      "Ġindividually": 7512,
      "Ġknowing": 7513,
      "attered": 7514,
      "teenth": 7515,
      "flowers": 7516,
      "Ġproblem": 7517,
      "opter": 7518,
      "Ġcircu": 7519,
      "Ġcoroll": 7520,
      "strata": 7521,
      "Ġconvince": 7522,
      "Ġconvulsions": 7523,
      "neither": 7524,
      "Ġjustices": 7525,
      "Ġforeseen": 7526,
      "Ġofficer": 7527,
      "Ġherself": 7528,
      "short": 7529,
      "mankind": 7530,
      "Ġscene": 7531,
      "Ġscanty": 7532,
      "Ġcomprom": 7533,
      "Ġcompound": 7534,
      "Ġinvaded": 7535,
      "Ġsuccessful": 7536,
      "Ġspeculation": 7537,
      "Ġintimate": 7538,
      "Ġintentions": 7539,
      "disposed": 7540,
      "Ġdoubtless": 7541,
      "Ġtransmit": 7542,
      "consent": 7543,
      "Ġexamining": 7544,
      "Ġgenuine": 7545,
      "Ġpossesses": 7546,
      "Ġoccasioned": 7547,
      "feeding": 7548,
      "commun": 7549,
      "Ġtreatises": 7550,
      "Ġinsure": 7551,
      "Ġinserted": 7552,
      "Ġinsensible": 7553,
      "issitudes": 7554,
      "eping": 7555,
      "Ġpoliticians": 7556,
      "Ġdelay": 7557,
      "iana": 7558,
      "Ġoldest": 7559,
      "Ġexercising": 7560,
      "Ġdistribute": 7561,
      "Ġmajesty": 7562,
      "Ġsocial": 7563,
      "perfection": 7564,
      "Ġrefund": 7565,
      "Ġlinked": 7566,
      "supposed": 7567,
      "supposition": 7568,
      "noxious": 7569,
      "****": 7570,
      "Ġzealous": 7571,
      "Ġinfractions": 7572,
      "Ġalteration": 7573,
      "better": 7574,
      "confine": 7575,
      "larger": 7576,
      "Ġsovereignties": 7577,
      "respons": 7578,
      "Ġfalls": 7579,
      "Ġrudiments": 7580,
      "Ġcompetitors": 7581,
      "Ġcontrolled": 7582,
      "Ġnorthward": 7583,
      "insic": 7584,
      "Ġgoose": 7585,
      "Ġmigrate": 7586,
      "Ġimmunities": 7587,
      "Ġmisfortun": 7588,
      "simple": 7589,
      "simultane": 7590,
      "Ġturns": 7591,
      "Ġsafeguard": 7592,
      "Ġoblige": 7593,
      "Ġlayer": 7594,
      "Ġlayers": 7595,
      "Ġneglected": 7596,
      "Ġspeech": 7597,
      "Ġconstrued": 7598,
      "Ġeditions": 7599,
      "Ġedward": 7600,
      "Ġfacit": 7601,
      "Ġuniformly": 7602,
      "continually": 7603,
      "Ġwaterhouse": 7604,
      "belia": 7605,
      "Ġhabitual": 7606,
      "Ġhopeless": 7607,
      "Ġapparatus": 7608,
      "Ġhorizontal": 7609,
      "Ġguards": 7610,
      "greatly": 7611,
      "Ġnavig": 7612,
      "Ġapprobation": 7613,
      "evidence": 7614,
      "Ġsentiment": 7615,
      "arrange": 7616,
      "Ġsettled": 7617,
      "occur": 7618,
      "Ġgrounds": 7619,
      "Ġ92": 7620,
      "Ġmomentary": 7621,
      "Ġbatrachians": 7622,
      "Ġpromoted": 7623,
      "Ġresembling": 7624,
      "Ġborrow": 7625,
      "Ġfruits": 7626,
      "Ġexpediency": 7627,
      "Ġprotected": 7628,
      "Ġdominion": 7629,
      "Ġdeclarations": 7630,
      "affinities": 7631,
      "Ġ60": 7632,
      "descended": 7633,
      "calculated": 7634,
      "everywhere": 7635,
      "Ġcandor": 7636,
      "Ġrepeal": 7637,
      "Ġimpunity": 7638,
      "Ġimpulse": 7639,
      "provision": 7640,
      "largely": 7641,
      "Ġpermanency": 7642,
      "Ġtechnical": 7643,
      "sterility": 7644,
      "Ġvolcanic": 7645,
      "Ġmanufacturing": 7646,
      "Ġlimitations": 7647,
      "Ġurge": 7648,
      "Ġfirmly": 7649,
      "Ġoppressive": 7650,
      "respective": 7651,
      "Ġdeliberation": 7652,
      "Ġsalt": 7653,
      "Ġquarters": 7654,
      "Ġdesigned": 7655,
      "Ġaustralian": 7656,
      "Ġ258": 7657,
      "Ġhonest": 7658,
      "Ġrunning": 7659,
      "Ġendeavored": 7660,
      "Ġintrinsic": 7661,
      "Ġdiminution": 7662,
      "Ġcomprehensive": 7663,
      "Ġillustration": 7664,
      "Ġillustrated": 7665,
      "views": 7666,
      "probable": 7667,
      "Ġnominal": 7668,
      "Ġcolonists": 7669,
      "gypt": 7670,
      "value": 7671,
      "Ġarrangements": 7672,
      "Ġdemanded": 7673,
      "Ġinducement": 7674,
      "Ġ375": 7675,
      "Ġschemes": 7676,
      "Ġencroach": 7677,
      "Ġbetrayed": 7678,
      "Ġconvened": 7679,
      "Ġresolve": 7680,
      "domestication": 7681,
      "Ġresponsible": 7682,
      "Ġroman": 7683,
      "Ġtemptation": 7684,
      "Ġpressure": 7685,
      "Ġdictated": 7686,
      "special": 7687,
      "Ġcorrupted": 7688,
      "Ġreflections": 7689,
      "group": 7690,
      "Ġprepare": 7691,
      "Ġfurnishes": 7692,
      "Ġgranting": 7693,
      "Ġsurfaces": 7694,
      "Ġfertilisation": 7695,
      "Ġinevitable": 7696,
      "Ġdegraded": 7697,
      "Ġbeauty": 7698,
      "Ġpreferable": 7699,
      "Ġrecognised": 7700,
      "Ġimprobability": 7701,
      "Ġcontroversy": 7702,
      "Ġcurrent": 7703,
      "north": 7704,
      "Ġprize": 7705,
      "Ġdisturb": 7706,
      "Ġadvocate": 7707,
      "slightly": 7708,
      "surr": 7709,
      "Ġharmless": 7710,
      "Ġharmony": 7711,
      "Ġrecurring": 7712,
      "Ġpronounced": 7713,
      "Ġincapacity": 7714,
      "Ġhoped": 7715,
      "Ġstigm": 7716,
      "Ġimpartiality": 7717,
      "Ġattainment": 7718,
      "Ġrecollected": 7719,
      "Ġsubsistence": 7720,
      "Ġpictet": 7721,
      "Ġadvancement": 7722,
      "Ġpersuade": 7723,
      "Ġnegotiations": 7724,
      "Ġmetamorphos": 7725,
      "frequent": 7726,
      "Ġunanimity": 7727,
      "Ġdeprive": 7728,
      "uminous": 7729,
      "accumulation": 7730,
      "branches": 7731,
      "Ġdiscernment": 7732,
      "Ġintrigue": 7733,
      "Ġerected": 7734,
      "drawn": 7735,
      "Ġthrush": 7736,
      "Ġsquare": 7737,
      "comparably": 7738,
      "Ġcontradiction": 7739,
      "Ġscruple": 7740,
      "Ġ451": 7741,
      "Ġvertebrata": 7742,
      "Ġastonishment": 7743,
      "Ġastonishing": 7744,
      "physical": 7745,
      "Ġinnoc": 7746,
      "Ġdiseases": 7747,
      "Ġextremes": 7748,
      "Ġdespatch": 7749,
      "Ġcontrivances": 7750,
      "Ġpatriotic": 7751,
      "Ġliability": 7752,
      "eminence": 7753,
      "Ġspaniel": 7754,
      "Ġdepositary": 7755,
      "Ġdeduction": 7756,
      "Ġachaeans": 7757,
      "Ġinconvenient": 7758,
      "Ġalien": 7759,
      "Ġfrontier": 7760,
      "summary": 7761,
      "efforts": 7762,
      "satisfactory": 7763,
      "Ġpyramid": 7764,
      "Ġemoluments": 7765,
      "Ġsubstantial": 7766,
      "Ġreligion": 7767,
      "opinions": 7768,
      "towards": 7769,
      "Ġunaltered": 7770,
      "Ġchannels": 7771,
      "Ġanimosities": 7772,
      "Ġdeclamation": 7773,
      "biased": 7774,
      "prudence": 7775,
      "Ġ)(": 7776,
      "Ġicebergs": 7777,
      "Ġblessings": 7778,
      "Ġhesitate": 7779,
      "determined": 7780,
      "indispensable": 7781,
      "Ġquadrupeds": 7782,
      "Ġcarnivorous": 7783,
      "Ġfluctuating": 7784,
      "sacrific": 7785,
      "Ġsinister": 7786,
      "Ġpotent": 7787,
      "Ġsteadily": 7788,
      "popular": 7789,
      "posterous": 7790,
      "Ġpolymorphic": 7791,
      "Ġwoodpecker": 7792,
      "diminished": 7793,
      "fundamental": 7794,
      "revenue": 7795,
      "Ġinaugural": 7796,
      "Ġapportionment": 7797,
      "progenitor": 7798,
      "Ġmonstrosities": 7799,
      "mittent": 7800,
      "Ġmiddle": 7801,
      "southern": 7802,
      "Ġazores": 7803,
      "Ġfuego": 7804,
      "Ġmaturity": 7805,
      "Ġhawks": 7806,
      "Ġwarranted": 7807,
      "madison": 7808,
      "Ġcuvier": 7809,
      "Ġmorphology": 7810,
      "Ġmclean": 7811,
      "Ġshepherd": 7812,
      "apparently": 7813,
      ",--": 7814,
      "aud": 7815,
      "aven": 7816,
      "bic": 7817,
      "cand": 7818,
      "cach": 7819,
      "det": 7820,
      "done": 7821,
      "diction": 7822,
      "down": 7823,
      "ek": 7824,
      "elected": 7825,
      "fr": 7826,
      "face": 7827,
      "fold": 7828,
      "founded": 7829,
      "gent": 7830,
      "gments": 7831,
      "hem": 7832,
      "hus": 7833,
      "hard": 7834,
      "hips": 7835,
      "iority": 7836,
      "iencies": 7837,
      "lived": 7838,
      "length": 7839,
      "match": 7840,
      "mature": 7841,
      "mamm": 7842,
      "ners": 7843,
      "nest": 7844,
      "nine": 7845,
      "oce": 7846,
      "obl": 7847,
      "pally": 7848,
      "pun": 7849,
      "rum": 7850,
      "ray": 7851,
      "range": 7852,
      "rapid": 7853,
      "rather": 7854,
      "sal": 7855,
      "sus": 7856,
      "serv": 7857,
      "tic": 7858,
      "turn": 7859,
      "uing": 7860,
      "uates": 7861,
      "uents": 7862,
      "vest": 7863,
      "way": 7864,
      "wings": 7865,
      "Ġ***": 7866,
      "Ġtor": 7867,
      "ino": 7868,
      "inth": 7869,
      "eries": 7870,
      "onant": 7871,
      "enge": 7872,
      "enable": 7873,
      "rew": 7874,
      "rey": 7875,
      "repe": 7876,
      "atists": 7877,
      "Ġsof": 7878,
      "Ġsown": 7879,
      "Ġsizes": 7880,
      "itia": 7881,
      "itively": 7882,
      "Ġbreat": 7883,
      "Ġbos": 7884,
      "Ġwider": 7885,
      "Ġcry": 7886,
      "edience": 7887,
      "isance": 7888,
      "isans": 7889,
      "Ġpin": 7890,
      "Ġpor": 7891,
      "Ġpir": 7892,
      "Ġpain": 7893,
      "Ġpage": 7894,
      "anthus": 7895,
      "Ġinve": 7896,
      "Ġinsufficient": 7897,
      "Ġinaccur": 7898,
      "Ġinadequate": 7899,
      "Ġincomparably": 7900,
      "Ġanci": 7901,
      "Ġante": 7902,
      "Ġfire": 7903,
      "Ġfug": 7904,
      "Ġfusca": 7905,
      "Ġmir": 7906,
      "oring": 7907,
      "arc": 7908,
      "arms": 7909,
      "argu": 7910,
      "alter": 7911,
      "although": 7912,
      "Ġtoes": 7913,
      "Ġtools": 7914,
      "Ġhen": 7915,
      "Ġhot": 7916,
      "Ġdy": 7917,
      "Ġdro": 7918,
      "Ġnic": 7919,
      "Ġnutriment": 7920,
      "thage": 7921,
      "things": 7922,
      "left": 7923,
      "Ġeocene": 7924,
      "stoc": 7925,
      "rose": 7926,
      "rock": 7927,
      "sea": 7928,
      "sex": 7929,
      "Ġwhale": 7930,
      "llable": 7931,
      "Ġhamm": 7932,
      "Ġgould": 7933,
      "Ġgot": 7934,
      "Ġgale": 7935,
      "Ġlays": 7936,
      "Ġreplace": 7937,
      "vertebr": 7938,
      "cel": 7939,
      "omach": 7940,
      "Ġconcess": 7941,
      "Ġconced": 7942,
      "Ġconstr": 7943,
      "Ġconcluding": 7944,
      "ifer": 7945,
      "Ġupl": 7946,
      "Ġsty": 7947,
      "Ġsting": 7948,
      "asmuch": 7949,
      "Ġorch": 7950,
      "Ġornith": 7951,
      "changed": 7952,
      "owing": 7953,
      "Ġexport": 7954,
      "Ġexpend": 7955,
      "Ġexcluded": 7956,
      "Ġexplicit": 7957,
      "igence": 7958,
      "Ġsem": 7959,
      "Ġsets": 7960,
      "Ġsuit": 7961,
      "aboriginal": 7962,
      "tering": 7963,
      "ternal": 7964,
      "resour": 7965,
      "residence": 7966,
      "Ġunim": 7967,
      "Ġunlike": 7968,
      "Ġuniting": 7969,
      "Ġuncontro": 7970,
      "Ġunhapp": 7971,
      "Ġunsafe": 7972,
      "Ġunwarrantable": 7973,
      "Ġunbiased": 7974,
      "Ġweights": 7975,
      "Ġweaken": 7976,
      "poreal": 7977,
      "Ġrumin": 7978,
      "Ġrisk": 7979,
      "Ġrenders": 7980,
      "Ġneeds": 7981,
      "embr": 7982,
      "usal": 7983,
      "odon": 7984,
      "odend": 7985,
      "admit": 7986,
      "admiss": 7987,
      "ante": 7988,
      "Ġcher": 7989,
      "Ġimplication": 7990,
      "Ġimpotent": 7991,
      "defect": 7992,
      "acked": 7993,
      "ortion": 7994,
      "Ġplates": 7995,
      "Ġplanted": 7996,
      "coner": 7997,
      "contrib": 7998,
      "apable": 7999,
      "Ġadverse": 8000,
      "achy": 8001,
      "unnecessary": 8002,
      "plain": 8003,
      "play": 8004,
      "Ġjun": 8005,
      "Ġjaw": 8006,
      "Ġperf": 8007,
      "Ġpermission": 8008,
      "Ġdispose": 8009,
      "Ġdispens": 8010,
      "Ġdisproportion": 8011,
      "Ġdisinclined": 8012,
      "Ġdisgust": 8013,
      "oting": 8014,
      "tries": 8015,
      "Ġpear": 8016,
      "Ġpartition": 8017,
      "Ġpointer": 8018,
      "Ġvariance": 8019,
      "bler": 8020,
      "blood": 8021,
      "Ġclam": 8022,
      "Ġclust": 8023,
      "Ġclash": 8024,
      "Ġcommissions": 8025,
      "Ġcommensurate": 8026,
      "Ġwhoever": 8027,
      "pros": 8028,
      "preserve": 8029,
      "beet": 8030,
      "bearing": 8031,
      "Ġlament": 8032,
      "clim": 8033,
      "Ġintersect": 8034,
      "Ġprecip": 8035,
      "associ": 8036,
      "Ġpresum": 8037,
      "Ġours": 8038,
      "agus": 8039,
      "agrant": 8040,
      "Ġundertake": 8041,
      "whose": 8042,
      "wholly": 8043,
      "expense": 8044,
      "Ġreserved": 8045,
      "Ġextingu": 8046,
      "Ġabroad": 8047,
      "Ġcontests": 8048,
      "Ġcontains": 8049,
      "Ġsupposes": 8050,
      "ordial": 8051,
      "Ġenm": 8052,
      "izcach": 8053,
      "Ġconstitutionally": 8054,
      "Ġindians": 8055,
      "Ġindustrious": 8056,
      "Ġquote": 8057,
      "Ġquiet": 8058,
      "Ġdesperate": 8059,
      "Ġdeserves": 8060,
      "inev": 8061,
      "Ġtraces": 8062,
      "Ġtraining": 8063,
      "Ġtracts": 8064,
      "Ġaccess": 8065,
      "Ġaccords": 8066,
      "Ġconfide": 8067,
      "Ġconfidently": 8068,
      "ictory": 8069,
      "astic": 8070,
      "sugg": 8071,
      "succeed": 8072,
      "Ġobedience": 8073,
      "Ġcourage": 8074,
      "Ġopulence": 8075,
      "redible": 8076,
      "Ġsubdivided": 8077,
      "herical": 8078,
      "Ġperiodical": 8079,
      "Ġviewed": 8080,
      "Ġmembrane": 8081,
      "Ġmemoir": 8082,
      "Ġstratum": 8083,
      "Ġflagrant": 8084,
      "Ġseeking": 8085,
      "Ġoverlooked": 8086,
      "ables": 8087,
      "Ġpublications": 8088,
      "Ġbreeder": 8089,
      "Ġbreast": 8090,
      "Ġdistinctions": 8091,
      "oppress": 8092,
      "opposition": 8093,
      "Ġamericans": 8094,
      "Ġclassing": 8095,
      "Ġenthus": 8096,
      "Ġcorps": 8097,
      "rought": 8098,
      "strict": 8099,
      "Ġjustified": 8100,
      "Ġendured": 8101,
      "Ġdiscour": 8102,
      "Ġheron": 8103,
      "Ġherbert": 8104,
      "Ġtending": 8105,
      "Ġdefensive": 8106,
      "keness": 8107,
      "Ġobserv": 8108,
      "Ġobscured": 8109,
      "osc": 8110,
      "older": 8111,
      "Ġinhabitant": 8112,
      "Ġinvent": 8113,
      "Ġplanned": 8114,
      "Ġintim": 8115,
      "Ġintend": 8116,
      "Ġintem": 8117,
      "disposition": 8118,
      "Ġcircumstanced": 8119,
      "Ġtransient": 8120,
      "extended": 8121,
      "Ġblame": 8122,
      "Ġblending": 8123,
      "Ġfinding": 8124,
      "Ġcool": 8125,
      "Ġcoequal": 8126,
      "Ġcoercion": 8127,
      "Ġpossessor": 8128,
      "Ġdepending": 8129,
      "Ġhybridism": 8130,
      "internal": 8131,
      "interested": 8132,
      "Ġinfluential": 8133,
      "Ġdriven": 8134,
      "awed": 8135,
      "Ġinsular": 8136,
      "Ġinsignific": 8137,
      "Ġoriginate": 8138,
      "knowledge": 8139,
      "Ġcapt": 8140,
      "Ġcapric": 8141,
      "Ġconnections": 8142,
      "Ġmarve": 8143,
      "Ġmarvel": 8144,
      "Ġfrigate": 8145,
      "Ġdestructive": 8146,
      "Ġmeasured": 8147,
      "Ġinferences": 8148,
      "content": 8149,
      "Ġpersonally": 8150,
      "ickly": 8151,
      "modifications": 8152,
      "Ġfinished": 8153,
      "Ġconcent": 8154,
      "Ġpracticed": 8155,
      "Ġ177": 8156,
      "Ġanswering": 8157,
      "Ġmonths": 8158,
      "artific": 8159,
      "Ġaffections": 8160,
      "Ġpublish": 8161,
      "considering": 8162,
      "Ġviolate": 8163,
      "Ġillicit": 8164,
      "Ġbarb": 8165,
      "Ġbarren": 8166,
      "ĠâĢĺ": 8167,
      "Ġreadable": 8168,
      "Ġlegitimate": 8169,
      "Ġzone": 8170,
      "Ġmutable": 8171,
      "Ġsouthward": 8172,
      "Ġunderstanding": 8173,
      "represented": 8174,
      "Ġfallacy": 8175,
      "Ġfallacious": 8176,
      "Ġgovernors": 8177,
      "Ġarranged": 8178,
      "Ġrudiment": 8179,
      "Ġplainest": 8180,
      "Ġserving": 8181,
      "Ġpopulous": 8182,
      "Ġhumanity": 8183,
      "getic": 8184,
      "Ġincorpor": 8185,
      "Ġqualification": 8186,
      "Ġbelongs": 8187,
      "Ġbelonged": 8188,
      "Ġweighty": 8189,
      "Ġimmers": 8190,
      "Ġelev": 8191,
      "Ġeleven": 8192,
      "Ġobliter": 8193,
      "anean": 8194,
      "viously": 8195,
      "Ġswimm": 8196,
      "Ġswitzerland": 8197,
      "Ġcrimes": 8198,
      "Ġcrime": 8199,
      "Ġcrush": 8200,
      "Ġdestroying": 8201,
      "powerful": 8202,
      "authorized": 8203,
      "method": 8204,
      "measure": 8205,
      "Ġsilver": 8206,
      "Ġ183": 8207,
      "Ġboundary": 8208,
      "Ġallowing": 8209,
      "tribun": 8210,
      "Ġmasses": 8211,
      "Ġcomplexity": 8212,
      "slip": 8213,
      "attempt": 8214,
      "Ġrecorded": 8215,
      "Ġeffort": 8216,
      "Ġstrengthened": 8217,
      "Ġ90": 8218,
      "Ġantarctic": 8219,
      "Ġ134": 8220,
      "Ġ139": 8221,
      "incapable": 8222,
      "Ġpositively": 8223,
      "Ġloose": 8224,
      "Ġlobelia": 8225,
      "substant": 8226,
      "Ġabsor": 8227,
      "mighty": 8228,
      "Ġskilful": 8229,
      "Ġtransporting": 8230,
      "Ġmultiple": 8231,
      "stripe": 8232,
      "Ġirresist": 8233,
      "atories": 8234,
      "Ġincline": 8235,
      "Ġinclination": 8236,
      "Ġfriendship": 8237,
      "Ġdeterminable": 8238,
      "Ġexperimentised": 8239,
      "Ġfifteen": 8240,
      "Ġregularly": 8241,
      "Ġfortified": 8242,
      "polis": 8243,
      "Ġmethodical": 8244,
      "Ġreturned": 8245,
      "Ġcopies": 8246,
      "Ġsuggest": 8247,
      "Ġpursuits": 8248,
      "Ġwriter": 8249,
      "Ġwritings": 8250,
      "Ġpatient": 8251,
      "Ġcalculate": 8252,
      "Ġ50": 8253,
      "Ġexterminate": 8254,
      "respecting": 8255,
      "Ġfourths": 8256,
      "capacities": 8257,
      "Ġsalaries": 8258,
      "Ġsupplying": 8259,
      "Ġremoval": 8260,
      "Ġjoined": 8261,
      "Ġclaimed": 8262,
      "Ġdesigns": 8263,
      "pics": 8264,
      "Ġ393": 8265,
      "Ġ251": 8266,
      "Ġcontributed": 8267,
      "space": 8268,
      "Ġintricate": 8269,
      "Ġdiminish": 8270,
      "Ġmeeting": 8271,
      "Ġwealthy": 8272,
      "constituents": 8273,
      "property": 8274,
      "Ġabolishing": 8275,
      "Ġ362": 8276,
      "does": 8277,
      "scarce": 8278,
      "senators": 8279,
      "Ġvictory": 8280,
      "Ġ201": 8281,
      "Ġ202": 8282,
      "Ġhostile": 8283,
      "Ġexceeded": 8284,
      "Ġexceeding": 8285,
      "Ġsacrificed": 8286,
      "Ġimpression": 8287,
      "Ġcommunities": 8288,
      "Ġaddressed": 8289,
      "passion": 8290,
      "qualification": 8291,
      "Ġtemptations": 8292,
      "specific": 8293,
      "Ġgreen": 8294,
      "Ġ163": 8295,
      "Ġopportunities": 8296,
      "Ġreflecting": 8297,
      "separable": 8298,
      "Ġvisited": 8299,
      "Ġoccupation": 8300,
      "characteristic": 8301,
      "administer": 8302,
      "fertile": 8303,
      "Ġ262": 8304,
      "Ġcompacts": 8305,
      "Ġrecommendation": 8306,
      "carried": 8307,
      "Ġtitles": 8308,
      "Ġwalls": 8309,
      "Ġobstacle": 8310,
      "Ġaugmented": 8311,
      "year": 8312,
      "Ġstationary": 8313,
      "Ġalarming": 8314,
      "Ġcontemplated": 8315,
      "Ġcounteract": 8316,
      "gradations": 8317,
      "independently": 8318,
      "said": 8319,
      "truth": 8320,
      "control": 8321,
      "controvers": 8322,
      "Ġdamp": 8323,
      "Ġrhododend": 8324,
      "ĠpalÃ¦ontological": 8325,
      "destruction": 8326,
      "divisions": 8327,
      "readily": 8328,
      "Ġdepths": 8329,
      "constructed": 8330,
      "Ġdisappearance": 8331,
      "Ġabundance": 8332,
      "Ġembraced": 8333,
      "Ġdrawing": 8334,
      "maphrodite": 8335,
      "missions": 8336,
      "Ġconformable": 8337,
      "recent": 8338,
      "Ġpredict": 8339,
      "Ġpersuaded": 8340,
      "interesting": 8341,
      "ĠĠĠĠĠĠĠĠĠĠĠĠ": 8342,
      "Ġmetamorphosed": 8343,
      "Ġmanifestly": 8344,
      "danger": 8345,
      "Ġunanimous": 8346,
      "fertilised": 8347,
      "Ġadherence": 8348,
      "remarks": 8349,
      "Ġfalsely": 8350,
      "Ġrivalships": 8351,
      "human": 8352,
      "Ġpouter": 8353,
      "Ġpiece": 8354,
      "expression": 8355,
      "Ġintelligence": 8356,
      "distrib": 8357,
      "Ġconceivable": 8358,
      "Ġdiscipline": 8359,
      "Ġdisciplined": 8360,
      "Ġassertion": 8361,
      "physiological": 8362,
      "Ġcomparatively": 8363,
      "carefully": 8364,
      "mountain": 8365,
      "mountains": 8366,
      "Ġwidest": 8367,
      "Ġwitnesses": 8368,
      "Ġmovements": 8369,
      "Ġindulge": 8370,
      "strongly": 8371,
      "Ġembarrassments": 8372,
      "virt": 8373,
      "Ġlikeness": 8374,
      "Ġreversions": 8375,
      "Ġdisregarded": 8376,
      "Ġhelp": 8377,
      "Ġ2001": 8378,
      "Ġachaean": 8379,
      "glacial": 8380,
      "merely": 8381,
      "Ġinjured": 8382,
      "Ġumbell": 8383,
      "Ġattractive": 8384,
      "Ġaliens": 8385,
      "exclusive": 8386,
      "summits": 8387,
      "benef": 8388,
      "Ġsprings": 8389,
      "Ġwomb": 8390,
      "Ġcodes": 8391,
      "Ġdreaded": 8392,
      "Ġcloser": 8393,
      "Ġclosest": 8394,
      "Ġhypothesis": 8395,
      "Ġunavoidably": 8396,
      "Ġestimated": 8397,
      "Ġinfallibly": 8398,
      "Ġsuperintending": 8399,
      "critical": 8400,
      "multitude": 8401,
      "Ġsecrecy": 8402,
      "Ġweald": 8403,
      "Ġaristocracy": 8404,
      "britain": 8405,
      "Ġendowment": 8406,
      "Ġdiscrimination": 8407,
      "commerce": 8408,
      "Ġannihilation": 8409,
      "Ġimmigrants": 8410,
      "meaning": 8411,
      "Ġrhombic": 8412,
      "Ġpedig": 8413,
      "Ġconnexion": 8414,
      "positÃ¦": 8415,
      "Ġresentment": 8416,
      "Ġgreyhound": 8417,
      "Ġbermud": 8418,
      "Ġvicissitudes": 8419,
      "Ġaggrandizement": 8420,
      "expedient": 8421,
      "Ġsimilarly": 8422,
      "Ġelephant": 8423,
      "Ġvoluntary": 8424,
      "Ġsquirrels": 8425,
      "resemblance": 8426,
      "uscs": 8427,
      "Ġgeoffroy": 8428,
      "Ġdefeated": 8429,
      "Ġdelivered": 8430,
      "Ġauxiliary": 8431,
      "entirely": 8432,
      "improvement": 8433,
      "concurrence": 8434,
      "Ġposterity": 8435,
      "Ġconspiracy": 8436,
      "Ġbrazil": 8437,
      "Ġcircuitous": 8438,
      "communication": 8439,
      "arrangement": 8440,
      "Ġmetamorphosis": 8441,
      "hardly": 8442,
      "stocked": 8443,
      "Ġupland": 8444,
      "admissible": 8445,
      "izcacha": 8446,
      "Ġirresistible": 8447,
      "Ġbermuda": 8448,
      "*]": 8449,
      "[*]": 8450,
      "aver": 8451,
      "aut": 8452,
      "aid": 8453,
      "aem": 8454,
      "aper": 8455,
      "austral": 8456,
      "aisance": 8457,
      "bes": 8458,
      "bent": 8459,
      "breat": 8460,
      "baceous": 8461,
      "cover": 8462,
      "cular": 8463,
      "cause": 8464,
      "di": 8465,
      "dic": 8466,
      "dut": 8467,
      "dict": 8468,
      "eo": 8469,
      "ean": 8470,
      "ear": 8471,
      "economy": 8472,
      "fa": 8473,
      "fin": 8474,
      "fal": 8475,
      "fif": 8476,
      "fig": 8477,
      "fied": 8478,
      "fel": 8479,
      "friendly": 8480,
      "garden": 8481,
      "hes": 8482,
      "ilection": 8483,
      "iocene": 8484,
      "mark": 8485,
      "mel": 8486,
      "merc": 8487,
      "migr": 8488,
      "moment": 8489,
      "miles": 8490,
      "nut": 8491,
      "next": 8492,
      "nomination": 8493,
      "oly": 8494,
      "obed": 8495,
      "operate": 8496,
      "pas": 8497,
      "pay": 8498,
      "penter": 8499,
      "render": 8500,
      "rene": 8501,
      "sil": 8502,
      "sour": 8503,
      "say": 8504,
      "sav": 8505,
      "size": 8506,
      "specially": 8507,
      "tation": 8508,
      "uge": 8509,
      "vy": 8510,
      "vity": 8511,
      "want": 8512,
      "wark": 8513,
      "warm": 8514,
      "Ġended": 8515,
      "Ġtint": 8516,
      "Ġtended": 8517,
      "Ġtenth": 8518,
      "Ġtables": 8519,
      "Ġathen": 8520,
      "Ġox": 8521,
      "inum": 8522,
      "instit": 8523,
      "inex": 8524,
      "inner": 8525,
      "information": 8526,
      "invol": 8527,
      "onent": 8528,
      "enough": 8529,
      "enorm": 8530,
      "enjoy": 8531,
      "enlightened": 8532,
      "recomm": 8533,
      "receive": 8534,
      "released": 8535,
      "atred": 8536,
      "Ġsit": 8537,
      "Ġswell": 8538,
      "Ġsorts": 8539,
      "Ġsessile": 8540,
      "itch": 8541,
      "itory": 8542,
      "itating": 8543,
      "Ġbrown": 8544,
      "Ġbizcacha": 8545,
      "Ġwre": 8546,
      "Ġwaves": 8547,
      "Ġwicked": 8548,
      "Ġwool": 8549,
      "especially": 8550,
      "Ġcul": 8551,
      "Ġcam": 8552,
      "Ġcession": 8553,
      "ede": 8554,
      "isal": 8555,
      "Ġpins": 8556,
      "Ġpounds": 8557,
      "anks": 8558,
      "analog": 8559,
      "Ġinfect": 8560,
      "Ġinner": 8561,
      "Ġinroad": 8562,
      "Ġfat": 8563,
      "Ġfed": 8564,
      "Ġfount": 8565,
      "Ġfolly": 8566,
      "Ġfather": 8567,
      "Ġfrog": 8568,
      "Ġmice": 8569,
      "Ġmule": 8570,
      "Ġmichael": 8571,
      "oral": 8572,
      "orum": 8573,
      "ality": 8574,
      "along": 8575,
      "alition": 8576,
      "alone": 8577,
      "ics": 8578,
      "icle": 8579,
      "icability": 8580,
      "icament": 8581,
      "Ġhid": 8582,
      "Ġhooks": 8583,
      "Ġhooked": 8584,
      "Ġdile": 8585,
      "Ġdug": 8586,
      "Ġdwell": 8587,
      "Ġnerve": 8588,
      "Ġnurs": 8589,
      "entuck": 8590,
      "tham": 8591,
      "lease": 8592,
      "legisl": 8593,
      "station": 8594,
      "stain": 8595,
      "stated": 8596,
      "start": 8597,
      "roachments": 8598,
      "seem": 8599,
      "season": 8600,
      "selected": 8601,
      "seems": 8602,
      "Ġwhales": 8603,
      "Ġwheat": 8604,
      "lli": 8605,
      "Ġgir": 8606,
      "Ġgame": 8607,
      "Ġling": 8608,
      "Ġlog": 8609,
      "Ġlung": 8610,
      "Ġreign": 8611,
      "Ġreduction": 8612,
      "Ġreached": 8613,
      "Ġrebell": 8614,
      "Ġconception": 8615,
      "Ġconduc": 8616,
      "imposed": 8617,
      "impossible": 8618,
      "imulated": 8619,
      "improper": 8620,
      "imony": 8621,
      "Ġforfe": 8622,
      "urer": 8623,
      "Ġasa": 8624,
      "Ġasc": 8625,
      "Ġassemble": 8626,
      "Ġstag": 8627,
      "Ġstood": 8628,
      "Ġstems": 8629,
      "Ġstomach": 8630,
      "Ġnobles": 8631,
      "asked": 8632,
      "ascertain": 8633,
      "idate": 8634,
      "idents": 8635,
      "choice": 8636,
      "chosen": 8637,
      "Ġexem": 8638,
      "Ġexplicable": 8639,
      "Ġexcludes": 8640,
      "igerous": 8641,
      "Ġseizing": 8642,
      "Ġsucc": 8643,
      "therlands": 8644,
      "illing": 8645,
      "Ġmaize": 8646,
      "Ġmocking": 8647,
      "resol": 8648,
      "Ġunoccupied": 8649,
      "iled": 8650,
      "ilib": 8651,
      "Ġwel": 8652,
      "Ġweek": 8653,
      "aming": 8654,
      "amend": 8655,
      "Ġvi": 8656,
      "Ġvind": 8657,
      "Ġdear": 8658,
      "Ġdeceive": 8659,
      "que": 8660,
      "etc": 8661,
      "poise": 8662,
      "pollen": 8663,
      "Ġwilliam": 8664,
      "Ġram": 8665,
      "Ġray": 8666,
      "Ġrough": 8667,
      "Ġrage": 8668,
      "Ġrussia": 8669,
      "ĠcompositÃ¦": 8670,
      "ounced": 8671,
      "Ġshap": 8672,
      "Ġshorter": 8673,
      "emark": 8674,
      "Ġatroph": 8675,
      "usions": 8676,
      "toe": 8677,
      "added": 8678,
      "Ġparchment": 8679,
      "Ġix": 8680,
      "Ġcham": 8681,
      "Ġchancery": 8682,
      "Ġchoosing": 8683,
      "allowed": 8684,
      "pered": 8685,
      "perpet": 8686,
      "Ġimbec": 8687,
      "pleasure": 8688,
      "aciers": 8689,
      "Ġpliocene": 8690,
      "conce": 8691,
      "achery": 8692,
      "Ġmanners": 8693,
      "unci": 8694,
      "Ġalmighty": 8695,
      "Ġanywhere": 8696,
      "derived": 8697,
      "Ġjeo": 8698,
      "Ġpersever": 8699,
      "kept": 8700,
      "Ġappend": 8701,
      "ertion": 8702,
      "ongated": 8703,
      "Ġdisk": 8704,
      "Ġdisap": 8705,
      "Ġdisclaim": 8706,
      "Ġdisappeared": 8707,
      "Ġdisagree": 8708,
      "cian": 8709,
      "trade": 8710,
      "Ġposts": 8711,
      "parliament": 8712,
      "pardy": 8713,
      "Ġarises": 8714,
      "prohib": 8715,
      "Ġinterbreeding": 8716,
      "Ġinterrupted": 8717,
      "Ġintertropical": 8718,
      "Ġintermittent": 8719,
      "Ġinterdiction": 8720,
      "Ġheat": 8721,
      "Ġhealth": 8722,
      "areas": 8723,
      "Ġprecious": 8724,
      "Ġprepossessions": 8725,
      "Ġpreposterous": 8726,
      "assable": 8727,
      "inded": 8728,
      "Ġconstitutes": 8729,
      "agency": 8730,
      "Ġconsiders": 8731,
      "Ġconsonant": 8732,
      "Ġagitated": 8733,
      "ultimately": 8734,
      "while": 8735,
      "Ġdoll": 8736,
      "Ġreserve": 8737,
      "Ġkn": 8738,
      "Ġabortion": 8739,
      "lative": 8740,
      "aceÃ¦": 8741,
      "Ġenact": 8742,
      "Ġremed": 8743,
      "ificatory": 8744,
      "Ġindic": 8745,
      "Ġindig": 8746,
      "Ġindemn": 8747,
      "ceding": 8748,
      "Ġdeserts": 8749,
      "Ġbrush": 8750,
      "Ġtroub": 8751,
      "Ġtraff": 8752,
      "Ġaccounts": 8753,
      "Ġtape": 8754,
      "Ġconfounded": 8755,
      "Ġlessons": 8756,
      "Ġlessened": 8757,
      "intell": 8758,
      "notwithstanding": 8759,
      "useum": 8760,
      "useful": 8761,
      "Ġconsiderate": 8762,
      "Ġauthorizes": 8763,
      "Ġfirstly": 8764,
      "tency": 8765,
      "medium": 8766,
      "Ġfacto": 8767,
      "prim": 8768,
      "prise": 8769,
      "suff": 8770,
      "supp": 8771,
      "subs": 8772,
      "Ġempower": 8773,
      "Ġemphatic": 8774,
      "Ġwhatsoever": 8775,
      "Ġobnoxious": 8776,
      "Ġprovidence": 8777,
      "incial": 8778,
      "Ġopulent": 8779,
      "Ġactuated": 8780,
      "Ġsubtle": 8781,
      "Ġsubvert": 8782,
      "Ġslender": 8783,
      "hermaphrodites": 8784,
      "oco": 8785,
      "ocally": 8786,
      "Ġlongest": 8787,
      "Ġattent": 8788,
      "remains": 8789,
      "remote": 8790,
      "Ġadmire": 8791,
      "kingdom": 8792,
      "encroachments": 8793,
      "versions": 8794,
      "Ġflows": 8795,
      "Ġflava": 8796,
      "Ġflorets": 8797,
      "Ġrelinqu": 8798,
      "ounties": 8799,
      "Ġadvisable": 8800,
      "Ġequip": 8801,
      "Ġequilib": 8802,
      "prejud": 8803,
      "previously": 8804,
      "Ġoverrul": 8805,
      "forming": 8806,
      "Ġbrevity": 8807,
      "flo": 8808,
      "Ġdistinctly": 8809,
      "Ġeffective": 8810,
      "cumbent": 8811,
      "opposite": 8812,
      "Ġclassifications": 8813,
      "Ġcircles": 8814,
      "Ġcorre": 8815,
      "Ġrespected": 8816,
      "Ġcolor": 8817,
      "Ġcolorable": 8818,
      "Ġaffirmed": 8819,
      "Ġspherical": 8820,
      "Ġyellow": 8821,
      "Ġgoods": 8822,
      "Ġassist": 8823,
      "Ġofficially": 8824,
      "Ġrecall": 8825,
      "pped": 8826,
      "Ġendurance": 8827,
      "Ġdiscerning": 8828,
      "Ġsystematists": 8829,
      "Ġgeologists": 8830,
      "she": 8831,
      "show": 8832,
      "Ġimpropriety": 8833,
[...]
